{
  "version": "1.0",
  "truncation": null,
  "padding": null,
  "added_tokens": [
    {
      "id": 0,
      "content": "[PAD]",
      "single_word": false,
      "lstrip": false,
      "rstrip": false,
      "normalized": false,
      "special": true
    },
    {
      "id": 1,
      "content": "[CLS]",
      "single_word": false,
      "lstrip": false,
      "rstrip": false,
      "normalized": false,
      "special": true
    },
    {
      "id": 2,
      "content": "[SEP]",
      "single_word": false,
      "lstrip": false,
      "rstrip": false,
      "normalized": false,
      "special": true
    },
    {
      "id": 3,
      "content": "[MASK]",
      "single_word": false,
      "lstrip": false,
      "rstrip": false,
      "normalized": false,
      "special": true
    },
    {
      "id": 4,
      "content": "[UNK]",
      "single_word": false,
      "lstrip": false,
      "rstrip": false,
      "normalized": false,
      "special": true
    }
  ],
  "normalizer": null,
  "pre_tokenizer": {
    "type": "Whitespace"
  },
  "post_processor": null,
  "decoder": null,
  "model": {
    "type": "BPE",
    "dropout": null,
    "unk_token": "[UNK]",
    "continuing_subword_prefix": null,
    "end_of_word_suffix": null,
    "fuse_unk": false,
    "byte_fallback": false,
    "ignore_merges": false,
    "vocab": {
      "[PAD]": 0,
      "[CLS]": 1,
      "[SEP]": 2,
      "[MASK]": 3,
      "[UNK]": 4,
      "!": 5,
      "\"": 6,
      "$": 7,
      "%": 8,
      "'": 9,
      "(": 10,
      ")": 11,
      "*": 12,
      ",": 13,
      "-": 14,
      ".": 15,
      "/": 16,
      "0": 17,
      "1": 18,
      "2": 19,
      "3": 20,
      "4": 21,
      "5": 22,
      "6": 23,
      "7": 24,
      "8": 25,
      "9": 26,
      ":": 27,
      ";": 28,
      "?": 29,
      "[": 30,
      "]": 31,
      "a": 32,
      "b": 33,
      "c": 34,
      "d": 35,
      "e": 36,
      "f": 37,
      "g": 38,
      "h": 39,
      "i": 40,
      "j": 41,
      "k": 42,
      "l": 43,
      "m": 44,
      "n": 45,
      "o": 46,
      "p": 47,
      "q": 48,
      "r": 49,
      "s": 50,
      "t": 51,
      "u": 52,
      "v": 53,
      "w": 54,
      "x": 55,
      "y": 56,
      "z": 57,
      "ª": 58,
      "´": 59,
      "·": 60,
      "à": 61,
      "á": 62,
      "â": 63,
      "ã": 64,
      "ä": 65,
      "å": 66,
      "è": 67,
      "é": 68,
      "ê": 69,
      "ë": 70,
      "ì": 71,
      "í": 72,
      "î": 73,
      "ñ": 74,
      "ò": 75,
      "ó": 76,
      "ô": 77,
      "õ": 78,
      "ö": 79,
      "ù": 80,
      "ú": 81,
      "û": 82,
      "ü": 83,
      "ė": 84,
      "ĩ": 85,
      "ī": 86,
      "ũ": 87,
      "̀": 88,
      "́": 89,
      "̂": 90,
      "̃": 91,
      "̈": 92,
      "̌": 93,
      "̏": 94,
      "̜": 95,
      "̠": 96,
      "̩": 97,
      "̱": 98,
      "̹": 99,
      "ẽ": 100,
      "ῖ": 101,
      "–": 102,
      "􀑳": 103,
      "ts": 104,
      "òq": 105,
      "tã": 106,
      "ie": 107,
      "èq": 108,
      "ye": 109,
      "ch": 110,
      "al": 111,
      "éx": 112,
      "ke": 113,
      "ör": 114,
      "dör": 115,
      "tö": 116,
      "èx": 117,
      "ul": 118,
      "óq": 119,
      "ka": 120,
      "kèq": 121,
      "éq": 122,
      "pa": 123,
      "áx": 124,
      "nẽ": 125,
      "wa": 126,
      "se": 127,
      "nã": 128,
      "kĩ": 129,
      "wã": 130,
      "be": 131,
      "ir": 132,
      "tso": 133,
      "sh": 134,
      "ìx": 135,
      "mĩ": 136,
      "káx": 137,
      "aw": 138,
      "ki": 139,
      "kã": 140,
      "íx": 141,
      "ku": 142,
      "bu": 143,
      "tk": 144,
      "kẽ": 145,
      "kö": 146,
      "àx": 147,
      "sa": 148,
      "ak": 149,
      "ùx": 150,
      "di": 151,
      "mã": 152,
      "bua": 153,
      "wèx": 154,
      "îx": 155,
      "kũ": 156,
      "la": 157,
      "wéx": 158,
      "úx": 159,
      "yö": 160,
      "óqk": 161,
      "ich": 162,
      "wö": 163,
      "wòq": 164,
      "bi": 165,
      "da": 166,
      "kà": 167,
      "köl": 168,
      "si": 169,
      "ba": 170,
      "mìx": 171,
      "kë": 172,
      "ũk": 173,
      "pà": 174,
      "nèx": 175,
      "ta": 176,
      "kòq": 177,
      "bl": 178,
      "uj": 179,
      "irir": 180,
      "èke": 181,
      "kal": 182,
      "cha": 183,
      "ök": 184,
      "êq": 185,
      "òx": 186,
      "míx": 187,
      "rö": 188,
      "ák": 189,
      "ër": 190,
      "yaw": 191,
      "daw": 192,
      "óx": 193,
      "bòq": 194,
      "ri": 195,
      "tãîx": 196,
      "wak": 197,
      "yéq": 198,
      "bal": 199,
      "séx": 200,
      "yi": 201,
      "er": 202,
      "sã": 203,
      "aj": 204,
      "íyi": 205,
      "ñẽ": 206,
      "sul": 207,
      "tsi": 208,
      "ujt": 209,
      "éxn": 210,
      "aû": 211,
      "es": 212,
      "alà": 213,
      "ar": 214,
      "kãnèx": 215,
      "bul": 216,
      "kàl": 217,
      "tà": 218,
      "kũéx": 219,
      "wèxs": 220,
      "rke": 221,
      "ẽnã": 222,
      "ur": 223,
      "mẽ": 224,
      "dal": 225,
      "an": 226,
      "kũéxkĩ": 227,
      "ĩã": 228,
      "wẽ": 229,
      "ala": 230,
      "li": 231,
      "kià": 232,
      "âx": 233,
      "èkẽ": 234,
      "pë": 235,
      "ulà": 236,
      "dé": 237,
      "ñã": 238,
      "te": 239,
      "sö": 240,
      "alá": 241,
      "kl": 242,
      "yèq": 243,
      "tke": 244,
      "ñìx": 245,
      "rkẽ": 246,
      "yök": 247,
      "wéq": 248,
      "sibòq": 249,
      "tsã": 250,
      "éqkë": 251,
      "ro": 252,
      "yòq": 253,
      "kalòq": 254,
      "chi": 255,
      "shk": 256,
      "bak": 257,
      "kéx": 258,
      "yà": 259,
      "in": 260,
      "we": 261,
      "dòq": 262,
      "káxwö": 263,
      "wóq": 264,
      "ĩàx": 265,
      "mèx": 266,
      "tè": 267,
      "tóq": 268,
      "mĩk": 269,
      "òqke": 270,
      "or": 271,
      "wà": 272,
      "ule": 273,
      "kiànã": 274,
      "dë": 275,
      "che": 276,
      "kíx": 277,
      "ska": 278,
      "ése": 279,
      "éql": 280,
      "icha": 281,
      "ujté": 282,
      "on": 283,
      "ás": 284,
      "êqr": 285,
      "kuö": 286,
      "ké": 287,
      "nĩ": 288,
      "tkër": 289,
      "apà": 290,
      "sĩ": 291,
      "ét": 292,
      "éqkëpa": 293,
      "bit": 294,
      "jkë": 295,
      "bák": 296,
      "sulû": 297,
      "nũk": 298,
      "tse": 299,
      "kãnèxbl": 300,
      "bö": 301,
      "të": 302,
      "töm": 303,
      "kap": 304,
      "dawás": 305,
      "bulu": 306,
      "wèxke": 307,
      "ãñìx": 308,
      "wé": 309,
      "ca": 310,
      "en": 311,
      "éqr": 312,
      "erë": 313,
      "kè": 314,
      "mùx": 315,
      "yì": 316,
      "klòq": 317,
      "kóq": 318,
      "kuòq": 319,
      "lĩ": 320,
      "sèx": 321,
      "shùx": 322,
      "ci": 323,
      "pá": 324,
      "bèq": 325,
      "sts": 326,
      "chè": 327,
      "ẽn": 328,
      "mãñ": 329,
      "ula": 330,
      "kie": 331,
      "wìx": 332,
      "jka": 333,
      "aláköl": 334,
      "kicha": 335,
      "îxñẽ": 336,
      "awá": 337,
      "akéqkëpa": 338,
      "to": 339,
      "tsir": 340,
      "ñèx": 341,
      "tër": 342,
      "íxẽ": 343,
      "iche": 344,
      "lo": 345,
      "êx": 346,
      "ñéx": 347,
      "kar": 348,
      "dì": 349,
      "io": 350,
      "batà": 351,
      "jkuö": 352,
      "kóx": 353,
      "kiè": 354,
      "ichóqk": 355,
      "yéqs": 356,
      "ká": 357,
      "núx": 358,
      "súx": 359,
      "tt": 360,
      "ya": 361,
      "alê": 362,
      "ôq": 363,
      "ra": 364,
      "séxjka": 365,
      "sí": 366,
      "méx": 367,
      "re": 368,
      "ãt": 369,
      "tul": 370,
      "míxã": 371,
      "aì": 372,
      "bò": 373,
      "co": 374,
      "kì": 375,
      "sùx": 376,
      "wéqm": 377,
      "yóq": 378,
      "kat": 379,
      "yàmĩ": 380,
      "tãnẽ": 381,
      "bè": 382,
      "kí": 383,
      "tsé": 384,
      "tsáx": 385,
      "ichà": 386,
      "màx": 387,
      "móx": 388,
      "yul": 389,
      "kuá": 390,
      "dakar": 391,
      "míxk": 392,
      "de": 393,
      "tsòq": 394,
      "dakarò": 395,
      "pe": 396,
      "rû": 397,
      "ulâ": 398,
      "kua": 399,
      "wakpa": 400,
      "dà": 401,
      "ue": 402,
      "wâ": 403,
      "shkòq": 404,
      "yawè": 405,
      "dù": 406,
      "ũl": 407,
      "úxk": 408,
      "dabò": 409,
      "..": 410,
      "rë": 411,
      "ché": 412,
      "yêq": 413,
      "káxwöta": 414,
      "ju": 415,
      "tsẽ": 416,
      "kutà": 417,
      "mìxk": 418,
      "ĩàxnã": 419,
      "00": 420,
      "chak": 421,
      "kök": 422,
      "bla": 423,
      "nõ": 424,
      "éjkë": 425,
      "ali": 426,
      "dià": 427,
      "dar": 428,
      "mbl": 429,
      "mâx": 430,
      "rak": 431,
      "uyèq": 432,
      "uyèqjkuö": 433,
      "bêqr": 434,
      "òqk": 435,
      "shka": 436,
      "dawè": 437,
      "yêqs": 438,
      "as": 439,
      "rule": 440,
      "ukòq": 441,
      "sht": 442,
      "ìtãnẽ": 443,
      "bike": 444,
      "kòx": 445,
      "pi": 446,
      "kũẽ": 447,
      "bà": 448,
      "pp": 449,
      "wák": 450,
      "kabèq": 451,
      "bikei": 452,
      "chì": 453,
      "wóqulâ": 454,
      "dìwö": 455,
      "le": 456,
      "mõ": 457,
      "îr": 458,
      "dióq": 459,
      "ujtè": 460,
      "rmĩ": 461,
      "wá": 462,
      "tsè": 463,
      "nãmùx": 464,
      "ujch": 465,
      "êqrêq": 466,
      "tsóx": 467,
      "èqnẽ": 468,
      "nãñéx": 469,
      "datsi": 470,
      "balo": 471,
      "bí": 472,
      "mìxkã": 473,
      "juan": 474,
      "at": 475,
      "bri": 476,
      "mîx": 477,
      "so": 478,
      "chìchi": 479,
      "wóqk": 480,
      "ía": 481,
      "íyiwak": 482,
      "bù": 483,
      "yë": 484,
      "tabè": 485,
      "bitũ": 486,
      "mãñáx": 487,
      "darêqrêq": 488,
      "nãñéxwe": 489,
      "tòq": 490,
      "alí": 491,
      "blë": 492,
      "ĩàxnẽ": 493,
      "nẽt": 494,
      "dik": 495,
      "séxrkẽ": 496,
      "mar": 497,
      "yawóqk": 498,
      "sãwèx": 499,
      "bóq": 500,
      "kir": 501,
      "tu": 502,
      "mãl": 503,
      "dur": 504,
      "té": 505,
      "tökicha": 506,
      "wake": 507,
      "ñãl": 508,
      "dabòm": 509,
      "bo": 510,
      "do": 511,
      "no": 512,
      "wõ": 513,
      "ãmìx": 514,
      "ĩâx": 515,
      "tsí": 516,
      "ikũ": 517,
      "skà": 518,
      "dak": 519,
      "ikuòq": 520,
      "sku": 521,
      "ñíx": 522,
      "tök": 523,
      "du": 524,
      "dro": 525,
      "tal": 526,
      "tsîr": 527,
      "tkë": 528,
      "àxri": 529,
      "wóqkir": 530,
      "mòx": 531,
      "skéx": 532,
      "ès": 533,
      "ìs": 534,
      "íyök": 535,
      "kanèx": 536,
      "tkòq": 537,
      "ria": 538,
      "kiànẽ": 539,
      "shkèx": 540,
      "kũẽkĩ": 541,
      "tẽ": 542,
      "wíx": 543,
      "yè": 544,
      "éwa": 545,
      "tsë": 546,
      "ulìtãnẽ": 547,
      "mìxnẽ": 548,
      "bòqt": 549,
      "sãwéx": 550,
      "bá": 551,
      "ff": 552,
      "ko": 553,
      "per": 554,
      "tkèq": 555,
      "túx": 556,
      "ón": 557,
      "ĩnúx": 558,
      "èqnã": 559,
      "tkè": 560,
      "blök": 561,
      "alákölpa": 562,
      "kòxs": 563,
      "ax": 564,
      "iã": 565,
      "chka": 566,
      "àxs": 567,
      "tulur": 568,
      "pedro": 569,
      "ñãlàx": 570,
      "sò": 571,
      "èẽ": 572,
      "tká": 573,
      "kòqchi": 574,
      "balök": 575,
      "ajkóq": 576,
      "ana": 577,
      "kéq": 578,
      "rbulu": 579,
      "va": 580,
      "chkòq": 581,
      "wòqba": 582,
      "dòqka": 583,
      "nĩmàx": 584,
      "wámbl": 585,
      "kùx": 586,
      "néx": 587,
      "râ": 588,
      "ti": 589,
      "tsa": 590,
      "tãwèx": 591,
      "sulù": 592,
      "aa": 593,
      "bì": 594,
      "mi": 595,
      "âr": 596,
      "ajká": 597,
      "mèxke": 598,
      "klòqwẽ": 599,
      "yàmĩpa": 600,
      "na": 601,
      "sòrbulu": 602,
      "ma": 603,
      "wîx": 604,
      "kàx": 605,
      "ttè": 606,
      "úk": 607,
      "àxnẽ": 608,
      "béqr": 609,
      "ni": 610,
      "saw": 611,
      "tsìx": 612,
      "ajkòq": 613,
      "esc": 614,
      "ãñìxes": 615,
      "mãñàx": 616,
      "ujchẽn": 617,
      "maría": 618,
      "kéqkë": 619,
      "múx": 620,
      "su": 621,
      "sũ": 622,
      "ãwìx": 623,
      "ãwíx": 624,
      "bulé": 625,
      "kãnèxblök": 626,
      "kù": 627,
      "él": 628,
      "ĩẽ": 629,
      "tãwéx": 630,
      "nãùx": 631,
      "ditsòq": 632,
      "dalì": 633,
      "bikeitse": 634,
      "dá": 635,
      "tá": 636,
      "ton": 637,
      "ãmùx": 638,
      "ók": 639,
      "ulá": 640,
      "shkẽ": 641,
      "uela": 642,
      "...": 643,
      "escuela": 644,
      "jk": 645,
      "tkabèq": 646,
      "us": 647,
      "ĩn": 648,
      "ĩùx": 649,
      "sarû": 650,
      "diòq": 651,
      "yòqnẽ": 652,
      "bêqrie": 653,
      "skéxl": 654,
      "pero": 655,
      "dâ": 656,
      "jkö": 657,
      "mũl": 658,
      "tak": 659,
      "ãméx": 660,
      "chèke": 661,
      "kãñíx": 662,
      "íxmã": 663,
      "yéqria": 664,
      "tsiru": 665,
      "lô": 666,
      "nêx": 667,
      "po": 668,
      "ñáx": 669,
      "èqmẽ": 670,
      "mãnèx": 671,
      "ĩnúxköl": 672,
      "kàxlĩ": 673,
      "car": 674,
      "lö": 675,
      "ne": 676,
      "sũl": 677,
      "chà": 678,
      "katà": 679,
      "kibí": 680,
      "ajkà": 681,
      "tàyë": 682,
      "yèqnẽ": 683,
      "kéxwe": 684,
      "ukòqki": 685,
      "sarûrû": 686,
      "sũlìx": 687,
      "br": 688,
      "sì": 689,
      "wôq": 690,
      "tsur": 691,
      "alè": 692,
      "shàx": 693,
      "buá": 694,
      "àxnã": 695,
      "wéxshkẽ": 696,
      "yawèke": 697,
      "alàr": 698,
      "kéxk": 699,
      "apàio": 700,
      "yêqsyêqs": 701,
      "bùsi": 702,
      "shkèxnã": 703,
      "kú": 704,
      "mũk": 705,
      "tó": 706,
      "tẽn": 707,
      "kue": 708,
      "këpa": 709,
      "míxshka": 710,
      "tãîxë": 711,
      "sãũk": 712,
      "ajá": 713,
      "shkóqk": 714,
      "sèxrke": 715,
      "móxki": 716,
      "dikìx": 717,
      "bét": 718,
      "dó": 719,
      "por": 720,
      "rkã": 721,
      "tsĩ": 722,
      "tsîx": 723,
      "òqkẽ": 724,
      "kela": 725,
      "dad": 726,
      "kàlula": 727,
      "sèxnẽ": 728,
      "vaca": 729,
      "me": 730,
      "mũ": 731,
      "wë": 732,
      "wì": 733,
      "èk": 734,
      "ùsh": 735,
      "ẽmã": 736,
      "áxkĩ": 737,
      "wéxjkë": 738,
      "pàkök": 739,
      "tsikì": 740,
      "káxwötã": 741,
      "súxrule": 742,
      "axmìx": 743,
      "tsuru": 744,
      "buáala": 745,
      "go": 746,
      "is": 747,
      "mm": 748,
      "sẽ": 749,
      "tri": 750,
      "tsök": 751,
      "ien": 752,
      "mìxke": 753,
      "éqltë": 754,
      "dö": 755,
      "iklòqwẽ": 756,
      "kèke": 757,
      "os": 758,
      "que": 759,
      "vi": 760,
      "ík": 761,
      "wöla": 762,
      "tsitsi": 763,
      "klóq": 764,
      "dòqmĩ": 765,
      "kíxmẽ": 766,
      "sulûë": 767,
      "ñèxẽ": 768,
      "móxköl": 769,
      "mîxkẽ": 770,
      "bóql": 771,
      "tsítsi": 772,
      "déq": 773,
      "rpa": 774,
      "tèke": 775,
      "ve": 776,
      "èmĩ": 777,
      "chök": 778,
      "chkì": 779,
      "chãmùx": 780,
      "tkî": 781,
      "tkö": 782,
      "wèxkẽ": 783,
      "biyòq": 784,
      "biké": 785,
      "alátsitsi": 786,
      "yàbulu": 787,
      "aìẽ": 788,
      "mãñáxl": 789,
      "ll": 790,
      "man": 791,
      "pé": 792,
      "pòq": 793,
      "àli": 794,
      "ãl": 795,
      "íke": 796,
      "ímã": 797,
      "tãìx": 798,
      "tkéql": 799,
      "wéqpa": 800,
      "kãñíxk": 801,
      "kéqkëpa": 802,
      "yé": 803,
      "yal": 804,
      "àsh": 805,
      "ãmèx": 806,
      "èqr": 807,
      "alar": 808,
      "nãĩ": 809,
      "tké": 810,
      "akõ": 811,
      "mãléx": 812,
      "ikũáxkĩ": 813,
      "der": 814,
      "eh": 815,
      "iòx": 816,
      "sir": 817,
      "tô": 818,
      "tch": 819,
      "ãki": 820,
      "kak": 821,
      "tkèke": 822,
      "pàke": 823,
      "bala": 824,
      "sula": 825,
      "dékã": 826,
      "teat": 827,
      "yèqnã": 828,
      "inùx": 829,
      "dióqköl": 830,
      "ulát": 831,
      "taw": 832,
      "talà": 833,
      "án": 834,
      "èköl": 835,
      "ûx": 836,
      "tsèke": 837,
      "wambl": 838,
      "íxs": 839,
      "diché": 840,
      "këkëpa": 841,
      "dawe": 842,
      "dalô": 843,
      "bakdë": 844,
      "sĩnĩ": 845,
      "bitùx": 846,
      "awápa": 847,
      "sùxnẽ": 848,
      "ah": 849,
      "bé": 850,
      "ike": 851,
      "kula": 852,
      "pu": 853,
      "íẽ": 854,
      "tsóq": 855,
      "tsòqke": 856,
      "ulur": 857,
      "óqli": 858,
      "kũèx": 859,
      "yawòqk": 860,
      "bòqk": 861,
      "indi": 862,
      "inúx": 863,
      "shùxã": 864,
      "shkòqke": 865,
      "cu": 866,
      "kâ": 867,
      "lur": 868,
      "tala": 869,
      "u2": 870,
      "ár": 871,
      "úr": 872,
      "ẽt": 873,
      "tsu": 874,
      "shẽt": 875,
      "tkök": 876,
      "dayèq": 877,
      "kala": 878,
      "sãwèxke": 879,
      "sãúxk": 880,
      "kalòqio": 881,
      "sĩwã": 882,
      "kapòq": 883,
      "kápi": 884,
      "katèkẽ": 885,
      "tabèchka": 886,
      "skuèq": 887,
      "dalôlô": 888,
      "19": 889,
      "kò": 890,
      "krâ": 891,
      "lor": 892,
      "máx": 893,
      "ské": 894,
      "tka": 895,
      "ug": 896,
      "wè": 897,
      "wër": 898,
      "àl": 899,
      "ìnẽ": 900,
      "íñẽ": 901,
      "ôx": 902,
      "tsö": 903,
      "chòq": 904,
      "katè": 905,
      "nãmã": 906,
      "nãmẽ": 907,
      "akà": 908,
      "kalé": 909,
      "míxkẽ": 910,
      "yawé": 911,
      "dawö": 912,
      "sulà": 913,
      "bulâ": 914,
      "skapë": 915,
      "tsirí": 916,
      "kùxnẽ": 917,
      "jkêx": 918,
      "alàralar": 919,
      "kúl": 920,
      "bikéi": 921,
      "tchõ": 922,
      "akuòq": 923,
      "apá": 924,
      "ces": 925,
      "dúk": 926,
      "ièq": 927,
      "ióqk": 928,
      "nòx": 929,
      "àk": 930,
      "ët": 931,
      "tsì": 932,
      "cho": 933,
      "chò": 934,
      "chö": 935,
      "wãmĩ": 936,
      "sha": 937,
      "káxpa": 938,
      "kièke": 939,
      "tkòqke": 940,
      "pàl": 941,
      "tar": 942,
      "röl": 943,
      "ujtòq": 944,
      "ujtóqk": 945,
      "daléqr": 946,
      "kalòqte": 947,
      "shkè": 948,
      "ichàke": 949,
      "dàtsĩ": 950,
      "chakà": 951,
      "wòqbatse": 952,
      "teatro": 953,
      "dóq": 954,
      "den": 955,
      "ló": 956,
      "pre": 957,
      "wí": 958,
      "ês": 959,
      "êskapë": 960,
      "ñĩ": 961,
      "tsak": 962,
      "chóqk": 963,
      "ale": 964,
      "buà": 965,
      "wéxse": 966,
      "bat": 967,
      "séxn": 968,
      "sãúx": 969,
      "yòqkĩ": 970,
      "ina": 971,
      "tèröl": 972,
      "enton": 973,
      "wóqulârke": 974,
      "bribri": 975,
      "bola": 976,
      "fff": 977,
      "mãñàxt": 978,
      "kéxkkrâ": 979,
      "inúxköl": 980,
      "entonces": 981,
      "con": 982,
      "nũ": 983,
      "pul": 984,
      "páx": 985,
      "pala": 986,
      "uaa": 987,
      "xas": 988,
      "yóqk": 989,
      "áie": 990,
      "tséx": 991,
      "tsèqnẽ": 992,
      "alâr": 993,
      "èxr": 994,
      "nãwã": 995,
      "kièkẽ": 996,
      "tko": 997,
      "dawà": 998,
      "rio": 999,
      "balë": 1000,
      "dalòq": 1001,
      "texas": 1002,
      "nĩk": 1003,
      "sèxnũk": 1004,
      "ñèxke": 1005,
      "dos": 1006,
      "ĩâxĩâx": 1007,
      "ikũãki": 1008,
      "talók": 1009,
      "nãùxyö": 1010,
      "tótt": 1011,
      "tãìxë": 1012,
      "yawòqkbla": 1013,
      "aí": 1014,
      "her": 1015,
      "kóqk": 1016,
      "oh": 1017,
      "só": 1018,
      "tóqk": 1019,
      "uk": 1020,
      "ábi": 1021,
      "ówã": 1022,
      "öö": 1023,
      "tsèq": 1024,
      "tsèx": 1025,
      "kèqkë": 1026,
      "sem": 1027,
      "shòx": 1028,
      "kalè": 1029,
      "yawök": 1030,
      "ros": 1031,
      "bitéx": 1032,
      "kãnèxblö": 1033,
      "kapóqli": 1034,
      "éqrule": 1035,
      "dabòp": 1036,
      "diàẽ": 1037,
      "dawèie": 1038,
      "ukòqkĩ": 1039,
      "mãñáxt": 1040,
      "béqrë": 1041,
      "indiana": 1042,
      "ábion": 1043,
      "aku": 1044,
      "aci": 1045,
      "aug": 1046,
      "dor": 1047,
      "fi": 1048,
      "jo": 1049,
      "là": 1050,
      "nĩã": 1051,
      "púx": 1052,
      "èt": 1053,
      "éwã": 1054,
      "ís": 1055,
      "ùù": 1056,
      "èqkèqkë": 1057,
      "tkóq": 1058,
      "bata": 1059,
      "ajkuòq": 1060,
      "sulìtãnẽ": 1061,
      "kãnèxwèxke": 1062,
      "kékã": 1063,
      "kãnèxblòqke": 1064,
      "wìxkela": 1065,
      "tsirì": 1066,
      "dìba": 1067,
      "sùxmã": 1068,
      "tséi": 1069,
      "wânãmã": 1070,
      "chakì": 1071,
      "dikó": 1072,
      "wámblök": 1073,
      "usta": 1074,
      "wìm": 1075,
      "trini": 1076,
      "manca": 1077,
      "talamanca": 1078,
      "augusta": 1079,
      "apë": 1080,
      "ik": 1081,
      "iö": 1082,
      "ikiànã": 1083,
      "kul": 1084,
      "kúx": 1085,
      "mu": 1086,
      "nán": 1087,
      "pû": 1088,
      "téq": 1089,
      "tóx": 1090,
      "ter": 1091,
      "tro": 1092,
      "wáx": 1093,
      "èka": 1094,
      "ètöm": 1095,
      "ĩñã": 1096,
      "tsàx": 1097,
      "chke": 1098,
      "tkéq": 1099,
      "san": 1100,
      "wéxalè": 1101,
      "òxnẽ": 1102,
      "sãwẽ": 1103,
      "bulù": 1104,
      "mẽr": 1105,
      "daló": 1106,
      "débitũ": 1107,
      "shkóq": 1108,
      "wóqs": 1109,
      "ona": 1110,
      "cabal": 1111,
      "ttòq": 1112,
      "tsáxka": 1113,
      "tsáxlĩ": 1114,
      "wákpa": 1115,
      "wóqulâũk": 1116,
      "wòqbatsö": 1117,
      "sìkua": 1118,
      "tsîxnẽt": 1119,
      "ahor": 1120,
      "káxpake": 1121,
      "hernán": 1122,
      "cor": 1123,
      "dí": 1124,
      "iè": 1125,
      "jkẽ": 1126,
      "kèx": 1127,
      "mba": 1128,
      "ru": 1129,
      "sĩàx": 1130,
      "um": 1131,
      "udad": 1132,
      "wĩ": 1133,
      "yú": 1134,
      "yèke": 1135,
      "ũj": 1136,
      "èqk": 1137,
      "káxmîx": 1138,
      "kãl": 1139,
      "kuóq": 1140,
      "mãnéx": 1141,
      "siòx": 1142,
      "blö": 1143,
      "sulèq": 1144,
      "tsikir": 1145,
      "daléq": 1146,
      "ñãk": 1147,
      "ciudad": 1148,
      "bánẽt": 1149,
      "axñìx": 1150,
      "élke": 1151,
      "porque": 1152,
      "ùshi": 1153,
      "kalépa": 1154,
      "bikéitse": 1155,
      "pûs": 1156,
      "caballo": 1157,
      "cul": 1158,
      "cien": 1159,
      "echo": 1160,
      "iki": 1161,
      "lá": 1162,
      "mona": 1163,
      "wóx": 1164,
      "ãmẽ": 1165,
      "ôë": 1166,
      "tsúx": 1167,
      "tãíx": 1168,
      "éqwë": 1169,
      "káxjkêx": 1170,
      "kichà": 1171,
      "kãnòx": 1172,
      "úxrkẽ": 1173,
      "bitséi": 1174,
      "mìxr": 1175,
      "mìxã": 1176,
      "chaka": 1177,
      "òxmĩk": 1178,
      "dawòq": 1179,
      "bòqtöm": 1180,
      "daléwa": 1181,
      "wéblök": 1182,
      "wébalök": 1183,
      "kèwã": 1184,
      "ramona": 1185,
      "dàmĩ": 1186,
      "000": 1187,
      "ajkóqnũk": 1188,
      "wîxke": 1189,
      "kéqkëla": 1190,
      "derecho": 1191,
      "bâ": 1192,
      "el": 1193,
      "ish": 1194,
      "je": 1195,
      "kák": 1196,
      "péq": 1197,
      "sàl": 1198,
      "talá": 1199,
      "uni": 1200,
      "ver": 1201,
      "és": 1202,
      "éköl": 1203,
      "érë": 1204,
      "ël": 1205,
      "ònẽ": 1206,
      "chal": 1207,
      "chéq": 1208,
      "éxr": 1209,
      "tkèkẽ": 1210,
      "àxtẽ": 1211,
      "bita": 1212,
      "pàköl": 1213,
      "kalö": 1214,
      "tel": 1215,
      "yòqnã": 1216,
      "yòqki": 1217,
      "ing": 1218,
      "dòqkã": 1219,
      "pátsi": 1220,
      "los": 1221,
      "cos": 1222,
      "yóqrke": 1223,
      "yulóqk": 1224,
      "asta": 1225,
      "tsóxlĩ": 1226,
      "bíl": 1227,
      "sulùë": 1228,
      "sũwèx": 1229,
      "ĩnùx": 1230,
      "tsikìnẽ": 1231,
      "mmm": 1232,
      "àlim": 1233,
      "bétk": 1234,
      "batör": 1235,
      "páxlĩ": 1236,
      "wóqsũk": 1237,
      "10": 1238,
      "100": 1239,
      "akèq": 1240,
      "bë": 1241,
      "bër": 1242,
      "cie": 1243,
      "fa": 1244,
      "isht": 1245,
      "itòq": 1246,
      "kó": 1247,
      "kõ": 1248,
      "mo": 1249,
      "res": 1250,
      "sẽn": 1251,
      "sûx": 1252,
      "tĩ": 1253,
      "tũ": 1254,
      "ttö": 1255,
      "vo": 1256,
      "yèkẽ": 1257,
      "átu": 1258,
      "ãã": 1259,
      "ãmíx": 1260,
      "ãmèxke": 1261,
      "újkö": 1262,
      "tsule": 1263,
      "tãwẽ": 1264,
      "chkà": 1265,
      "èxë": 1266,
      "kabà": 1267,
      "ber": 1268,
      "kili": 1269,
      "köla": 1270,
      "sar": 1271,
      "yöm": 1272,
      "wòqa": 1273,
      "wòqbla": 1274,
      "kàsir": 1275,
      "pàkòq": 1276,
      "yawóq": 1277,
      "rikĩ": 1278,
      "balí": 1279,
      "séxrke": 1280,
      "tsikí": 1281,
      "tsipátsi": 1282,
      "éxnũk": 1283,
      "mẽrkã": 1284,
      "démĩ": 1285,
      "bèqr": 1286,
      "stsòq": 1287,
      "síwèxke": 1288,
      "yóqrule": 1289,
      "shtá": 1290,
      "ppèke": 1291,
      "bìt": 1292,
      "carlos": 1293,
      "péi": 1294,
      "presi": 1295,
      "pulèq": 1296,
      "bro": 1297,
      "fe": 1298,
      "ia": 1299,
      "iéjkë": 1300,
      "mb": 1301,
      "st": 1302,
      "tùx": 1303,
      "tèkẽ": 1304,
      "tèqnã": 1305,
      "un": 1306,
      "yík": 1307,
      "ãmõ": 1308,
      "ìnã": 1309,
      "ñêx": 1310,
      "tskì": 1311,
      "chá": 1312,
      "chòqke": 1313,
      "nãmàx": 1314,
      "shki": 1315,
      "káxshùxã": 1316,
      "kãnõ": 1317,
      "kukù": 1318,
      "tkêq": 1319,
      "ichèmĩ": 1320,
      "bitsîx": 1321,
      "sia": 1322,
      "mìxwöla": 1323,
      "kalóq": 1324,
      "òxr": 1325,
      "míxke": 1326,
      "yawòqke": 1327,
      "ajkẽ": 1328,
      "söla": 1329,
      "wéqtsë": 1330,
      "tèwã": 1331,
      "kíxka": 1332,
      "sĩõ": 1333,
      "kapé": 1334,
      "klòqnẽ": 1335,
      "stsa": 1336,
      "tos": 1337,
      "tté": 1338,
      "katèke": 1339,
      "nõk": 1340,
      "mãlẽ": 1341,
      "tkòqmĩ": 1342,
      "alátsitsipa": 1343,
      "mãléxpa": 1344,
      "pues": 1345,
      "ación": 1346,
      "ahora": 1347,
      "ũjúx": 1348,
      "kabàiö": 1349,
      "bú": 1350,
      "dula": 1351,
      "ië": 1352,
      "kê": 1353,
      "nâx": 1354,
      "pâ": 1355,
      "séq": 1356,
      "ukö": 1357,
      "wêq": 1358,
      "yu": 1359,
      "ènẽ": 1360,
      "ìbri": 1361,
      "tsúxk": 1362,
      "mĩr": 1363,
      "kãnéx": 1364,
      "kuè": 1365,
      "ditsé": 1366,
      "wèxmĩ": 1367,
      "wòqtke": 1368,
      "wòqshàx": 1369,
      "bikâ": 1370,
      "bikili": 1371,
      "nèxke": 1372,
      "kòqko": 1373,
      "ble": 1374,
      "yawèkẽ": 1375,
      "kãnèxũk": 1376,
      "ura": 1377,
      "dala": 1378,
      "alat": 1379,
      "ulàr": 1380,
      "tsãk": 1381,
      "yòqr": 1382,
      "òqkewã": 1383,
      "ujtéwã": 1384,
      "cam": 1385,
      "wìxke": 1386,
      "ttòqke": 1387,
      "yulár": 1388,
      "dàtsẽ": 1389,
      "chakè": 1390,
      "îrî": 1391,
      "tẽr": 1392,
      "tkámĩ": 1393,
      "kéqpa": 1394,
      "sawéq": 1395,
      "mũlùx": 1396,
      "nêxnẽ": 1397,
      "brìbri": 1398,
      "wôqke": 1399,
      "kéxkra": 1400,
      "ãmèxnẽ": 1401,
      "talànẽ": 1402,
      "semana": 1403,
      "20": 1404,
      "béq": 1405,
      "ck": 1406,
      "ga": 1407,
      "lîx": 1408,
      "môx": 1409,
      "nne": 1410,
      "ták": 1411,
      "àr": 1412,
      "éẽ": 1413,
      "êt": 1414,
      "ëmẽ": 1415,
      "ír": 1416,
      "ñîx": 1417,
      "ûrikĩ": 1418,
      "tsíx": 1419,
      "tsèkẽ": 1420,
      "aló": 1421,
      "éxmã": 1422,
      "ulí": 1423,
      "wash": 1424,
      "irt": 1425,
      "shã": 1426,
      "kãt": 1427,
      "kuak": 1428,
      "bur": 1429,
      "wèxwã": 1430,
      "ichè": 1431,
      "yéqpa": 1432,
      "arkĩ": 1433,
      "kãnèxõ": 1434,
      "lis": 1435,
      "dénẽ": 1436,
      "söl": 1437,
      "tkenẽ": 1438,
      "kéxska": 1439,
      "yànẽ": 1440,
      "sĩêx": 1441,
      "kèkã": 1442,
      "kóqt": 1443,
      "cia": 1444,
      "kóxpàkök": 1445,
      "kóxpàkòq": 1446,
      "màxso": 1447,
      "kuáblök": 1448,
      "kuátkök": 1449,
      "mâxtk": 1450,
      "pilo": 1451,
      "bàka": 1452,
      "ppè": 1453,
      "tsóxtã": 1454,
      "durkĩ": 1455,
      "ikuòqwö": 1456,
      "ñíxwe": 1457,
      "àxritsök": 1458,
      "mìxnẽyal": 1459,
      "túxnũk": 1460,
      "ĩnúxk": 1461,
      "mil": 1462,
      "mesa": 1463,
      "tsikìnã": 1464,
      "tkînẽ": 1465,
      "àlia": 1466,
      "wamblër": 1467,
      "tsiríwẽ": 1468,
      "chòò": 1469,
      "tóttô": 1470,
      "ùshikalòq": 1471,
      "ington": 1472,
      "bikâkala": 1473,
      "washington": 1474,
      "dèq": 1475,
      "dul": 1476,
      "et": 1477,
      "gan": 1478,
      "hi": 1479,
      "kli": 1480,
      "lè": 1481,
      "món": 1482,
      "pó": 1483,
      "pú": 1484,
      "ppa": 1485,
      "rkĩ": 1486,
      "tr": 1487,
      "tâ": 1488,
      "téx": 1489,
      "wâx": 1490,
      "yar": 1491,
      "èse": 1492,
      "ékã": 1493,
      "íjkë": 1494,
      "ùnẽ": 1495,
      "tsóqk": 1496,
      "tsër": 1497,
      "tãmĩ": 1498,
      "châ": 1499,
      "chó": 1500,
      "chô": 1501,
      "chich": 1502,
      "alóq": 1503,
      "shak": 1504,
      "kipòq": 1505,
      "kur": 1506,
      "kuèq": 1507,
      "kuèke": 1508,
      "tkéqr": 1509,
      "akák": 1510,
      "mãnêx": 1511,
      "kũl": 1512,
      "pàka": 1513,
      "tas": 1514,
      "ujú": 1515,
      "yéqblök": 1516,
      "bali": 1517,
      "esta": 1518,
      "kãnèxbalök": 1519,
      "kàlwak": 1520,
      "aláala": 1521,
      "yèqri": 1522,
      "kalòqtök": 1523,
      "dòqke": 1524,
      "tóqkicha": 1525,
      "kíxmũk": 1526,
      "ones": 1527,
      "eno": 1528,
      "klòqũk": 1529,
      "sèxnõ": 1530,
      "cio": 1531,
      "ichóqkle": 1532,
      "ttèke": 1533,
      "sík": 1534,
      "síkua": 1535,
      "tulúr": 1536,
      "ichàkök": 1537,
      "ichàkèke": 1538,
      "tsòqk": 1539,
      "wâñẽ": 1540,
      "bàts": 1541,
      "bomba": 1542,
      "àxritsè": 1543,
      "kanèxblö": 1544,
      "mìxnẽã": 1545,
      "wámblèke": 1546,
      "ajkáchök": 1547,
      "ttèwã": 1548,
      "tsìxnẽt": 1549,
      "jkèx": 1550,
      "ãméxãt": 1551,
      "lölö": 1552,
      "trinĩ": 1553,
      "tôtô": 1554,
      "kéxkkrâë": 1555,
      "presiden": 1556,
      "ajkẽn": 1557,
      "ditséwö": 1558,
      "alattsítsi": 1559,
      "àrros": 1560,
      "ã": 1561,
      "ador": 1562,
      "apéi": 1563,
      "cula": 1564,
      "cina": 1565,
      "dy": 1566,
      "dî": 1567,
      "dulá": 1568,
      "im": 1569,
      "ikal": 1570,
      "ièkẽ": 1571,
      "iska": 1572,
      "jos": 1573,
      "lu": 1574,
      "lâ": 1575,
      "lí": 1576,
      "nùx": 1577,
      "ofi": 1578,
      "pro": 1579,
      "qu": 1580,
      "rwã": 1581,
      "rkũ": 1582,
      "ryök": 1583,
      "stsã": 1584,
      "son": 1585,
      "uu": 1586,
      "wèkẽ": 1587,
      "èrpa": 1588,
      "én": 1589,
      "êrë": 1590,
      "ña": 1591,
      "ñe": 1592,
      "ñũk": 1593,
      "ĩéxn": 1594,
      "tséq": 1595,
      "tsũk": 1596,
      "alo": 1597,
      "éxk": 1598,
      "èxnã": 1599,
      "èxkẽ": 1600,
      "èxnĩã": 1601,
      "áxn": 1602,
      "wã": 1603,
      "seo": 1604,
      "kué": 1605,
      "tkóqk": 1606,
      "akéq": 1607,
      "wéxs": 1608,
      "wòqki": 1609,
      "dawa": 1610,
      "sik": 1611,
      "sil": 1612,
      "bar": 1613,
      "pàio": 1614,
      "tad": 1615,
      "tã": 1616,
      "dawówã": 1617,
      "bòqtökicha": 1618,
      "balö": 1619,
      "tsiòq": 1620,
      "bulá": 1621,
      "bulú": 1622,
      "dalôq": 1623,
      "sibòqkõ": 1624,
      "tsãnẽ": 1625,
      "kalòqt": 1626,
      "kalòqka": 1627,
      "shkó": 1628,
      "bakmĩ": 1629,
      "bakali": 1630,
      "wóqlö": 1631,
      "mèxnẽ": 1632,
      "kãnèxblòq": 1633,
      "böt": 1634,
      "kètke": 1635,
      "stsóqk": 1636,
      "kímũk": 1637,
      "tsáxtã": 1638,
      "yulè": 1639,
      "yulèke": 1640,
      "shkòqkẽ": 1641,
      "mâxmã": 1642,
      "mâxũk": 1643,
      "shtèke": 1644,
      "bàk": 1645,
      "ppé": 1646,
      "tsèmĩ": 1647,
      "tsítsir": 1648,
      "mòxso": 1649,
      "túxn": 1650,
      "ĩnìx": 1651,
      "dâtsẽ": 1652,
      "polis": 1653,
      "bròq": 1654,
      "klóqwẽ": 1655,
      "kakmẽ": 1656,
      "tawàlia": 1657,
      "kòke": 1658,
      "bulâmẽ": 1659,
      "tsìr": 1660,
      "wíköl": 1661,
      "joe": 1662,
      "ísie": 1663,
      "museo": 1664,
      "èkapë": 1665,
      "cultad": 1666,
      "facultad": 1667,
      "bèqrie": 1668,
      "ñêxes": 1669,
      "ulítãnẽ": 1670,
      "pilotos": 1671,
      "josé": 1672,
      "sibòqkõmõ": 1673,
      "30": 1674,
      "am": 1675,
      "apa": 1676,
      "aula": 1677,
      "ce": 1678,
      "cen": 1679,
      "fo": 1680,
      "gra": 1681,
      "he": 1682,
      "hum": 1683,
      "iku": 1684,
      "ièqnã": 1685,
      "jkue": 1686,
      "kèkẽ": 1687,
      "lòq": 1688,
      "lôq": 1689,
      "nàx": 1690,
      "pie": 1691,
      "pôë": 1692,
      "rì": 1693,
      "rök": 1694,
      "sáx": 1695,
      "sĩã": 1696,
      "stë": 1697,
      "sti": 1698,
      "tèq": 1699,
      "táx": 1700,
      "tkã": 1701,
      "ttök": 1702,
      "wi": 1703,
      "ànẽ": 1704,
      "âk": 1705,
      "âlâ": 1706,
      "ãj": 1707,
      "ãmĩ": 1708,
      "èrë": 1709,
      "émã": 1710,
      "éyök": 1711,
      "êk": 1712,
      "íse": 1713,
      "ókö": 1714,
      "tska": 1715,
      "tãúxk": 1716,
      "chki": 1717,
      "alök": 1718,
      "alala": 1719,
      "éxnẽ": 1720,
      "kuéwã": 1721,
      "aká": 1722,
      "ùxkẽ": 1723,
      "las": 1724,
      "wòqbala": 1725,
      "wòqshki": 1726,
      "batsìx": 1727,
      "bli": 1728,
      "blu": 1729,
      "kalí": 1730,
      "kalök": 1731,
      "kalôq": 1732,
      "míxtke": 1733,
      "yawó": 1734,
      "yéqrkẽ": 1735,
      "kãnèxwèx": 1736,
      "kàlwö": 1737,
      "dalo": 1738,
      "ann": 1739,
      "libro": 1740,
      "limón": 1741,
      "tele": 1742,
      "ñìxes": 1743,
      "wéqstë": 1744,
      "tsãnèx": 1745,
      "dòqnẽ": 1746,
      "mèxkè": 1747,
      "kíxmèxke": 1748,
      "páköl": 1749,
      "stsö": 1750,
      "kóxlĩ": 1751,
      "ratu": 1752,
      "méxãt": 1753,
      "kínèxke": 1754,
      "blapa": 1755,
      "piz": 1756,
      "kũẽki": 1757,
      "ppök": 1758,
      "leg": 1759,
      "socie": 1760,
      "mara": 1761,
      "tkèqnẽ": 1762,
      "ditsòqwö": 1763,
      "katànõk": 1764,
      "sìnã": 1765,
      "dómĩ": 1766,
      "ãlìx": 1767,
      "mãléxk": 1768,
      "inùxk": 1769,
      "cuba": 1770,
      "nãùxyöla": 1771,
      "yawòqkblapa": 1772,
      "tsèqrke": 1773,
      "ùùù": 1774,
      "kuóqska": 1775,
      "univer": 1776,
      "ãmíxla": 1777,
      "tsikírkẽ": 1778,
      "tskìnẽ": 1779,
      "nãmàxsöl": 1780,
      "kalóqm": 1781,
      "chichi": 1782,
      "mãnêxnêx": 1783,
      "presidente": 1784,
      "dalôqlôq": 1785,
      "universi": 1786,
      "92": 1787,
      "añìxes": 1788,
      "bóqk": 1789,
      "dè": 1790,
      "dóqk": 1791,
      "ej": 1792,
      "eẽ": 1793,
      "fon": 1794,
      "hasta": 1795,
      "iz": 1796,
      "iõ": 1797,
      "jts": 1798,
      "jàx": 1799,
      "mbuáala": 1800,
      "nîx": 1801,
      "ol": 1802,
      "oper": 1803,
      "pò": 1804,
      "sala": 1805,
      "wèke": 1806,
      "wèqk": 1807,
      "yör": 1808,
      "êköl": 1809,
      "ëkã": 1810,
      "tsaw": 1811,
      "tãũk": 1812,
      "chkè": 1813,
      "chèxr": 1814,
      "alòq": 1815,
      "ales": 1816,
      "éxnã": 1817,
      "éxrke": 1818,
      "kenne": 1819,
      "èxnẽ": 1820,
      "kata": 1821,
      "katóq": 1822,
      "áxjàx": 1823,
      "nẽkã": 1824,
      "kĩla": 1825,
      "irík": 1826,
      "shu": 1827,
      "shô": 1828,
      "sháx": 1829,
      "shkã": 1830,
      "shúx": 1831,
      "shdalo": 1832,
      "kié": 1833,
      "buyú": 1834,
      "tkà": 1835,
      "tkẽ": 1836,
      "àxtã": 1837,
      "óqknãmẽ": 1838,
      "iché": 1839,
      "ichèke": 1840,
      "wòqtkër": 1841,
      "batse": 1842,
      "batsé": 1843,
      "pàtkèke": 1844,
      "blô": 1845,
      "chake": 1846,
      "yawòq": 1847,
      "bòqyök": 1848,
      "yéqska": 1849,
      "bale": 1850,
      "balè": 1851,
      "sãwõ": 1852,
      "ajkéx": 1853,
      "sulú": 1854,
      "ujtèkẽ": 1855,
      "alàla": 1856,
      "dalèqnã": 1857,
      "ano": 1858,
      "âxã": 1859,
      "klö": 1860,
      "wéqbala": 1861,
      "kalòqjkuö": 1862,
      "dòqkẽ": 1863,
      "wóqbla": 1864,
      "wóqrkĩ": 1865,
      "organ": 1866,
      "kéli": 1867,
      "sĩwéx": 1868,
      "kãnèxblë": 1869,
      "kapòqkewã": 1870,
      "kèbi": 1871,
      "civi": 1872,
      "bèqrë": 1873,
      "ñèxkẽ": 1874,
      "kóxjkèx": 1875,
      "katé": 1876,
      "kít": 1877,
      "kímèxke": 1878,
      "ichàki": 1879,
      "kuátkèke": 1880,
      "bêqrë": 1881,
      "kòxmĩ": 1882,
      "ppèkẽ": 1883,
      "bikeits": 1884,
      "darêqrêqë": 1885,
      "mãlíxs": 1886,
      "téwã": 1887,
      "tkèqnã": 1888,
      "tkèqtöm": 1889,
      "tkèqnĩk": 1890,
      "kùxnã": 1891,
      "ajkáchèke": 1892,
      "wîxwîx": 1893,
      "kùkur": 1894,
      "uséköl": 1895,
      "ĩùxtèke": 1896,
      "carta": 1897,
      "wôqik": 1898,
      "àxnãs": 1899,
      "iente": 1900,
      "tkéwã": 1901,
      "concor": 1902,
      "yóqktsã": 1903,
      "dalóshdalo": 1904,
      "láköl": 1905,
      "bitséitsèkẽ": 1906,
      "tsipátsipâ": 1907,
      "chòqkeãt": 1908,
      "tkêqtẽn": 1909,
      "puesto": 1910,
      "kóxpàkòqke": 1911,
      "ùshikalòqke": 1912,
      "téxrkẽ": 1913,
      "duládula": 1914,
      "bulámĩ": 1915,
      "iõiòx": 1916,
      "kennedy": 1917,
      "organiz": 1918,
      "concord": 1919,
      "dalóshdalosh": 1920,
      "ap": 1921,
      "bir": 1922,
      "cl": 1923,
      "cá": 1924,
      "déqrule": 1925,
      "gu": 1926,
      "ig": 1927,
      "ióq": 1928,
      "ièke": 1929,
      "iêq": 1930,
      "ikl": 1931,
      "iklóqwẽ": 1932,
      "kule": 1933,
      "lök": 1934,
      "mpa": 1935,
      "mas": 1936,
      "mpre": 1937,
      "náx": 1938,
      "oló": 1939,
      "ph": 1940,
      "pí": 1941,
      "pus": 1942,
      "rè": 1943,
      "rô": 1944,
      "rù": 1945,
      "síx": 1946,
      "tás": 1947,
      "uh": 1948,
      "wèqnẽ": 1949,
      "yër": 1950,
      "zo": 1951,
      "ála": 1952,
      "ãmúx": 1953,
      "èmã": 1954,
      "ètökicha": 1955,
      "ènĩã": 1956,
      "ér": 1957,
      "éka": 1958,
      "êtk": 1959,
      "íes": 1960,
      "ñóx": 1961,
      "ñàxnẽ": 1962,
      "úl": 1963,
      "tske": 1964,
      "alèke": 1965,
      "alfo": 1966,
      "alalala": 1967,
      "èxrke": 1968,
      "kayóq": 1969,
      "kabè": 1970,
      "shmã": 1971,
      "shtè": 1972,
      "shtök": 1973,
      "shkãl": 1974,
      "mĩn": 1975,
      "mĩke": 1976,
      "mĩnẽ": 1977,
      "káxbata": 1978,
      "káxjkẽ": 1979,
      "kiòq": 1980,
      "kiar": 1981,
      "íxñẽ": 1982,
      "kukuòq": 1983,
      "bueno": 1984,
      "tkõ": 1985,
      "akéqkë": 1986,
      "ùxk": 1987,
      "úxrke": 1988,
      "ichòq": 1989,
      "wòqtko": 1990,
      "bitsòq": 1991,
      "kàchèke": 1992,
      "bacha": 1993,
      "banẽt": 1994,
      "ũkwa": 1995,
      "nèxwã": 1996,
      "òxs": 1997,
      "òxrke": 1998,
      "míxkã": 1999,
      "bòqtk": 2000,
      "wakdë": 2001,
      "balô": 2002,
      "sãméx": 2003,
      "ujtó": 2004,
      "kàlkö": 2005,
      "kàlyök": 2006,
      "ander": 2007,
      "anasta": 2008,
      "lici": 2009,
      "détke": 2010,
      "détsã": 2011,
      "wéqrmĩ": 2012,
      "shkí": 2013,
      "yàie": 2014,
      "mèxmĩ": 2015,
      "mèxãt": 2016,
      "kíxmõ": 2017,
      "sĩéx": 2018,
      "kãnèxble": 2019,
      "shùxshàx": 2020,
      "cial": 2021,
      "páj": 2022,
      "pánẽ": 2023,
      "pámĩk": 2024,
      "chèmĩ": 2025,
      "ñéxẽ": 2026,
      "raã": 2027,
      "rea": 2028,
      "yóqrmĩ": 2029,
      "tsée": 2030,
      "yulé": 2031,
      "yulóq": 2032,
      "shkòqë": 2033,
      "dùla": 2034,
      "mâxwẽ": 2035,
      "aso": 2036,
      "bikeitsök": 2037,
      "mõwèxke": 2038,
      "dióqshẽt": 2039,
      "ujtèwã": 2040,
      "ati": 2041,
      "bóqyök": 2042,
      "kirèqr": 2043,
      "télur": 2044,
      "duwòq": 2045,
      "àxritsèke": 2046,
      "àxritsóq": 2047,
      "kanèxblök": 2048,
      "tkòqrö": 2049,
      "shkèxwèxke": 2050,
      "koló": 2051,
      "túxnẽ": 2052,
      "tkèwã": 2053,
      "tkèmĩ": 2054,
      "chkòqke": 2055,
      "bìk": 2056,
      "bìtöm": 2057,
      "béqrër": 2058,
      "mãñàxtöm": 2059,
      "kéqkëpala": 2060,
      "ĩùxtóq": 2061,
      "mũléx": 2062,
      "yéqriapa": 2063,
      "sũlìxtu": 2064,
      "déqbitũ": 2065,
      "verio": 2066,
      "inùxke": 2067,
      "shkòqkekã": 2068,
      "máxshmã": 2069,
      "sulàyöm": 2070,
      "akuòqwèxke": 2071,
      "ièqtẽn": 2072,
      "àksi": 2073,
      "pàlèke": 2074,
      "pàlalalala": 2075,
      "shkènẽ": 2076,
      "tsakìnẽ": 2077,
      "tséxmĩ": 2078,
      "akuóqk": 2079,
      "akuòqke": 2080,
      "tsirìwèxke": 2081,
      "kèxn": 2082,
      "yúshka": 2083,
      "talárke": 2084,
      "telé": 2085,
      "batörèke": 2086,
      "átuwö": 2087,
      "felici": 2088,
      "mbra": 2089,
      "tùxrke": 2090,
      "kukùn": 2091,
      "brìbriwak": 2092,
      "wamblërmĩ": 2093,
      "bàtsul": 2094,
      "impuesto": 2095,
      "silverio": 2096,
      "kalòqtòqke": 2097,
      "kòkekuö": 2098,
      "óköm": 2099,
      "ratuaa": 2100,
      "sociedad": 2101,
      "bóqkali": 2102,
      "katóqwã": 2103,
      "sháxbö": 2104,
      "civic": 2105,
      "cartago": 2106,
      "cámara": 2107,
      "píska": 2108,
      "alfombra": 2109,
      "anderson": 2110,
      "anastasia": 2111,
      "máxshmãsh": 2112,
      "feliciano": 2113,
      "18": 2114,
      "80": 2115,
      "85": 2116,
      "ad": 2117,
      "anã": 2118,
      "ek": 2119,
      "empre": 2120,
      "gr": 2121,
      "gen": 2122,
      "ij": 2123,
      "iéq": 2124,
      "iklòq": 2125,
      "jke": 2126,
      "kû": 2127,
      "lòx": 2128,
      "llo": 2129,
      "min": 2130,
      "pô": 2131,
      "pla": 2132,
      "póx": 2133,
      "pàxnã": 2134,
      "pâxã": 2135,
      "rá": 2136,
      "ré": 2137,
      "rla": 2138,
      "sù": 2139,
      "sur": 2140,
      "sâx": 2141,
      "ste": 2142,
      "sòqk": 2143,
      "tõ": 2144,
      "tur": 2145,
      "ttsã": 2146,
      "wo": 2147,
      "yo": 2148,
      "ànã": 2149,
      "âũk": 2150,
      "âwõ": 2151,
      "ãn": 2152,
      "èwa": 2153,
      "ísh": 2154,
      "ñõ": 2155,
      "ñàx": 2156,
      "ñâx": 2157,
      "ùrù": 2158,
      "tsá": 2159,
      "tsõ": 2160,
      "tsan": 2161,
      "tãĩ": 2162,
      "tãwèxke": 2163,
      "èqka": 2164,
      "chké": 2165,
      "chkóqk": 2166,
      "alò": 2167,
      "öròq": 2168,
      "kapë": 2169,
      "kabé": 2170,
      "éqmẽ": 2171,
      "pas": 2172,
      "áxtke": 2173,
      "áxbita": 2174,
      "nãñèx": 2175,
      "kĩka": 2176,
      "iri": 2177,
      "mĩàx": 2178,
      "káxm": 2179,
      "káxmìx": 2180,
      "kibì": 2181,
      "kãn": 2182,
      "kãmĩ": 2183,
      "kãmîx": 2184,
      "kuâ": 2185,
      "bukë": 2186,
      "ùxke": 2187,
      "wéxle": 2188,
      "wös": 2189,
      "wòqo": 2190,
      "wòqs": 2191,
      "wòqnĩ": 2192,
      "wòqtë": 2193,
      "bitsòqke": 2194,
      "bikli": 2195,
      "kànẽ": 2196,
      "kàtsi": 2197,
      "kàpi": 2198,
      "kölpa": 2199,
      "sis": 2200,
      "siõ": 2201,
      "sion": 2202,
      "sión": 2203,
      "mìxtsẽ": 2204,
      "pàkèke": 2205,
      "nèxnẽ": 2206,
      "kòqwö": 2207,
      "yéqnõ": 2208,
      "séxr": 2209,
      "sãwîx": 2210,
      "ajà": 2211,
      "ajké": 2212,
      "ajkèxn": 2213,
      "ujtòqke": 2214,
      "arro": 2215,
      "bula": 2216,
      "dalër": 2217,
      "dalèqr": 2218,
      "lin": 2219,
      "ulàrke": 2220,
      "rosa": 2221,
      "chika": 2222,
      "shké": 2223,
      "wóqsts": 2224,
      "kéũ": 2225,
      "apàke": 2226,
      "apàkök": 2227,
      "sĩòx": 2228,
      "étkèq": 2229,
      "étkue": 2230,
      "kóqyök": 2231,
      "stsé": 2232,
      "stsèqnẽ": 2233,
      "tulú": 2234,
      "míxãtke": 2235,
      "coleg": 2236,
      "katá": 2237,
      "katóqk": 2238,
      "katéwa": 2239,
      "tsékicha": 2240,
      "tsáxtke": 2241,
      "pelí": 2242,
      "shkòqèqmẽ": 2243,
      "dùri": 2244,
      "nõkè": 2245,
      "mâxmâx": 2246,
      "mâxwõ": 2247,
      "tsóxkã": 2248,
      "bùl": 2249,
      "bùli": 2250,
      "tabèla": 2251,
      "kirí": 2252,
      "durkã": 2253,
      "ĩâxchki": 2254,
      "skànẽ": 2255,
      "dukà": 2256,
      "àxritsẽ": 2257,
      "wóqkirpa": 2258,
      "skéxyök": 2259,
      "túxr": 2260,
      "ajkóqnẽ": 2261,
      "tsã": 2262,
      "mill": 2263,
      "ttèkèwã": 2264,
      "mãñàxtökicha": 2265,
      "éltë": 2266,
      "élkê": 2267,
      "ĩnáxbita": 2268,
      "mũlẽ": 2269,
      "kãñíxka": 2270,
      "ñáxk": 2271,
      "katànẽ": 2272,
      "visión": 2273,
      "klóqm": 2274,
      "bóqlka": 2275,
      "bóqltë": 2276,
      "mãñáxltë": 2277,
      "ãlòx": 2278,
      "yétsã": 2279,
      "ãmèxnã": 2280,
      "wamblèqnã": 2281,
      "bitùxke": 2282,
      "conse": 2283,
      "tséxãt": 2284,
      "tóttò": 2285,
      "aísh": 2286,
      "aíshẽt": 2287,
      "ööö": 2288,
      "làr": 2289,
      "kuli": 2290,
      "wáxn": 2291,
      "wáxwáxn": 2292,
      "tkéqyök": 2293,
      "sìkuapa": 2294,
      "díwö": 2295,
      "tsikirîrî": 2296,
      "dawòqwã": 2297,
      "itòqkĩ": 2298,
      "tsipátsipa": 2299,
      "shtát": 2300,
      "fesion": 2301,
      "campus": 2302,
      "ñîxköl": 2303,
      "chówa": 2304,
      "tkéqrkã": 2305,
      "oficina": 2306,
      "profesion": 2307,
      "televisión": 2308,
      "universidad": 2309,
      "tsawì": 2310,
      "shkãmẽ": 2311,
      "sulúsi": 2312,
      "iõiòxtã": 2313,
      "organización": 2314,
      "wakdël": 2315,
      "teléfon": 2316,
      "empresa": 2317,
      "pâxãlĩ": 2318,
      "tsaníx": 2319,
      "colegio": 2320,
      "película": 2321,
      "25": 2322,
      "aî": 2323,
      "abe": 2324,
      "aer": 2325,
      "abè": 2326,
      "böròq": 2327,
      "cí": 2328,
      "cal": 2329,
      "dèmĩ": 2330,
      "gi": 2331,
      "it": 2332,
      "ikök": 2333,
      "kî": 2334,
      "kla": 2335,
      "ktöm": 2336,
      "kkóq": 2337,
      "lsĩ": 2338,
      "men": 2339,
      "nta": 2340,
      "pèke": 2341,
      "rí": 2342,
      "rwa": 2343,
      "rkua": 2344,
      "ss": 2345,
      "sé": 2346,
      "skáx": 2347,
      "sta": 2348,
      "swóqulâũk": 2349,
      "tò": 2350,
      "tú": 2351,
      "tcha": 2352,
      "téxn": 2353,
      "tes": 2354,
      "tra": 2355,
      "uf": 2356,
      "uka": 2357,
      "vie": 2358,
      "wî": 2359,
      "wíxẽ": 2360,
      "wèqnã": 2361,
      "yéwa": 2362,
      "àmĩ": 2363,
      "ápolis": 2364,
      "ânẽ": 2365,
      "âwak": 2366,
      "ót": 2367,
      "ùnã": 2368,
      "ũsh": 2369,
      "ẽl": 2370,
      "tsùx": 2371,
      "tsèqr": 2372,
      "tãwóx": 2373,
      "iel": 2374,
      "chã": 2375,
      "chóq": 2376,
      "chèkẽ": 2377,
      "chor": 2378,
      "alèkẽ": 2379,
      "örà": 2380,
      "óqwã": 2381,
      "par": 2382,
      "nãkã": 2383,
      "kĩmèxke": 2384,
      "irì": 2385,
      "iròq": 2386,
      "shkö": 2387,
      "shur": 2388,
      "ìxr": 2389,
      "káxn": 2390,
      "káxwak": 2391,
      "kutá": 2392,
      "kukóqk": 2393,
      "tkèxr": 2394,
      "kẽwã": 2395,
      "sawa": 2396,
      "saku": 2397,
      "sabák": 2398,
      "dipà": 2399,
      "diké": 2400,
      "dijka": 2401,
      "buaála": 2402,
      "wèxnẽ": 2403,
      "kũk": 2404,
      "kũãki": 2405,
      "úxnẽ": 2406,
      "wòqã": 2407,
      "wòqbu": 2408,
      "wòqike": 2409,
      "bio": 2410,
      "bikö": 2411,
      "bióqk": 2412,
      "dapá": 2413,
      "ban": 2414,
      "batsè": 2415,
      "batá": 2416,
      "mìxchò": 2417,
      "nèxnèx": 2418,
      "kòqke": 2419,
      "ujkuö": 2420,
      "kalò": 2421,
      "míxtsẽ": 2422,
      "míxyal": 2423,
      "röm": 2424,
      "yawo": 2425,
      "yawèq": 2426,
      "yawòqkẽ": 2427,
      "riki": 2428,
      "balà": 2429,
      "balèkẽ": 2430,
      "sãũ": 2431,
      "ajk": 2432,
      "ajkö": 2433,
      "arra": 2434,
      "kàlwóqlö": 2435,
      "kũéxwã": 2436,
      "dalâlâ": 2437,
      "and": 2438,
      "anápolis": 2439,
      "wẽwa": 2440,
      "âxmĩk": 2441,
      "ulàt": 2442,
      "ulàwẽ": 2443,
      "déwã": 2444,
      "yèqnũk": 2445,
      "tsãlîx": 2446,
      "yòqrke": 2447,
      "chivo": 2448,
      "shkâk": 2449,
      "bakòxs": 2450,
      "yàli": 2451,
      "int": 2452,
      "dòqpa": 2453,
      "wàñẽ": 2454,
      "wàtãwèx": 2455,
      "wàpie": 2456,
      "tkërkĩ": 2457,
      "apàkö": 2458,
      "sĩwâx": 2459,
      "sulûnã": 2460,
      "kapá": 2461,
      "kapó": 2462,
      "ãñìxj": 2463,
      "shùxbal": 2464,
      "cito": 2465,
      "pátke": 2466,
      "stsè": 2467,
      "stsök": 2468,
      "wìxẽ": 2469,
      "tola": 2470,
      "tërule": 2471,
      "lolo": 2472,
      "kóxbata": 2473,
      "ttóqk": 2474,
      "síwèx": 2475,
      "como": 2476,
      "cooper": 2477,
      "tséwã": 2478,
      "tsáxñã": 2479,
      "kuátkë": 2480,
      "kuáble": 2481,
      "ulâtska": 2482,
      "chakòq": 2483,
      "òqkwã": 2484,
      "shtó": 2485,
      "shtóqk": 2486,
      "shtâwõ": 2487,
      "pital": 2488,
      "bikeitsèmĩ": 2489,
      "wóqulâwõ": 2490,
      "ujchẽ": 2491,
      "ujchẽnã": 2492,
      "sãwèxmĩ": 2493,
      "bóqiki": 2494,
      "tée": 2495,
      "dakír": 2496,
      "kanèxbalök": 2497,
      "tkòqũk": 2498,
      "yèwa": 2499,
      "túxnéx": 2500,
      "kéqchke": 2501,
      "kéqsik": 2502,
      "tiv": 2503,
      "sulùnẽ": 2504,
      "ajkáche": 2505,
      "béqrbër": 2506,
      "ãwíxshẽt": 2507,
      "kùnẽ": 2508,
      "ãmùxbali": 2509,
      "tkabèqköl": 2510,
      "ãméxrke": 2511,
      "mãnèxtẽ": 2512,
      "bùsipa": 2513,
      "bétka": 2514,
      "èkkë": 2515,
      "vico": 2516,
      "ñèxẽs": 2517,
      "vez": 2518,
      "íxski": 2519,
      "bitùxtsẽ": 2520,
      "indianápolis": 2521,
      "cuen": 2522,
      "kòu": 2523,
      "tsiríũk": 2524,
      "dental": 2525,
      "inario": 2526,
      "ffft": 2527,
      "seminario": 2528,
      "ábionpa": 2529,
      "tsirìwẽ": 2530,
      "kulùùù": 2531,
      "kúxwã": 2532,
      "tóxrke": 2533,
      "tere": 2534,
      "káxmîxë": 2535,
      "daléqrkẽ": 2536,
      "ùshikalök": 2537,
      "tsúxkãt": 2538,
      "shtáúx": 2539,
      "mbre": 2540,
      "chál": 2541,
      "kêke": 2542,
      "wêqñẽ": 2543,
      "kòqkokòqko": 2544,
      "wôqkepa": 2545,
      "kóqtwã": 2546,
      "millas": 2547,
      "estados": 2548,
      "lölölö": 2549,
      "apéite": 2550,
      "sáxũk": 2551,
      "will": 2552,
      "ãjáx": 2553,
      "pizarra": 2554,
      "wòqtkërke": 2555,
      "cliente": 2556,
      "iêqtẽn": 2557,
      "ológi": 2558,
      "zoológi": 2559,
      "shkãláx": 2560,
      "sĩéxlsĩ": 2561,
      "kirèqrmã": 2562,
      "sháxböts": 2563,
      "tsáwak": 2564,
      "kabék": 2565,
      "sĩòxrë": 2566,
      "teléfono": 2567,
      "aîkö": 2568,
      "abèbulu": 2569,
      "cívico": 2570,
      "kkóqujkuö": 2571,
      "tchabèq": 2572,
      "cooperati": 2573,
      "sĩéxlsĩẽl": 2574,
      "aù": 2575,
      "awa": 2576,
      "abo": 2577,
      "bê": 2578,
      "cre": 2579,
      "ctá": 2580,
      "dú": 2581,
      "ẽ": 2582,
      "emba": 2583,
      "fes": 2584,
      "fis": 2585,
      "gali": 2586,
      "gas": 2587,
      "hos": 2588,
      "hlin": 2589,
      "itö": 2590,
      "iök": 2591,
      "ièqnẽ": 2592,
      "iskà": 2593,
      "jtö": 2594,
      "jkã": 2595,
      "jkuòq": 2596,
      "jtòq": 2597,
      "jador": 2598,
      "kìx": 2599,
      "kkë": 2600,
      "kúk": 2601,
      "lò": 2602,
      "lka": 2603,
      "law": 2604,
      "lêq": 2605,
      "lwak": 2606,
      "lala": 2607,
      "lph": 2608,
      "mal": 2609,
      "múxk": 2610,
      "ndî": 2611,
      "pã": 2612,
      "pè": 2613,
      "põ": 2614,
      "pen": 2615,
      "ròq": 2616,
      "rka": 2617,
      "rmã": 2618,
      "stse": 2619,
      "skóx": 2620,
      "skáxwöta": 2621,
      "sna": 2622,
      "skèx": 2623,
      "spóx": 2624,
      "stola": 2625,
      "ty": 2626,
      "tki": 2627,
      "téqr": 2628,
      "tali": 2629,
      "tèqnẽ": 2630,
      "vale": 2631,
      "wòx": 2632,
      "yula": 2633,
      "ãñèx": 2634,
      "étk": 2635,
      "ìe": 2636,
      "íe": 2637,
      "óm": 2638,
      "ĩa": 2639,
      "ĩéx": 2640,
      "ĩèx": 2641,
      "ĩáx": 2642,
      "ĩnèx": 2643,
      "tséqr": 2644,
      "tsẽn": 2645,
      "tskí": 2646,
      "òqkö": 2647,
      "èql": 2648,
      "chu": 2649,
      "chí": 2650,
      "alë": 2651,
      "kebè": 2652,
      "ulù": 2653,
      "kaèq": 2654,
      "kabi": 2655,
      "kate": 2656,
      "kèqr": 2657,
      "éqla": 2658,
      "éqrkẽ": 2659,
      "éqwe": 2660,
      "áxmĩk": 2661,
      "seba": 2662,
      "nãka": 2663,
      "kĩmẽ": 2664,
      "beck": 2665,
      "irìnẽ": 2666,
      "shũ": 2667,
      "káxñìx": 2668,
      "káxsẽ": 2669,
      "káxuk": 2670,
      "awíx": 2671,
      "awísh": 2672,
      "kió": 2673,
      "kipà": 2674,
      "kiár": 2675,
      "kichö": 2676,
      "kãnẽ": 2677,
      "kuë": 2678,
      "bue": 2679,
      "buk": 2680,
      "bukula": 2681,
      "tkéxk": 2682,
      "köt": 2683,
      "àxã": 2684,
      "îxã": 2685,
      "lapa": 2686,
      "laba": 2687,
      "laug": 2688,
      "lares": 2689,
      "latas": 2690,
      "lanõkè": 2691,
      "wéxr": 2692,
      "ichö": 2693,
      "icher": 2694,
      "wòqi": 2695,
      "wòqó": 2696,
      "wòqka": 2697,
      "wòqñã": 2698,
      "wòqtkë": 2699,
      "wòqet": 2700,
      "bikèq": 2701,
      "dapòq": 2702,
      "kàchè": 2703,
      "köldi": 2704,
      "sibì": 2705,
      "batsóqk": 2706,
      "bachâ": 2707,
      "mìxkal": 2708,
      "mìxne": 2709,
      "mìxkalè": 2710,
      "pàryök": 2711,
      "pàtkèmĩ": 2712,
      "kòqu": 2713,
      "irirdak": 2714,
      "kalâ": 2715,
      "cham": 2716,
      "êqka": 2717,
      "êqlêq": 2718,
      "òxtẽ": 2719,
      "míxyar": 2720,
      "míxtsẽn": 2721,
      "dawóq": 2722,
      "dawéq": 2723,
      "dawòqkẽ": 2724,
      "óxr": 2725,
      "rica": 2726,
      "river": 2727,
      "balòq": 2728,
      "balèq": 2729,
      "baléq": 2730,
      "balèke": 2731,
      "baléqrule": 2732,
      "sãwóx": 2733,
      "sãnâx": 2734,
      "ajkuö": 2735,
      "ajkue": 2736,
      "éxnsir": 2737,
      "alàbulu": 2738,
      "archivo": 2739,
      "kãnèxũ": 2740,
      "dalala": 2741,
      "wẽwã": 2742,
      "lit": 2743,
      "litar": 2744,
      "déka": 2745,
      "klör": 2746,
      "wéqsawa": 2747,
      "tsãnã": 2748,
      "tsãmĩ": 2749,
      "chico": 2750,
      "inter": 2751,
      "inìxr": 2752,
      "wóqul": 2753,
      "wóquk": 2754,
      "mèxnã": 2755,
      "mèxkã": 2756,
      "mèxtsã": 2757,
      "wàtũ": 2758,
      "kíxmũ": 2759,
      "éqlpa": 2760,
      "apàkẽ": 2761,
      "sĩâx": 2762,
      "bitu": 2763,
      "sulûrke": 2764,
      "kapö": 2765,
      "kapówã": 2766,
      "wébl": 2767,
      "kèmĩ": 2768,
      "klòqwèxwã": 2769,
      "ciones": 2770,
      "stséqr": 2771,
      "tom": 2772,
      "tërkĩ": 2773,
      "love": 2774,
      "batàla": 2775,
      "kóxwö": 2776,
      "yawa": 2777,
      "ôqũk": 2778,
      "síũk": 2779,
      "méxrkã": 2780,
      "reet": 2781,
      "tulù": 2782,
      "yóqtsã": 2783,
      "yóqnũk": 2784,
      "kímèx": 2785,
      "kínúx": 2786,
      "yulö": 2787,
      "kuátkè": 2788,
      "dàts": 2789,
      "yawèmĩ": 2790,
      "chénẽ": 2791,
      "yêqar": 2792,
      "bêqrër": 2793,
      "pistola": 2794,
      "wóqulânã": 2795,
      "lesia": 2796,
      "mõl": 2797,
      "rmĩnẽ": 2798,
      "wáñẽ": 2799,
      "ujchéxn": 2800,
      "ujchèxnã": 2801,
      "juana": 2802,
      "sopa": 2803,
      "mãñáxyök": 2804,
      "tòqkĩ": 2805,
      "dikîxã": 2806,
      "kirì": 2807,
      "kirèq": 2808,
      "ñãléx": 2809,
      "bolo": 2810,
      "dolph": 2811,
      "dakí": 2812,
      "talì": 2813,
      "mòxkĩ": 2814,
      "tkòqpa": 2815,
      "yètsã": 2816,
      "yètsãnẽ": 2817,
      "ffalo": 2818,
      "tkèqtökicha": 2819,
      "tkènẽ": 2820,
      "chkòqkẽ": 2821,
      "wámblè": 2822,
      "wámblë": 2823,
      "tióqk": 2824,
      "militar": 2825,
      "ajkáyër": 2826,
      "sawèq": 2827,
      "sũwéx": 2828,
      "bulékal": 2829,
      "élka": 2830,
      "ĩùxte": 2831,
      "dâtse": 2832,
      "lônẽ": 2833,
      "yèqnẽtsã": 2834,
      "wôqike": 2835,
      "dólares": 2836,
      "dòqmĩnẽ": 2837,
      "déqkã": 2838,
      "tkînũk": 2839,
      "àshali": 2840,
      "wamblèqnẽ": 2841,
      "íxskĩ": 2842,
      "kũèxmĩ": 2843,
      "kapòqwã": 2844,
      "196": 2845,
      "197": 2846,
      "kúlyök": 2847,
      "akuòqk": 2848,
      "ièqt": 2849,
      "tsìdala": 2850,
      "tarèq": 2851,
      "buàmbuáala": 2852,
      "tséxr": 2853,
      "nãùxyöm": 2854,
      "kalèri": 2855,
      "kãnèxblökẽ": 2856,
      "indianapolis": 2857,
      "aciones": 2858,
      "ajkuòqlit": 2859,
      "chkepa": 2860,
      "bulùbulu": 2861,
      "dalóie": 2862,
      "corpor": 2863,
      "rudolph": 2864,
      "mãnéxrke": 2865,
      "mãnéxrmĩ": 2866,
      "siòxrë": 2867,
      "culo": 2868,
      "káxjkêxë": 2869,
      "kákmẽ": 2870,
      "talárkẽ": 2871,
      "unidos": 2872,
      "chéqwa": 2873,
      "sũwèxppa": 2874,
      "10000": 2875,
      "bërë": 2876,
      "ishtirìnẽ": 2877,
      "bert": 2878,
      "sarùrù": 2879,
      "street": 2880,
      "tèqnãnẽ": 2881,
      "tsíxjkẽ": 2882,
      "shãũsh": 2883,
      "alóqkã": 2884,
      "wóqlöm": 2885,
      "mòxsopa": 2886,
      "bèqriebulu": 2887,
      "ikuáxkĩ": 2888,
      "stiana": 2889,
      "kalíũk": 2890,
      "kèbisãwẽ": 2891,
      "wôqikèkẽ": 2892,
      "iglesia": 2893,
      "bitsòqkẽ": 2894,
      "pájto": 2895,
      "asoci": 2896,
      "pàxnãwã": 2897,
      "kuârö": 2898,
      "arroz": 2899,
      "dùriñãk": 2900,
      "mâxmâxrkua": 2901,
      "bùlikalòq": 2902,
      "tsãnèx": 2903,
      "millón": 2904,
      "profesional": 2905,
      "dipàkicha": 2906,
      "tsãlîxlîx": 2907,
      "tival": 2908,
      "aboga": 2909,
      "embajador": 2910,
      "festival": 2911,
      "fiscal": 2912,
      "hospital": 2913,
      "skóxmóxköl": 2914,
      "snake": 2915,
      "spóxpõ": 2916,
      "valeria": 2917,
      "sebastiana": 2918,
      "becky": 2919,
      "awíxshẽt": 2920,
      "laughlin": 2921,
      "bachâbacha": 2922,
      "ajkáyërke": 2923,
      "99": 2924,
      "ab": 2925,
      "ac": 2926,
      "ai": 2927,
      "añ": 2928,
      "aèq": 2929,
      "aka": 2930,
      "air": 2931,
      "apéq": 2932,
      "bû": 2933,
      "byök": 2934,
      "bôq": 2935,
      "cco": 2936,
      "cía": 2937,
      "cno": 2938,
      "cus": 2939,
      "cés": 2940,
      "dr": 2941,
      "dèqnẽ": 2942,
      "dènẽ": 2943,
      "ee": 2944,
      "ev": 2945,
      "ese": 2946,
      "ela": 2947,
      "for": 2948,
      "flo": 2949,
      "fun": 2950,
      "fann": 2951,
      "fiel": 2952,
      "gar": 2953,
      "gre": 2954,
      "gía": 2955,
      "hy": 2956,
      "ià": 2957,
      "iùx": 2958,
      "iyök": 2959,
      "ikalòq": 2960,
      "iét": 2961,
      "iéqr": 2962,
      "iko": 2963,
      "ièmĩ": 2964,
      "itãmĩ": 2965,
      "icio": 2966,
      "jku": 2967,
      "jura": 2968,
      "kîx": 2969,
      "kchi": 2970,
      "ktökicha": 2971,
      "kman": 2972,
      "ls": 2973,
      "lì": 2974,
      "lù": 2975,
      "léq": 2976,
      "lla": 2977,
      "lìnẽ": 2978,
      "léköl": 2979,
      "má": 2980,
      "mbi": 2981,
      "mer": 2982,
      "mat": 2983,
      "mbr": 2984,
      "mcco": 2985,
      "nue": 2986,
      "nat": 2987,
      "nàxs": 2988,
      "nàxnẽ": 2989,
      "oro": 2990,
      "olô": 2991,
      "póq": 2992,
      "pàx": 2993,
      "póqk": 2994,
      "pri": 2995,
      "rd": 2996,
      "rl": 2997,
      "rà": 2998,
      "ran": 2999,
      "rva": 3000,
      "rlor": 3001,
      "së": 3002,
      "sich": 3003,
      "skóq": 3004,
      "ssẽ": 3005,
      "skli": 3006,
      "stas": 3007,
      "tx": 3008,
      "tor": 3009,
      "tule": 3010,
      "tòqk": 3011,
      "tna": 3012,
      "tòxnẽ": 3013,
      "téxr": 3014,
      "tkuak": 3015,
      "the": 3016,
      "ukâ": 3017,
      "vas": 3018,
      "wê": 3019,
      "wèq": 3020,
      "yí": 3021,
      "yó": 3022,
      "yan": 3023,
      "yor": 3024,
      "ytãmĩ": 3025,
      "za": 3026,
      "áska": 3027,
      "ágali": 3028,
      "ãúx": 3029,
      "ãñĩ": 3030,
      "èyök": 3031,
      "ëtk": 3032,
      "ín": 3033,
      "íbri": 3034,
      "ñi": 3035,
      "ñúxk": 3036,
      "ñía": 3037,
      "ñàxnã": 3038,
      "óbi": 3039,
      "ùà": 3040,
      "ùkö": 3041,
      "úriki": 3042,
      "ĩë": 3043,
      "ĩũ": 3044,
      "ĩòx": 3045,
      "ĩnĩ": 3046,
      "̱k": 3047,
      "tskuö": 3048,
      "èqkã": 3049,
      "chkóq": 3050,
      "chôq": 3051,
      "chkí": 3052,
      "chörà": 3053,
      "alô": 3054,
      "alóqk": 3055,
      "alòqke": 3056,
      "alìnã": 3057,
      "alékã": 3058,
      "éxũ": 3059,
      "éxts": 3060,
      "éxòx": 3061,
      "ker": 3062,
      "kerö": 3063,
      "èxk": 3064,
      "èxmũ": 3065,
      "uli": 3066,
      "ulk": 3067,
      "ulû": 3068,
      "ulor": 3069,
      "óqr": 3070,
      "kã": 3071,
      "kapà": 3072,
      "pan": 3073,
      "áxrkẽ": 3074,
      "nẽwã": 3075,
      "nẽĩã": 3076,
      "wamĩ": 3077,
      "nãméx": 3078,
      "nãwîx": 3079,
      "kĩnùx": 3080,
      "irik": 3081,
      "tsolônẽ": 3082,
      "shte": 3083,
      "shtóq": 3084,
      "shũl": 3085,
      "mĩka": 3086,
      "mĩrak": 3087,
      "mĩchò": 3088,
      "káxkö": 3089,
      "káxköl": 3090,
      "káxska": 3091,
      "káxbatà": 3092,
      "káxñĩ": 3093,
      "káxjkue": 3094,
      "kióq": 3095,
      "kibi": 3096,
      "kiòqk": 3097,
      "kãtkenẽ": 3098,
      "íxwĩ": 3099,
      "kut": 3100,
      "kũ": 3101,
      "kukòq": 3102,
      "bukuë": 3103,
      "butsolônẽ": 3104,
      "tkì": 3105,
      "tkla": 3106,
      "saté": 3107,
      "saña": 3108,
      "akë": 3109,
      "dia": 3110,
      "dis": 3111,
      "diö": 3112,
      "dipòq": 3113,
      "buambuáala": 3114,
      "wèxk": 3115,
      "lan": 3116,
      "lard": 3117,
      "lasaña": 3118,
      "wéxwã": 3119,
      "úxn": 3120,
      "úxnũk": 3121,
      "ichó": 3122,
      "wòqbal": 3123,
      "wòqar": 3124,
      "wòqli": 3125,
      "wòqchka": 3126,
      "wòqtsak": 3127,
      "wòqppèke": 3128,
      "wòqklòqnẽ": 3129,
      "wòqsìnã": 3130,
      "wòqsãwõ": 3131,
      "bitsĩ": 3132,
      "bikóqk": 3133,
      "dakuòq": 3134,
      "danne": 3135,
      "kàr": 3136,
      "kàbi": 3137,
      "kölòq": 3138,
      "költë": 3139,
      "sikua": 3140,
      "bagra": 3141,
      "mìxnã": 3142,
      "mìxmĩ": 3143,
      "pàie": 3144,
      "pàkö": 3145,
      "pàtõ": 3146,
      "pàtãwèxke": 3147,
      "tasa": 3148,
      "kali": 3149,
      "kalì": 3150,
      "kalóm": 3151,
      "áksula": 3152,
      "yawi": 3153,
      "yawö": 3154,
      "dawé": 3155,
      "dawés": 3156,
      "dawòqkewã": 3157,
      "dawáska": 3158,
      "óxk": 3159,
      "óxts": 3160,
      "óxrkẽ": 3161,
      "óxjkêx": 3162,
      "bòqtkë": 3163,
      "yéqrke": 3164,
      "balé": 3165,
      "balò": 3166,
      "balóq": 3167,
      "séxẽ": 3168,
      "séxrmĩ": 3169,
      "séxsẽ": 3170,
      "séxrkũ": 3171,
      "séxjkã": 3172,
      "séxssẽ": 3173,
      "eral": 3174,
      "sãùx": 3175,
      "este": 3176,
      "esía": 3177,
      "alàköl": 3178,
      "arr": 3179,
      "arte": 3180,
      "armas": 3181,
      "kãnèxúx": 3182,
      "kãnèxwẽ": 3183,
      "kãnèxwèxkẽ": 3184,
      "bular": 3185,
      "bulàmĩ": 3186,
      "urban": 3187,
      "anton": 3188,
      "anéxũ": 3189,
      "alab": 3190,
      "lia": 3191,
      "lite": 3192,
      "lino": 3193,
      "âxũk": 3194,
      "ulàttö": 3195,
      "ulàbatse": 3196,
      "déwa": 3197,
      "tecno": 3198,
      "alár": 3199,
      "aláki": 3200,
      "alátsítsi": 3201,
      "alárpa": 3202,
      "wéqr": 3203,
      "wéqrke": 3204,
      "roma": 3205,
      "yòql": 3206,
      "yòqke": 3207,
      "yòqnũk": 3208,
      "yòqrmĩ": 3209,
      "kalòqtë": 3210,
      "kalòqtòq": 3211,
      "chica": 3212,
      "shkák": 3213,
      "bakèkẽ": 3214,
      "yàa": 3215,
      "yànõk": 3216,
      "yàbolo": 3217,
      "inũ": 3218,
      "inúxk": 3219,
      "wóqtsè": 3220,
      "tèryök": 3221,
      "wàtak": 3222,
      "wàtãwẽ": 3223,
      "kíxte": 3224,
      "apàkóq": 3225,
      "sĩnàx": 3226,
      "sĩnàxs": 3227,
      "étkuak": 3228,
      "bitẽ": 3229,
      "bákshka": 3230,
      "kãnèxblo": 3231,
      "kãnèxblër": 3232,
      "kapè": 3233,
      "kapóq": 3234,
      "kapóqk": 3235,
      "kapòqkẽ": 3236,
      "kapòqkwã": 3237,
      "wéike": 3238,
      "enne": 3239,
      "entr": 3240,
      "enam": 3241,
      "ensala": 3242,
      "kènẽ": 3243,
      "kèlur": 3244,
      "klòqõ": 3245,
      "klòqũ": 3246,
      "klòqwèxke": 3247,
      "kuòqk": 3248,
      "sèxnã": 3249,
      "shùxki": 3250,
      "shùxshã": 3251,
      "ción": 3252,
      "cilia": 3253,
      "pán": 3254,
      "pánũk": 3255,
      "stsâwak": 3256,
      "ẽna": 3257,
      "tokicha": 3258,
      "torio": 3259,
      "tsirû": 3260,
      "ñèxes": 3261,
      "tërkã": 3262,
      "logía": 3263,
      "ñéxwe": 3264,
      "dìratuaa": 3265,
      "kóxbala": 3266,
      "kóxchö": 3267,
      "kièmĩ": 3268,
      "tty": 3269,
      "míxãnẽ": 3270,
      "bòto": 3271,
      "compa": 3272,
      "coroma": 3273,
      "sùxë": 3274,
      "yóqr": 3275,
      "yóqrkẽ": 3276,
      "kathy": 3277,
      "kínèx": 3278,
      "tsáxtko": 3279,
      "ichàkè": 3280,
      "ichàko": 3281,
      "ichàkak": 3282,
      "ichàkêke": 3283,
      "yulök": 3284,
      "yulòqk": 3285,
      "dakaròla": 3286,
      "ped": 3287,
      "shkòqkã": 3288,
      "yawèĩã": 3289,
      "dabòbyök": 3290,
      "juicio": 3291,
      "alistas": 3292,
      "diàwa": 3293,
      "darkman": 3294,
      "mâxs": 3295,
      "mâxwèxke": 3296,
      "ukòqie": 3297,
      "kabèqpa": 3298,
      "wóqulâõ": 3299,
      "wóqulânẽ": 3300,
      "mõwèx": 3301,
      "wám": 3302,
      "wábalök": 3303,
      "solo": 3304,
      "bùtsãnã": 3305,
      "bitũtsẽ": 3306,
      "tòqtko": 3307,
      "alírkẽ": 3308,
      "yawóqkka": 3309,
      "tuber": 3310,
      "bob": 3311,
      "bol": 3312,
      "ĩâxchi": 3313,
      "dakò": 3314,
      "dakóq": 3315,
      "dakúr": 3316,
      "skuök": 3317,
      "talâr": 3318,
      "tsîrala": 3319,
      "àxritse": 3320,
      "kanèxbalö": 3321,
      "shkèxwèx": 3322,
      "báũ": 3323,
      "báũk": 3324,
      "tkèkèwã": 3325,
      "tulurkĩ": 3326,
      "ajkóqnõ": 3327,
      "kéqköl": 3328,
      "wòqbatsẽ": 3329,
      "tãwèxmĩ": 3330,
      "mis": 3331,
      "namùx": 3332,
      "nañéxwe": 3333,
      "may": 3334,
      "maria": 3335,
      "mael": 3336,
      "maenne": 3337,
      "béqrbéqr": 3338,
      "sawíyök": 3339,
      "sawânẽ": 3340,
      "mãñàxyök": 3341,
      "ujchẽnõ": 3342,
      "ãwìxẽ": 3343,
      "élkë": 3344,
      "nãùxpa": 3345,
      "dáã": 3346,
      "tár": 3347,
      "tátsi": 3348,
      "jkèxë": 3349,
      "ĩùxtè": 3350,
      "diòqya": 3351,
      "dâtske": 3352,
      "mũlûx": 3353,
      "mãnèxtã": 3354,
      "mãnèxnã": 3355,
      "sũlìxtöm": 3356,
      "bríbri": 3357,
      "wôqkela": 3358,
      "wôqiko": 3359,
      "alàrala": 3360,
      "kúr": 3361,
      "porche": 3362,
      "ismael": 3363,
      "iento": 3364,
      "vegas": 3365,
      "pòqkã": 3366,
      "ãlèxmũ": 3367,
      "ãmèxãt": 3368,
      "alarma": 3369,
      "tkésẽ": 3370,
      "iòxiòx": 3371,
      "pàkekẽ": 3372,
      "dékãtke": 3373,
      "teatre": 3374,
      "tsóqkölpa": 3375,
      "óqlit": 3376,
      "cutty": 3377,
      "kòtere": 3378,
      "loren": 3379,
      "skéie": 3380,
      "ôxs": 3381,
      "chòqmĩ": 3382,
      "chòqãt": 3383,
      "bulânẽ": 3384,
      "akuòqwèx": 3385,
      "ièqk": 3386,
      "shakö": 3387,
      "pàlè": 3388,
      "pàlóq": 3389,
      "dawàs": 3390,
      "tsèqũ": 3391,
      "tsèxmĩ": 3392,
      "tsèxkẽ": 3393,
      "tsèxãt": 3394,
      "dora": 3395,
      "joann": 3396,
      "tsirìwèx": 3397,
      "kúxrmĩ": 3398,
      "muda": 3399,
      "shkóqr": 3400,
      "díndî": 3401,
      "sĩàxë": 3402,
      "sĩàxrë": 3403,
      "ũjùx": 3404,
      "sulèqwö": 3405,
      "ciento": 3406,
      "tsúxbitũ": 3407,
      "dàmĩkã": 3408,
      "bâba": 3409,
      "bâwẽ": 3410,
      "ëltë": 3411,
      "chalòq": 3412,
      "chalâlâ": 3413,
      "teles": 3414,
      "ĩnùxke": 3415,
      "batörè": 3416,
      "faulk": 3417,
      "tũwéx": 3418,
      "bermuda": 3419,
      "presión": 3420,
      "broad": 3421,
      "tùxr": 3422,
      "uṉk": 3423,
      "tskìnã": 3424,
      "kukùnẽ": 3425,
      "tkêqnĩk": 3426,
      "búffalo": 3427,
      "nâxnã": 3428,
      "campo": 3429,
      "mũlùxsik": 3430,
      "ãmèxnẽãt": 3431,
      "éẽrö": 3432,
      "dulù": 3433,
      "dulytãmĩ": 3434,
      "hill": 3435,
      "pópp": 3436,
      "wâxn": 3437,
      "akákmẽ": 3438,
      "pàkarke": 3439,
      "estado": 3440,
      "bàtsulur": 3441,
      "ajkáchökbla": 3442,
      "ajkáchökblapa": 3443,
      "luis": 3444,
      "quina": 3445,
      "ĩnìxnẽ": 3446,
      "cecilia": 3447,
      "centro": 3448,
      "ikuwòq": 3449,
      "ièqnãkã": 3450,
      "pies": 3451,
      "sáxũ": 3452,
      "táxĩë": 3453,
      "ãjã": 3454,
      "922": 3455,
      "dóqkka": 3456,
      "ejér": 3457,
      "jtsâ": 3458,
      "nîxnîx": 3459,
      "óqknãmẽpa": 3460,
      "blôblô": 3461,
      "wóqblar": 3462,
      "ióqköl": 3463,
      "náxũ": 3464,
      "kabèkir": 3465,
      "shkít": 3466,
      "àksipa": 3467,
      "general": 3468,
      "mingo": 3469,
      "placa": 3470,
      "ñõlòx": 3471,
      "pasteles": 3472,
      "wòqnĩèxkẽ": 3473,
      "conserva": 3474,
      "aeróbi": 3475,
      "vietna": 3476,
      "tsùxãt": 3477,
      "kutápa": 3478,
      "römwak": 3479,
      "dakírkî": 3480,
      "yèwadà": 3481,
      "cuenta": 3482,
      "apéitepa": 3483,
      "cooperativa": 3484,
      "creek": 3485,
      "mallard": 3486,
      "pend": 3487,
      "skèxtöm": 3488,
      "wòxyök": 3489,
      "tskírkẽ": 3490,
      "kebèrke": 3491,
      "buey": 3492,
      "icherak": 3493,
      "wòqkachi": 3494,
      "champán": 3495,
      "sãnâxnâx": 3496,
      "interés": 3497,
      "wóqular": 3498,
      "lovell": 3499,
      "mõlóxts": 3500,
      "kalèritkè": 3501,
      "corporación": 3502,
      "culosis": 3503,
      "asociación": 3504,
      "césped": 3505,
      "evan": 3506,
      "force": 3507,
      "floro": 3508,
      "funda": 3509,
      "fannie": 3510,
      "field": 3511,
      "jurados": 3512,
      "léköli": 3513,
      "máquina": 3514,
      "mbresía": 3515,
      "mccoy": 3516,
      "nueva": 3517,
      "york": 3518,
      "ãúxshãũsh": 3519,
      "satélite": 3520,
      "dannels": 3521,
      "dawéswö": 3522,
      "antonio": 3523,
      "tecnología": 3524,
      "wóqtsèla": 3525,
      "entrenam": 3526,
      "ensalada": 3527,
      "compañía": 3528,
      "tuberculosis": 3529,
      "maennechor": 3530,
      "kòtereööö": 3531,
      "ejército": 3532,
      "conservatorio": 3533,
      "vietnam": 3534,
      "entrenamiento": 3535,
      "12": 3536,
      "15": 3537,
      "16": 3538,
      "27": 3539,
      "200": 3540,
      "2000": 3541,
      "40": 3542,
      "45": 3543,
      "50": 3544,
      "au": 3545,
      "akã": 3546,
      "akuö": 3547,
      "abá": 3548,
      "bie": 3549,
      "baw": 3550,
      "bök": 3551,
      "bséx": 3552,
      "bre": 3553,
      "cla": 3554,
      "cri": 3555,
      "cer": 3556,
      "can": 3557,
      "cin": 3558,
      "cán": 3559,
      "cré": 3560,
      "ctor": 3561,
      "ds": 3562,
      "dò": 3563,
      "dir": 3564,
      "dres": 3565,
      "dwill": 3566,
      "dalàbulu": 3567,
      "ex": 3568,
      "ewã": 3569,
      "emã": 3570,
      "fl": 3571,
      "fir": 3572,
      "fin": 3573,
      "fres": 3574,
      "fran": 3575,
      "gala": 3576,
      "gat": 3577,
      "gura": 3578,
      "iu": 3579,
      "ió": 3580,
      "iẽ": 3581,
      "itse": 3582,
      "ikiè": 3583,
      "ico": 3584,
      "idióqköl": 3585,
      "ikièke": 3586,
      "iéwã": 3587,
      "iklòqnẽ": 3588,
      "jùx": 3589,
      "jkòq": 3590,
      "jtsã": 3591,
      "jkéx": 3592,
      "jtse": 3593,
      "jaa": 3594,
      "jkué": 3595,
      "kpa": 3596,
      "kkö": 3597,
      "krö": 3598,
      "kkuö": 3599,
      "kók": 3600,
      "kròq": 3601,
      "lã": 3602,
      "lë": 3603,
      "lon": 3604,
      "lán": 3605,
      "luk": 3606,
      "lum": 3607,
      "lbert": 3608,
      "ml": 3609,
      "mí": 3610,
      "ng": 3611,
      "nar": 3612,
      "nio": 3613,
      "nas": 3614,
      "nûx": 3615,
      "ou": 3616,
      "oë": 3617,
      "oka": 3618,
      "oak": 3619,
      "ogra": 3620,
      "odwill": 3621,
      "pö": 3622,
      "pía": 3623,
      "pint": 3624,
      "rê": 3625,
      "rör": 3626,
      "réq": 3627,
      "rkö": 3628,
      "rdâ": 3629,
      "sà": 3630,
      "sòq": 3631,
      "sie": 3632,
      "sal": 3633,
      "skè": 3634,
      "skó": 3635,
      "tla": 3636,
      "trak": 3637,
      "ttsãk": 3638,
      "uc": 3639,
      "ud": 3640,
      "uta": 3641,
      "uwak": 3642,
      "upàkök": 3643,
      "v6": 3644,
      "wala": 3645,
      "yá": 3646,
      "yôq": 3647,
      "àt": 3648,
      "áki": 3649,
      "áköl": 3650,
      "ânã": 3651,
      "ãnẽ": 3652,
      "ãwíxẽ": 3653,
      "èwãmĩ": 3654,
      "èköla": 3655,
      "éi": 3656,
      "ékëpa": 3657,
      "étkö": 3658,
      "ìk": 3659,
      "ìèq": 3660,
      "ìse": 3661,
      "ìes": 3662,
      "íkë": 3663,
      "írkẽ": 3664,
      "ñéẽ": 3665,
      "òë": 3666,
      "òò": 3667,
      "òlolo": 3668,
      "ómi": 3669,
      "ôrô": 3670,
      "ùk": 3671,
      "ùtẽ": 3672,
      "ùru": 3673,
      "úú": 3674,
      "úpa": 3675,
      "úrikĩ": 3676,
      "ĩñẽ": 3677,
      "ĩúxrke": 3678,
      "ũköl": 3679,
      "̀a": 3680,
      "̀ã": 3681,
      "̩̈": 3682,
      "ẽrö": 3683,
      "tsalá": 3684,
      "tsêx": 3685,
      "tsèqnã": 3686,
      "tãla": 3687,
      "ienẽ": 3688,
      "èqkalè": 3689,
      "chĩ": 3690,
      "chúk": 3691,
      "chòqkẽ": 3692,
      "alö": 3693,
      "alir": 3694,
      "alònẽ": 3695,
      "éxwã": 3696,
      "kewã": 3697,
      "ketke": 3698,
      "èxẽ": 3699,
      "èxwèxwã": 3700,
      "èxnèxwã": 3701,
      "ulè": 3702,
      "uléq": 3703,
      "kanẽ": 3704,
      "kamĩ": 3705,
      "kadi": 3706,
      "katök": 3707,
      "kashùxã": 3708,
      "kachúk": 3709,
      "kèqti": 3710,
      "éqk": 3711,
      "watke": 3712,
      "segura": 3713,
      "nãr": 3714,
      "nãúx": 3715,
      "nãñêx": 3716,
      "kĩã": 3717,
      "wãr": 3718,
      "irö": 3719,
      "irîrî": 3720,
      "shwö": 3721,
      "shba": 3722,
      "shkal": 3723,
      "shâx": 3724,
      "shãl": 3725,
      "shôë": 3726,
      "shkànẽ": 3727,
      "shléq": 3728,
      "shòlolo": 3729,
      "ìxñãk": 3730,
      "mĩkẽ": 3731,
      "mĩtsẽ": 3732,
      "mĩkalè": 3733,
      "mĩchô": 3734,
      "mĩáxtke": 3735,
      "káxche": 3736,
      "káxchök": 3737,
      "kĩ": 3738,
      "kinã": 3739,
      "kióqk": 3740,
      "kiök": 3741,
      "kiàxnã": 3742,
      "kãmã": 3743,
      "kãñìx": 3744,
      "íxtsule": 3745,
      "kuà": 3746,
      "kukõ": 3747,
      "kukèkẽ": 3748,
      "kuóqlit": 3749,
      "buë": 3750,
      "busi": 3751,
      "bukul": 3752,
      "butur": 3753,
      "tkó": 3754,
      "tkêqr": 3755,
      "tkle": 3756,
      "tkìnẽ": 3757,
      "köppè": 3758,
      "àxàx": 3759,
      "àxnas": 3760,
      "àxshwö": 3761,
      "saco": 3762,
      "ùxte": 3763,
      "dika": 3764,
      "diche": 3765,
      "dicos": 3766,
      "dicie": 3767,
      "dicina": 3768,
      "mãn": 3769,
      "mãwak": 3770,
      "wèxwa": 3771,
      "wèxse": 3772,
      "wèxkã": 3773,
      "kũkã": 3774,
      "kũòx": 3775,
      "wéxnẽ": 3776,
      "wéxsh": 3777,
      "wéxkã": 3778,
      "wéxlè": 3779,
      "úxwã": 3780,
      "óqktër": 3781,
      "wök": 3782,
      "wòqk": 3783,
      "wòqr": 3784,
      "wòqu": 3785,
      "wòqë": 3786,
      "wòqie": 3787,
      "wòqwa": 3788,
      "wòqnã": 3789,
      "wòqkẽ": 3790,
      "wòqyaw": 3791,
      "wòqte": 3792,
      "wòqwõ": 3793,
      "wòqchaka": 3794,
      "wòqklòqũk": 3795,
      "wòqmèxkè": 3796,
      "wòqkĩla": 3797,
      "wòqppèkẽ": 3798,
      "wòqóqknãmẽpa": 3799,
      "bika": 3800,
      "biyà": 3801,
      "bill": 3802,
      "bitsóq": 3803,
      "bitsíx": 3804,
      "das": 3805,
      "daro": 3806,
      "daché": 3807,
      "dapâ": 3808,
      "kàchök": 3809,
      "kàkchi": 3810,
      "sinĩ": 3811,
      "siáköl": 3812,
      "bakö": 3813,
      "batsòq": 3814,
      "bachà": 3815,
      "batséi": 3816,
      "bachá": 3817,
      "badora": 3818,
      "mìxt": 3819,
      "kët": 3820,
      "ũkka": 3821,
      "pàa": 3822,
      "pàr": 3823,
      "pànẽ": 3824,
      "pàtke": 3825,
      "pàtkòq": 3826,
      "pàter": 3827,
      "pàikl": 3828,
      "pàktöm": 3829,
      "nèxkã": 3830,
      "nèxkẽ": 3831,
      "tan": 3832,
      "tarë": 3833,
      "kòqkã": 3834,
      "uju": 3835,
      "ujtö": 3836,
      "ujarr": 3837,
      "irirla": 3838,
      "kalo": 3839,
      "òxka": 3840,
      "míxrule": 3841,
      "míxppa": 3842,
      "míxyan": 3843,
      "röà": 3844,
      "ákwã": 3845,
      "ákwö": 3846,
      "ákchka": 3847,
      "ërër": 3848,
      "yawì": 3849,
      "dawôq": 3850,
      "óxwã": 3851,
      "bòql": 3852,
      "bòqwö": 3853,
      "bòqtóqkicha": 3854,
      "bòqtom": 3855,
      "rila": 3856,
      "wakla": 3857,
      "yéqr": 3858,
      "yéqtsã": 3859,
      "yéqjkuö": 3860,
      "balòqkẽ": 3861,
      "séxra": 3862,
      "era": 3863,
      "erto": 3864,
      "ajkuóqlit": 3865,
      "sulé": 3866,
      "sulula": 3867,
      "ujto": 3868,
      "éxnùxke": 3869,
      "espa": 3870,
      "arkã": 3871,
      "bule": 3872,
      "bulâr": 3873,
      "kàlkuö": 3874,
      "kàlkua": 3875,
      "kàltak": 3876,
      "kàlbli": 3877,
      "kũéxĩ": 3878,
      "rkewã": 3879,
      "urrì": 3880,
      "uralistas": 3881,
      "dalèqnẽ": 3882,
      "ancie": 3883,
      "wẽke": 3884,
      "wẽkètke": 3885,
      "âxs": 3886,
      "âxkĩ": 3887,
      "ulànẽ": 3888,
      "ulàũk": 3889,
      "ulàte": 3890,
      "ulàkicha": 3891,
      "ulàwáx": 3892,
      "détsa": 3893,
      "ñãwéx": 3894,
      "klé": 3895,
      "ñìxpp": 3896,
      "ñìxppök": 3897,
      "ñìxwẽkètke": 3898,
      "wéqla": 3899,
      "wéqrkẽ": 3900,
      "sibòqlala": 3901,
      "chicos": 3902,
      "shko": 3903,
      "shkèk": 3904,
      "shkówã": 3905,
      "bakè": 3906,
      "kéxwö": 3907,
      "yàk": 3908,
      "yàrke": 3909,
      "inde": 3910,
      "insti": 3911,
      "wóqnĩk": 3912,
      "wóqsãwõ": 3913,
      "mèxkẽ": 3914,
      "mèxtër": 3915,
      "tóqraã": 3916,
      "orden": 3917,
      "wàtãwéx": 3918,
      "kíxtsök": 3919,
      "kíxmèxmĩ": 3920,
      "nĩmẽ": 3921,
      "tkërke": 3922,
      "tkërule": 3923,
      "apàbak": 3924,
      "apàto": 3925,
      "apàtök": 3926,
      "sĩẽn": 3927,
      "bitèx": 3928,
      "sulûnẽ": 3929,
      "sulûòxka": 3930,
      "kãnèxbló": 3931,
      "kãnèxblóq": 3932,
      "kãnèxblòqkẽ": 3933,
      "tënã": 3934,
      "kapòqke": 3935,
      "kapali": 3936,
      "kapákwã": 3937,
      "wéblö": 3938,
      "cabagra": 3939,
      "yìr": 3940,
      "klòqnã": 3941,
      "klòqwèxmĩ": 3942,
      "kóqtulur": 3943,
      "sèxrkẽ": 3944,
      "cis": 3945,
      "páiki": 3946,
      "bèqkuö": 3947,
      "stsë": 3948,
      "stsóq": 3949,
      "stsêqka": 3950,
      "chènẽ": 3951,
      "chèkũ": 3952,
      "ẽnàx": 3953,
      "ulat": 3954,
      "êxkã": 3955,
      "ñéxwa": 3956,
      "karôrô": 3957,
      "batàie": 3958,
      "kóxkö": 3959,
      "kóxli": 3960,
      "kóxbla": 3961,
      "kóxttö": 3962,
      "kièrak": 3963,
      "núxrwã": 3964,
      "súxule": 3965,
      "ttók": 3966,
      "rapi": 3967,
      "síúx": 3968,
      "síwö": 3969,
      "méxr": 3970,
      "méxrke": 3971,
      "méxrmĩ": 3972,
      "tulu": 3973,
      "tulóqk": 3974,
      "aìwa": 3975,
      "aìshkẽ": 3976,
      "kìnẽ": 3977,
      "katẽ": 3978,
      "katòqk": 3979,
      "yàmĩpala": 3980,
      "kínũk": 3981,
      "tsétsè": 3982,
      "ichàkö": 3983,
      "ichàkũ": 3984,
      "ichàkóq": 3985,
      "móxũ": 3986,
      "yulòq": 3987,
      "yulèkẽ": 3988,
      "kuátke": 3989,
      "deogra": 3990,
      "rûrû": 3991,
      "dàa": 3992,
      "dàã": 3993,
      "dàtsi": 3994,
      "shkòqwèxmĩ": 3995,
      "yawèka": 3996,
      "yawènẽ": 3997,
      "yawèlur": 3998,
      "dùsĩã": 3999,
      "dùtrak": 4000,
      "junio": 4001,
      "chaké": 4002,
      "black": 4003,
      "daréq": 4004,
      "darèqr": 4005,
      "shkamẽ": 4006,
      "astro": 4007,
      "shté": 4008,
      "shtir": 4009,
      "shtâxũk": 4010,
      "bànèxwã": 4011,
      "bàrkö": 4012,
      "kabèqla": 4013,
      "bikeitsö": 4014,
      "bikeitsule": 4015,
      "lea": 4016,
      "leti": 4017,
      "mõköl": 4018,
      "ujtèmĩ": 4019,
      "tsóxwe": 4020,
      "tsóxppök": 4021,
      "èqnẽwã": 4022,
      "nãñéxë": 4023,
      "bís": 4024,
      "atómi": 4025,
      "bùnẽ": 4026,
      "yës": 4027,
      "mãñáxtöm": 4028,
      "darêqrêqëmẽ": 4029,
      "tòqraã": 4030,
      "tòqtkërke": 4031,
      "alíie": 4032,
      "sãwèxkẽ": 4033,
      "bóqwö": 4034,
      "bóqjkö": 4035,
      "kirìnã": 4036,
      "mãlíxtsule": 4037,
      "télor": 4038,
      "botel": 4039,
      "dot": 4040,
      "domingo": 4041,
      "wõk": 4042,
      "ãmìxwöla": 4043,
      "ĩâxchkí": 4044,
      "ikũáx": 4045,
      "ikũâxkĩ": 4046,
      "skuóqk": 4047,
      "duw": 4048,
      "duè": 4049,
      "duwà": 4050,
      "dukúr": 4051,
      "tkënẽ": 4052,
      "mòxwö": 4053,
      "kanèxwèxke": 4054,
      "tkòqõ": 4055,
      "yèwãmĩ": 4056,
      "bátsule": 4057,
      "pere": 4058,
      "tkèqr": 4059,
      "tkèqtẽn": 4060,
      "sòr": 4061,
      "tkáka": 4062,
      "kòqchiwe": 4063,
      "ajkóqnèxke": 4064,
      "ajkóqnar": 4065,
      "kéqla": 4066,
      "tsaki": 4067,
      "tãwèxkẽ": 4068,
      "mĩ": 4069,
      "misil": 4070,
      "ajkáchóqk": 4071,
      "nauta": 4072,
      "mapa": 4073,
      "béqrbë": 4074,
      "sawi": 4075,
      "sawák": 4076,
      "sawànã": 4077,
      "tsìxka": 4078,
      "escu": 4079,
      "sutá": 4080,
      "sũlĩ": 4081,
      "kùbulu": 4082,
      "dáde": 4083,
      "táa": 4084,
      "ĩnóx": 4085,
      "dâmĩ": 4086,
      "takla": 4087,
      "point": 4088,
      "ñáxnũk": 4089,
      "ñáxnõ": 4090,
      "mãnèxnẽ": 4091,
      "mãnèxũk": 4092,
      "mãnèxwèxmĩ": 4093,
      "mãnèxtkã": 4094,
      "carmen": 4095,
      "löaa": 4096,
      "chàke": 4097,
      "chàkè": 4098,
      "kibíie": 4099,
      "ajkàyë": 4100,
      "tàyëla": 4101,
      "yèqnẽtsa": 4102,
      "sũlìxtul": 4103,
      "sũlìxtú": 4104,
      "sìtla": 4105,
      "yêqsyêqsë": 4106,
      "kúkur": 4107,
      "dótkenẽ": 4108,
      "membresía": 4109,
      "medicina": 4110,
      "ùshñã": 4111,
      "gol": 4112,
      "goodwill": 4113,
      "isla": 4114,
      "videogra": 4115,
      "klóqwõ": 4116,
      "kíxmẽrke": 4117,
      "kíxmẽrmĩ": 4118,
      "tsítsipa": 4119,
      "tsítsipala": 4120,
      "déqka": 4121,
      "déqnẽ": 4122,
      "tkînã": 4123,
      "tkîwéx": 4124,
      "tkîwẽ": 4125,
      "tkîuṉk": 4126,
      "ãlàx": 4127,
      "tkéqlka": 4128,
      "yéulur": 4129,
      "yéstsã": 4130,
      "sirke": 4131,
      "kakmũ": 4132,
      "yèqnãnã": 4133,
      "tawé": 4134,
      "talànã": 4135,
      "bitùxrkã": 4136,
      "ahh": 4137,
      "pui": 4138,
      "puerto": 4139,
      "íẽrö": 4140,
      "kâblë": 4141,
      "kapòqtër": 4142,
      "1900": 4143,
      "máxla": 4144,
      "tkabë": 4145,
      "wèi": 4146,
      "katèwã": 4147,
      "akàñãk": 4148,
      "tsiríwèxkẽ": 4149,
      "bikéitsèkẽ": 4150,
      "apánũk": 4151,
      "ióqkwã": 4152,
      "àkbal": 4153,
      "tsìdalala": 4154,
      "shatar": 4155,
      "tkòqkemĩ": 4156,
      "ujtóqkwã": 4157,
      "dàtsĩke": 4158,
      "dóqchaka": 4159,
      "wíköla": 4160,
      "chóqknãmẽ": 4161,
      "buàrmĩnẽ": 4162,
      "bribriwak": 4163,
      "contra": 4164,
      "dalòqtsẽ": 4165,
      "tóttôë": 4166,
      "tóqkblapa": 4167,
      "tsèxke": 4168,
      "éqrulewã": 4169,
      "béqrëbërë": 4170,
      "filán": 4171,
      "ikèkẽ": 4172,
      "kúxrke": 4173,
      "téqrkẽ": 4174,
      "téqrömwak": 4175,
      "tóxule": 4176,
      "tropo": 4177,
      "tropas": 4178,
      "tsàxmõ": 4179,
      "santo": 4180,
      "ahorro": 4181,
      "kãlîx": 4182,
      "siòxdala": 4183,
      "tsikiris": 4184,
      "tsikirís": 4185,
      "daléqnã": 4186,
      "bikéitsekẽ": 4187,
      "lápiz": 4188,
      "kèwãtke": 4189,
      "dàmĩtke": 4190,
      "ishtök": 4191,
      "éstsã": 4192,
      "éköltë": 4193,
      "chaléx": 4194,
      "batöróq": 4195,
      "páxlĩnẽ": 4196,
      "akèqchake": 4197,
      "kós": 4198,
      "tĩèx": 4199,
      "ããã": 4200,
      "ãmíxpa": 4201,
      "berto": 4202,
      "sarul": 4203,
      "sarúl": 4204,
      "tsikírmĩ": 4205,
      "démĩnẽ": 4206,
      "shtáwõk": 4207,
      "péite": 4208,
      "stor": 4209,
      "kukùie": 4210,
      "kapéyèkẽ": 4211,
      "tsúxkmĩ": 4212,
      "kãnéxũk": 4213,
      "kãnéxwẽ": 4214,
      "kãnéxwèxkẽ": 4215,
      "wìxkepa": 4216,
      "mũlùxtak": 4217,
      "kéxkraë": 4218,
      "béqsulula": 4219,
      "tákla": 4220,
      "ñîxë": 4221,
      "tsíxnẽt": 4222,
      "kãnèxõnõ": 4223,
      "mâxtkle": 4224,
      "dèqbitũ": 4225,
      "dèqkãtkenẽ": 4226,
      "hilbert": 4227,
      "tsóqkol": 4228,
      "kũlùx": 4229,
      "baliwak": 4230,
      "síkuapa": 4231,
      "ãñìx": 4232,
      "ikalë": 4233,
      "nùxnãwã": 4234,
      "oficial": 4235,
      "qui": 4236,
      "uuuf": 4237,
      "éndak": 4238,
      "tséqule": 4239,
      "baróqr": 4240,
      "kalòqtèqnẽ": 4241,
      "kakmẽrke": 4242,
      "bèqrieblu": 4243,
      "centa": 4244,
      "hectá": 4245,
      "lòquaa": 4246,
      "akáluk": 4247,
      "kalôqwẽ": 4248,
      "mèxkèãt": 4249,
      "cubana": 4250,
      "dalôqlôqë": 4251,
      "ejer": 4252,
      "operaciones": 4253,
      "alòqbuk": 4254,
      "èxnẽwa": 4255,
      "shúxl": 4256,
      "tkàwã": 4257,
      "ichérak": 4258,
      "ujtèkẽwã": 4259,
      "dòqkẽtke": 4260,
      "kítule": 4261,
      "ppèkẽrak": 4262,
      "wîxwîxë": 4263,
      "apóq": 4264,
      "biro": 4265,
      "balôbalô": 4266,
      "pájtök": 4267,
      "reagan": 4268,
      "kolómãwak": 4269,
      "188": 4270,
      "grand": 4271,
      "iklòqõ": 4272,
      "stela": 4273,
      "sòqkkö": 4274,
      "nãñèxwe": 4275,
      "kibìie": 4276,
      "kibìnã": 4277,
      "kãmîxë": 4278,
      "tulúrkã": 4279,
      "katárule": 4280,
      "kirírkẽ": 4281,
      "abelino": 4282,
      "rícula": 4283,
      "skáxmóxköl": 4284,
      "skáxmõköl": 4285,
      "shurù": 4286,
      "shurú": 4287,
      "biomas": 4288,
      "batámĩk": 4289,
      "mìxchòë": 4290,
      "kalòk": 4291,
      "balàtök": 4292,
      "balèkẽwã": 4293,
      "ulàttã": 4294,
      "wàtãwèxkẽ": 4295,
      "shùxbalékã": 4296,
      "ujchẽnẽ": 4297,
      "wills": 4298,
      "zoológico": 4299,
      "zoológicos": 4300,
      "kirèqrmãpa": 4301,
      "lawn": 4302,
      "téqruwak": 4303,
      "chukuè": 4304,
      "wéxrtse": 4305,
      "sibìkũ": 4306,
      "mìxkalê": 4307,
      "mìxneshka": 4308,
      "dawóqchkepa": 4309,
      "kóxwötã": 4310,
      "dakítkök": 4311,
      "1968": 4312,
      "1973": 4313,
      "tarèqie": 4314,
      "tsíxjkẽn": 4315,
      "abogados": 4316,
      "bachâbachaë": 4317,
      "años": 4318,
      "matrícula": 4319,
      "naturalistas": 4320,
      "rlùnẽ": 4321,
      "ràwã": 4322,
      "ukâböt": 4323,
      "éxòxwã": 4324,
      "ulitãnẽ": 4325,
      "ulûk": 4326,
      "shũléx": 4327,
      "káxköltö": 4328,
      "káxñĩk": 4329,
      "kũéxk": 4330,
      "wòqtsakoka": 4331,
      "pàtõrke": 4332,
      "tasas": 4333,
      "ulàttöũk": 4334,
      "chicago": 4335,
      "kíxteka": 4336,
      "báũnẽ": 4337,
      "bríbriwak": 4338,
      "ãlèxmũs": 4339,
      "kabèkirwak": 4340,
      "aeróbico": 4341,
      "pendiente": 4342,
      "evans": 4343,
      "fundación": 4344,
      "crisis": 4345,
      "crédi": 4346,
      "financie": 4347,
      "fresno": 4348,
      "francis": 4349,
      "gates": 4350,
      "iupui": 4351,
      "kókó": 4352,
      "londres": 4353,
      "oaklawn": 4354,
      "pintura": 4355,
      "ìsela": 4356,
      "shléqwöla": 4357,
      "shòlololo": 4358,
      "kãñìxru": 4359,
      "bukulú": 4360,
      "köppèe": 4361,
      "diciembre": 4362,
      "kũòxkĩ": 4363,
      "wòqyawe": 4364,
      "bachànẽ": 4365,
      "ujarrás": 4366,
      "séxraë": 4367,
      "ulàwáxk": 4368,
      "shkèkêxkã": 4369,
      "independiente": 4370,
      "institu": 4371,
      "ordenador": 4372,
      "rapids": 4373,
      "darèqrèq": 4374,
      "astronauta": 4375,
      "leticia": 4376,
      "atómica": 4377,
      "misiles": 4378,
      "sutát": 4379,
      "sũlìxtúyök": 4380,
      "videograbadora": 4381,
      "contrapresión": 4382,
      "filántropo": 4383,
      "sarúlsarul": 4384,
      "hectárea": 4385,
      "02": 4386,
      "21": 4387,
      "22": 4388,
      "39": 4389,
      "485": 4390,
      "55": 4391,
      "5000": 4392,
      "70": 4393,
      "71": 4394,
      "af": 4395,
      "ay": 4396,
      "az": 4397,
      "aie": 4398,
      "aba": 4399,
      "aũk": 4400,
      "amùx": 4401,
      "abèq": 4402,
      "aff": 4403,
      "ami": 4404,
      "ame": 4405,
      "aíẽ": 4406,
      "abâ": 4407,
      "aqu": 4408,
      "bich": 4409,
      "btà": 4410,
      "béql": 4411,
      "bichà": 4412,
      "bâr": 4413,
      "búk": 4414,
      "bók": 4415,
      "có": 4416,
      "caj": 4417,
      "cto": 4418,
      "cana": 4419,
      "dû": 4420,
      "die": 4421,
      "dök": 4422,
      "dêq": 4423,
      "día": 4424,
      "dló": 4425,
      "drio": 4426,
      "diri": 4427,
      "dgar": 4428,
      "eye": 4429,
      "ewa": 4430,
      "emĩ": 4431,
      "epà": 4432,
      "eur": 4433,
      "eje": 4434,
      "emil": 4435,
      "equi": 4436,
      "edgar": 4437,
      "fan": 4438,
      "fre": 4439,
      "frica": 4440,
      "ge": 4441,
      "gin": 4442,
      "gor": 4443,
      "glo": 4444,
      "gaso": 4445,
      "ho": 4446,
      "har": 4447,
      "heno": 4448,
      "ii": 4449,
      "iá": 4450,
      "iâ": 4451,
      "ié": 4452,
      "ĩ": 4453,
      "ikèq": 4454,
      "inã": 4455,
      "ita": 4456,
      "iâx": 4457,
      "iké": 4458,
      "ijkë": 4459,
      "ica": 4460,
      "ikie": 4461,
      "ibitũ": 4462,
      "iès": 4463,
      "itá": 4464,
      "iajkà": 4465,
      "isãúx": 4466,
      "ikalè": 4467,
      "iékã": 4468,
      "iklòqũk": 4469,
      "iéltë": 4470,
      "iapàkẽ": 4471,
      "ikéqla": 4472,
      "iéqrulewã": 4473,
      "jch": 4474,
      "jáx": 4475,
      "jur": 4476,
      "jkóq": 4477,
      "jkua": 4478,
      "jue": 4479,
      "jap": 4480,
      "jchèkẽ": 4481,
      "jchál": 4482,
      "kwa": 4483,
      "kwã": 4484,
      "kku": 4485,
      "kmã": 4486,
      "kwö": 4487,
      "ktkër": 4488,
      "kôq": 4489,
      "kúxk": 4490,
      "kkëpa": 4491,
      "knãmẽ": 4492,
      "któqk": 4493,
      "kkuè": 4494,
      "któqkicha": 4495,
      "k̀ã": 4496,
      "lé": 4497,
      "lú": 4498,
      "léx": 4499,
      "lóq": 4500,
      "lpa": 4501,
      "lda": 4502,
      "lĩã": 4503,
      "lâx": 4504,
      "lyök": 4505,
      "lás": 4506,
      "ltë": 4507,
      "lûx": 4508,
      "líxs": 4509,
      "lchika": 4510,
      "mà": 4511,
      "mâ": 4512,
      "mé": 4513,
      "mì": 4514,
      "mò": 4515,
      "mó": 4516,
      "mor": 4517,
      "mbulu": 4518,
      "mbla": 4519,
      "mík": 4520,
      "nò": 4521,
      "ntu": 4522,
      "nwĩ": 4523,
      "of": 4524,
      "ok": 4525,
      "oli": 4526,
      "opòq": 4527,
      "otra": 4528,
      "pũ": 4529,
      "pal": 4530,
      "pòx": 4531,
      "pèkẽ": 4532,
      "pio": 4533,
      "ppe": 4534,
      "pók": 4535,
      "pík": 4536,
      "rú": 4537,
      "rtã": 4538,
      "rul": 4539,
      "róq": 4540,
      "rala": 4541,
      "rlo": 4542,
      "rón": 4543,
      "rchà": 4544,
      "rèqk": 4545,
      "rbë": 4546,
      "rîrî": 4547,
      "rkètke": 4548,
      "rales": 4549,
      "rrá": 4550,
      "rriki": 4551,
      "rwala": 4552,
      "sc": 4553,
      "ske": 4554,
      "sìx": 4555,
      "ski": 4556,
      "sda": 4557,
      "skòq": 4558,
      "swak": 4559,
      "salà": 4560,
      "skuö": 4561,
      "swóqulâ": 4562,
      "salí": 4563,
      "syàmĩpa": 4564,
      "súr": 4565,
      "skóqk": 4566,
      "skíxmèxke": 4567,
      "skíxmõ": 4568,
      "span": 4569,
      "srûrû": 4570,
      "tí": 4571,
      "tû": 4572,
      "tie": 4573,
      "tkĩ": 4574,
      "tíx": 4575,
      "têq": 4576,
      "tĩã": 4577,
      "tin": 4578,
      "ttóq": 4579,
      "tòqke": 4580,
      "tkar": 4581,
      "tre": 4582,
      "tkue": 4583,
      "tlú": 4584,
      "ut": 4585,
      "uri": 4586,
      "uer": 4587,
      "uis": 4588,
      "uyéqjkuö": 4589,
      "ves": 4590,
      "vos": 4591,
      "wī": 4592,
      "w̱": 4593,
      "wàx": 4594,
      "wès": 4595,
      "yók": 4596,
      "yár": 4597,
      "zana": 4598,
      "àts": 4599,
      "àtsẽ": 4600,
      "àtsĩ": 4601,
      "àsir": 4602,
      "àtska": 4603,
      "àlöaa": 4604,
      "áwö": 4605,
      "átsèke": 4606,
      "ánĩk": 4607,
      "áfrica": 4608,
      "âkũ": 4609,
      "âëmẽ": 4610,
      "ãñ": 4611,
      "ãts": 4612,
      "ãie": 4613,
      "ãñéx": 4614,
      "ãñíx": 4615,
      "ãmáx": 4616,
      "ãwí": 4617,
      "ãñóx": 4618,
      "ãñãwéx": 4619,
      "ãwī": 4620,
      "èe": 4621,
      "èwã": 4622,
      "èir": 4623,
      "ètka": 4624,
      "èbale": 4625,
      "èùà": 4626,
      "ée": 4627,
      "éj": 4628,
      "ék": 4629,
      "éki": 4630,
      "éri": 4631,
      "éli": 4632,
      "éulur": 4633,
      "êke": 4634,
      "êse": 4635,
      "êtökicha": 4636,
      "ëk": 4637,
      "ënã": 4638,
      "ëbèq": 4639,
      "ìr": 4640,
      "ìke": 4641,
      "ìta": 4642,
      "ìwak": 4643,
      "ìrì": 4644,
      "ío": 4645,
      "ít": 4646,
      "íã": 4647,
      "ítẽ": 4648,
      "ítkẽ": 4649,
      "îë": 4650,
      "ñak": 4651,
      "ñol": 4652,
      "òj": 4653,
      "òkẽ": 4654,
      "òli": 4655,
      "óie": 4656,
      "ótk": 4657,
      "óköl": 4658,
      "ôũk": 4659,
      "õs": 4660,
      "öla": 4661,
      "ùtã": 4662,
      "ùsul": 4663,
      "ùbulu": 4664,
      "ùso": 4665,
      "ùjkö": 4666,
      "ùyöm": 4667,
      "ús": 4668,
      "út": 4669,
      "únẽ": 4670,
      "úköl": 4671,
      "úcar": 4672,
      "úrkã": 4673,
      "úapàkök": 4674,
      "ûrû": 4675,
      "ûyèkẽ": 4676,
      "ĩs": 4677,
      "ĩõ": 4678,
      "ĩnũk": 4679,
      "ĩúxk": 4680,
      "ĩôx": 4681,
      "ĩáxn": 4682,
      "ĩúxn": 4683,
      "ũã": 4684,
      "ũwã": 4685,
      "ũkẽ": 4686,
      "ũtu": 4687,
      "ũntu": 4688,
      "̃k": 4689,
      "̃iòx": 4690,
      "̈̀": 4691,
      "ẽs": 4692,
      "ẽẽ": 4693,
      "tsê": 4694,
      "tsù": 4695,
      "tsû": 4696,
      "tsör": 4697,
      "tsòx": 4698,
      "tsét": 4699,
      "tsmãl": 4700,
      "tséqrule": 4701,
      "tsĩnìx": 4702,
      "tsòò": 4703,
      "òqwö": 4704,
      "tãùx": 4705,
      "iego": 4706,
      "ieël": 4707,
      "èqë": 4708,
      "èqule": 4709,
      "èqtöm": 4710,
      "yë̩": 4711,
      "yecto": 4712,
      "chî": 4713,
      "chèq": 4714,
      "chaw": 4715,
      "chòx": 4716,
      "cher": 4717,
      "chicha": 4718,
      "chéqr": 4719,
      "chkök": 4720,
      "chòqk": 4721,
      "alì": 4722,
      "alíx": 4723,
      "alák": 4724,
      "alôq": 4725,
      "alum": 4726,
      "alóqknãmẽ": 4727,
      "almen": 4728,
      "alôqũk": 4729,
      "éxjkêx": 4730,
      "éxjkèx": 4731,
      "keka": 4732,
      "kerak": 4733,
      "keshka": 4734,
      "ketkö": 4735,
      "kebé": 4736,
      "örëbèq": 4737,
      "töla": 4738,
      "èxke": 4739,
      "èxnãwã": 4740,
      "èxwẽwã": 4741,
      "ulê": 4742,
      "ulî": 4743,
      "ulùnẽ": 4744,
      "ulìta": 4745,
      "ulúrkã": 4746,
      "kaè": 4747,
      "kakö": 4748,
      "kacha": 4749,
      "kachè": 4750,
      "kachòq": 4751,
      "katar": 4752,
      "kaís": 4753,
      "kabéq": 4754,
      "kèqke": 4755,
      "kèqka": 4756,
      "kèqla": 4757,
      "éqt": 4758,
      "éqki": 4759,
      "pad": 4760,
      "pau": 4761,
      "patã": 4762,
      "paka": 4763,
      "pastor": 4764,
      "áxnĩ": 4765,
      "áxtsmãl": 4766,
      "nẽnẽ": 4767,
      "nẽmĩ": 4768,
      "nẽiã": 4769,
      "wam": 4770,
      "ser": 4771,
      "sete": 4772,
      "sello": 4773,
      "nãnẽ": 4774,
      "nãîx": 4775,
      "nãnũk": 4776,
      "nãwíx": 4777,
      "nãmũ": 4778,
      "nãwáx": 4779,
      "kĩáx": 4780,
      "kĩrak": 4781,
      "kĩmèxmĩ": 4782,
      "kĩk̀ã": 4783,
      "wãtke": 4784,
      "ben": 4785,
      "bet": 4786,
      "bela": 4787,
      "beló": 4788,
      "ira": 4789,
      "irke": 4790,
      "irmĩ": 4791,
      "irador": 4792,
      "irísh": 4793,
      "shi": 4794,
      "shõ": 4795,
      "shtã": 4796,
      "shal": 4797,
      "shtö": 4798,
      "shóx": 4799,
      "shulà": 4800,
      "shtë": 4801,
      "shat": 4802,
      "shalí": 4803,
      "shãmõ": 4804,
      "shirì": 4805,
      "ìxnẽ": 4806,
      "ìxnwĩ": 4807,
      "mĩã": 4808,
      "mĩkã": 4809,
      "mĩtke": 4810,
      "mĩnéx": 4811,
      "mĩnêx": 4812,
      "káxmĩ": 4813,
      "káxshùx": 4814,
      "káxkök": 4815,
      "káxtu": 4816,
      "káxñíx": 4817,
      "káxsãũk": 4818,
      "káxshtâxũk": 4819,
      "awà": 4820,
      "awí": 4821,
      "awẽ": 4822,
      "awènẽ": 4823,
      "kiá": 4824,
      "kipa": 4825,
      "kita": 4826,
      "kiaa": 4827,
      "kiàxnẽ": 4828,
      "kãkèx": 4829,
      "íxã": 4830,
      "íxrule": 4831,
      "kuka": 4832,
      "kuök": 4833,
      "kuèkẽ": 4834,
      "kuwé": 4835,
      "kukè": 4836,
      "bus": 4837,
      "bunúx": 4838,
      "buko": 4839,
      "butsur": 4840,
      "buâũk": 4841,
      "bunàxnẽ": 4842,
      "buâëmẽ": 4843,
      "buèqë": 4844,
      "tkéx": 4845,
      "tkès": 4846,
      "tkèxk": 4847,
      "kẽmĩ": 4848,
      "köpa": 4849,
      "könàxnẽ": 4850,
      "àxrí": 4851,
      "sabi": 4852,
      "ùxùx": 4853,
      "ùxrkã": 4854,
      "dio": 4855,
      "diá": 4856,
      "dikĩ": 4857,
      "diki": 4858,
      "dikíx": 4859,
      "dichà": 4860,
      "dichâ": 4861,
      "dicial": 4862,
      "dilù": 4863,
      "mãs": 4864,
      "mãũk": 4865,
      "mãñã": 4866,
      "mãúxk": 4867,
      "mãnẽt": 4868,
      "mãñãl": 4869,
      "buaë": 4870,
      "wèxla": 4871,
      "wèxkèqka": 4872,
      "kũéxn": 4873,
      "kũek": 4874,
      "kũóxwã": 4875,
      "lado": 4876,
      "latro": 4877,
      "lanta": 4878,
      "wéxrö": 4879,
      "wéxalê": 4880,
      "wéxshkè": 4881,
      "wéxëltë": 4882,
      "úxr": 4883,
      "úxkã": 4884,
      "úxjùx": 4885,
      "yötul": 4886,
      "yöbita": 4887,
      "ichak": 4888,
      "ichòqke": 4889,
      "ichóqli": 4890,
      "ichéndak": 4891,
      "wöli": 4892,
      "wöwe": 4893,
      "wömõ": 4894,
      "wöttè": 4895,
      "wömãúxk": 4896,
      "wòqb": 4897,
      "wòqts": 4898,
      "wòqkĩ": 4899,
      "wòqsi": 4900,
      "wòqbl": 4901,
      "wòqche": 4902,
      "wòqtse": 4903,
      "wòqsèx": 4904,
      "wòqtër": 4905,
      "wòqti": 4906,
      "wòqklòqwẽ": 4907,
      "wòqklóq": 4908,
      "wòqèmĩ": 4909,
      "wòquk": 4910,
      "wòqyawök": 4911,
      "wòqwóx": 4912,
      "wòqish": 4913,
      "wòqtèqnã": 4914,
      "wòqië": 4915,
      "wòqtkóqk": 4916,
      "wòqtkèqnẽ": 4917,
      "wòqtkèqnã": 4918,
      "wòqñàx": 4919,
      "wòqchika": 4920,
      "wòqtërule": 4921,
      "wòqklör": 4922,
      "wòqsirke": 4923,
      "wòqikèkẽ": 4924,
      "bié": 4925,
      "bikòq": 4926,
      "biök": 4927,
      "bità": 4928,
      "bièkẽ": 4929,
      "bikè": 4930,
      "bikí": 4931,
      "bitsìx": 4932,
      "bitsèke": 4933,
      "bilado": 4934,
      "daô": 4935,
      "dapà": 4936,
      "dabòq": 4937,
      "datà": 4938,
      "dabè": 4939,
      "dabóq": 4940,
      "dachà": 4941,
      "dapé": 4942,
      "dapóqk": 4943,
      "kànã": 4944,
      "kàmĩ": 4945,
      "kàtèke": 4946,
      "kàcho": 4947,
      "kàiö": 4948,
      "kàbalòqkẽ": 4949,
      "sipa": 4950,
      "sinã": 4951,
      "siwö": 4952,
      "sipà": 4953,
      "siwõ": 4954,
      "sipòq": 4955,
      "siúxwã": 4956,
      "sibéql": 4957,
      "siglo": 4958,
      "bachi": 4959,
      "batak": 4960,
      "bane": 4961,
      "batsèke": 4962,
      "batsule": 4963,
      "bahi": 4964,
      "basù": 4965,
      "bakabi": 4966,
      "bakãlîx": 4967,
      "mìxnèx": 4968,
      "mìxkl": 4969,
      "mìxtke": 4970,
      "mìxchi": 4971,
      "mìxtkè": 4972,
      "mìxnéx": 4973,
      "mìxkela": 4974,
      "mìxyal": 4975,
      "mìxtsèx": 4976,
      "mìxchô": 4977,
      "mìxtkẽ": 4978,
      "mìxnèxnẽ": 4979,
      "këe": 4980,
      "këkë": 4981,
      "ũknẽ": 4982,
      "ũkmĩ": 4983,
      "pàbit": 4984,
      "pàtse": 4985,
      "pàkóq": 4986,
      "pàkar": 4987,
      "pàtu": 4988,
      "pàko": 4989,
      "pàtãwèx": 4990,
      "pàkak": 4991,
      "pàtkök": 4992,
      "pàtãwẽ": 4993,
      "pàtãũk": 4994,
      "pàtkéwã": 4995,
      "pàtóxrke": 4996,
      "pàkêke": 4997,
      "pàktökicha": 4998,
      "pàkuòqk": 4999,
      "pàskuö": 5000,
      "nèxmĩ": 5001,
      "nèxĩã": 5002,
      "nèxtsã": 5003,
      "taîx": 5004,
      "tabèq": 5005,
      "tare": 5006,
      "tambi": 5007,
      "takiaa": 5008,
      "kòqtk": 5009,
      "kòqtẽ": 5010,
      "kòqchö": 5011,
      "kòqppè": 5012,
      "kòqnàx": 5013,
      "blo": 5014,
      "blû": 5015,
      "kale": 5016,
      "kalóqk": 5017,
      "charé": 5018,
      "charlo": 5019,
      "êqk": 5020,
      "êqwẽ": 5021,
      "òxnã": 5022,
      "òxrule": 5023,
      "òxkule": 5024,
      "míxka": 5025,
      "míxnẽ": 5026,
      "míxkalè": 5027,
      "míxchô": 5028,
      "míxrwã": 5029,
      "áktö": 5030,
      "ákbö": 5031,
      "ákchaka": 5032,
      "yawák": 5033,
      "dawòqke": 5034,
      "óxn": 5035,
      "óxnẽ": 5036,
      "óxjkéx": 5037,
      "bòqtö": 5038,
      "rik": 5039,
      "rit": 5040,
      "riwak": 5041,
      "rino": 5042,
      "rios": 5043,
      "rick": 5044,
      "yéqla": 5045,
      "yéqrule": 5046,
      "yéqdak": 5047,
      "yéqbalök": 5048,
      "yéqwöla": 5049,
      "yéqchke": 5050,
      "balóqk": 5051,
      "balêq": 5052,
      "balen": 5053,
      "baléqr": 5054,
      "séxnũk": 5055,
      "yibi": 5056,
      "eréq": 5057,
      "eros": 5058,
      "erlur": 5059,
      "erewã": 5060,
      "ajkéq": 5061,
      "ñẽrmã": 5062,
      "sule": 5063,
      "sulu": 5064,
      "tsik": 5065,
      "tsikinã": 5066,
      "ujte": 5067,
      "ujtóq": 5068,
      "éxnõ": 5069,
      "espe": 5070,
      "estre": 5071,
      "alàbùsi": 5072,
      "alàbusi": 5073,
      "arros": 5074,
      "bulè": 5075,
      "bulèq": 5076,
      "bulèqr": 5077,
      "bulár": 5078,
      "bulànẽ": 5079,
      "kàlwe": 5080,
      "kàlkicha": 5081,
      "kàlukö": 5082,
      "tànã": 5083,
      "tàta": 5084,
      "tàwẽ": 5085,
      "urri": 5086,
      "urén": 5087,
      "urrèqk": 5088,
      "mẽsa": 5089,
      "dale": 5090,
      "dalèwa": 5091,
      "wẽwãmĩ": 5092,
      "wẽlè": 5093,
      "alabur": 5094,
      "lila": 5095,
      "lina": 5096,
      "licía": 5097,
      "kiàrmĩ": 5098,
      "kiàna": 5099,
      "kiàrpa": 5100,
      "âxlâx": 5101,
      "èkẽwã": 5102,
      "ulàwa": 5103,
      "ulànũk": 5104,
      "ulàtök": 5105,
      "ulàtsĩ": 5106,
      "ulàbatsé": 5107,
      "dée": 5108,
      "dére": 5109,
      "démãlẽ": 5110,
      "démĩ": 5111,
      "alála": 5112,
      "klo": 5113,
      "klí": 5114,
      "klò": 5115,
      "klóqktër": 5116,
      "yèqr": 5117,
      "yèqwö": 5118,
      "ñìxë": 5119,
      "ñìxnẽ": 5120,
      "ñìxköl": 5121,
      "ñìxwèxke": 5122,
      "ñìxúxk": 5123,
      "ñìxkéq": 5124,
      "ñìxẽs": 5125,
      "ñìxmĩkã": 5126,
      "ñìxkëe": 5127,
      "wéqnẽ": 5128,
      "wéqbi": 5129,
      "wéqtse": 5130,
      "wéqbalök": 5131,
      "sibòqla": 5132,
      "sibòqchök": 5133,
      "tsãka": 5134,
      "tsãtke": 5135,
      "tsãrâ": 5136,
      "rollo": 5137,
      "roame": 5138,
      "yòqk": 5139,
      "yòqrpa": 5140,
      "yòqtsãmĩ": 5141,
      "kalòqtö": 5142,
      "kalòqnẽ": 5143,
      "kalòqkicha": 5144,
      "kalòqñãk": 5145,
      "kalòqjkue": 5146,
      "kalòqũwã": 5147,
      "chike": 5148,
      "chipò": 5149,
      "shkôq": 5150,
      "bakòx": 5151,
      "baktër": 5152,
      "bakùbulu": 5153,
      "kéxwa": 5154,
      "yànõ": 5155,
      "inĩ": 5156,
      "inũk": 5157,
      "inio": 5158,
      "indy": 5159,
      "inúköl": 5160,
      "weike": 5161,
      "dòqta": 5162,
      "dòqtsa": 5163,
      "wóqö": 5164,
      "wóqke": 5165,
      "wóqli": 5166,
      "wóqale": 5167,
      "ĩàxtã": 5168,
      "mèxat": 5169,
      "mèxsẽ": 5170,
      "tèe": 5171,
      "tèkũ": 5172,
      "tèkèlur": 5173,
      "tèrik": 5174,
      "tóqö": 5175,
      "tóqkã": 5176,
      "tóqkök": 5177,
      "mĩk̀": 5178,
      "wàtã": 5179,
      "wàbalök": 5180,
      "wàbalö": 5181,
      "wàtõ": 5182,
      "wàkãnéxũk": 5183,
      "ulewã": 5184,
      "dëkã": 5185,
      "kíxkã": 5186,
      "kíxtërule": 5187,
      "kíxmer": 5188,
      "ujtéche": 5189,
      "ujtére": 5190,
      "ujtéchök": 5191,
      "onu": 5192,
      "kéka": 5193,
      "kérwa": 5194,
      "kérwala": 5195,
      "nĩmáx": 5196,
      "apàka": 5197,
      "apàtóx": 5198,
      "apàkèkẽ": 5199,
      "apàskuök": 5200,
      "apàío": 5201,
      "sĩèx": 5202,
      "sĩúxk": 5203,
      "sĩwõ": 5204,
      "bité": 5205,
      "bitàx": 5206,
      "bitale": 5207,
      "sulûwẽwãmĩ": 5208,
      "nũkwã": 5209,
      "kãnèxblé": 5210,
      "kãnèxblèqnẽ": 5211,
      "böl": 5212,
      "böla": 5213,
      "bölö": 5214,
      "tëröà": 5215,
      "kapôq": 5216,
      "kapóqwã": 5217,
      "kapalë": 5218,
      "kapèqule": 5219,
      "wèxkewa": 5220,
      "ãñìxköl": 5221,
      "ãñìxta": 5222,
      "ãñìxjkë": 5223,
      "wéle": 5224,
      "wéìk": 5225,
      "wéibitũ": 5226,
      "casi": 5227,
      "cachor": 5228,
      "kètsã": 5229,
      "kèrwa": 5230,
      "kèkamĩ": 5231,
      "klòqte": 5232,
      "klòqrlùnẽ": 5233,
      "kóqnòx": 5234,
      "sèxrkũ": 5235,
      "cita": 5236,
      "pájkuö": 5237,
      "pátkë": 5238,
      "páryök": 5239,
      "bèqkwö": 5240,
      "stsí": 5241,
      "stséq": 5242,
      "stsèkẽ": 5243,
      "stsèqnã": 5244,
      "stsòqkẽ": 5245,
      "stséqrkẽ": 5246,
      "mãñá": 5247,
      "mãñèxk": 5248,
      "alákölala": 5249,
      "awáie": 5250,
      "toro": 5251,
      "tsirë": 5252,
      "tsirík": 5253,
      "ñèxse": 5254,
      "ñèxmĩ": 5255,
      "ñèxjke": 5256,
      "ñèxrmã": 5257,
      "ñèxkkëpa": 5258,
      "locu": 5259,
      "locus": 5260,
      "louis": 5261,
      "êxk": 5262,
      "ñéxe": 5263,
      "dìla": 5264,
      "dìwóqsãwõ": 5265,
      "iõiòx": 5266,
      "kóxrë": 5267,
      "kóxtté": 5268,
      "kóxshtáúx": 5269,
      "kóxjkèxë": 5270,
      "kóxpö": 5271,
      "kièrö": 5272,
      "ichóqkale": 5273,
      "yéqsyêqs": 5274,
      "kál": 5275,
      "kám": 5276,
      "kár": 5277,
      "káwak": 5278,
      "káië": 5279,
      "núxie": 5280,
      "núxbalö": 5281,
      "súxn": 5282,
      "súxr": 5283,
      "súxwã": 5284,
      "ttòqk": 5285,
      "ttòqkwã": 5286,
      "yawak": 5287,
      "síwèxkẽ": 5288,
      "méxtsã": 5289,
      "méxat": 5290,
      "tulè": 5291,
      "tuléstsã": 5292,
      "míxãpa": 5293,
      "aìëkã": 5294,
      "aìèqka": 5295,
      "cola": 5296,
      "kìnã": 5297,
      "sùxnã": 5298,
      "yóqtsãnẽ": 5299,
      "katòq": 5300,
      "katúr": 5301,
      "katùnã": 5302,
      "bèk": 5303,
      "kítke": 5304,
      "kímúx": 5305,
      "tsémĩ": 5306,
      "tsáxk": 5307,
      "tsáxkã": 5308,
      "tsáxwe": 5309,
      "tsáxtkòqmĩ": 5310,
      "ichàkir": 5311,
      "màxt": 5312,
      "móxũk": 5313,
      "yulòqkẽ": 5314,
      "desar": 5315,
      "tsòqr": 5316,
      "dakaròwe": 5317,
      "dakaròyë": 5318,
      "pea": 5319,
      "pei": 5320,
      "pez": 5321,
      "ulâtskuö": 5322,
      "dànẽ": 5323,
      "dàde": 5324,
      "wâke": 5325,
      "wâna": 5326,
      "shkòqk": 5327,
      "shkòqũ": 5328,
      "shkòqnã": 5329,
      "shkòqmĩ": 5330,
      "yawèãt": 5331,
      "rës": 5332,
      "junta": 5333,
      "judicial": 5334,
      "jubilado": 5335,
      "0000": 5336,
      "chakal": 5337,
      "chakóqk": 5338,
      "nõmòx": 5339,
      "alinã": 5340,
      "diàla": 5341,
      "mâxk": 5342,
      "mâxnã": 5343,
      "mâxwèxmĩ": 5344,
      "bêqrbêqr": 5345,
      "bêqrbër": 5346,
      "asp": 5347,
      "shtri": 5348,
      "shtéka": 5349,
      "kòxm": 5350,
      "piso": 5351,
      "kũẽwã": 5352,
      "bàn": 5353,
      "bàë": 5354,
      "bàũk": 5355,
      "bàwèxke": 5356,
      "bàtsẽ": 5357,
      "bàbâ": 5358,
      "ppòq": 5359,
      "ppóq": 5360,
      "wákpala": 5361,
      "wóqulâr": 5362,
      "wóqulâã": 5363,
      "lekã": 5364,
      "mõwèxnẽ": 5365,
      "dióqẽ": 5366,
      "dióqköla": 5367,
      "wátãwẽ": 5368,
      "tsóxwã": 5369,
      "tsóxli": 5370,
      "tsóxkönàxnẽ": 5371,
      "bík": 5372,
      "bít": 5373,
      "bítkuak": 5374,
      "juanita": 5375,
      "atlanta": 5376,
      "britá": 5377,
      "mîxk": 5378,
      "mîxke": 5379,
      "socio": 5380,
      "solda": 5381,
      "souri": 5382,
      "wóqkie": 5383,
      "bùkàmĩ": 5384,
      "tabèchaka": 5385,
      "mãñáxtökicha": 5386,
      "tòqmĩ": 5387,
      "tòqtke": 5388,
      "tòqtkö": 5389,
      "alírule": 5390,
      "marcus": 5391,
      "yawóqkmĩ": 5392,
      "yawóqkbla": 5393,
      "sãwèxpa": 5394,
      "sãwèxkũ": 5395,
      "sãwèxrâ": 5396,
      "bóqwo": 5397,
      "kirìnẽ": 5398,
      "kirír": 5399,
      "tuwóq": 5400,
      "tunîxnîx": 5401,
      "mãláxtsmãl": 5402,
      "témĩ": 5403,
      "tékãnẽ": 5404,
      "térriki": 5405,
      "domĩ": 5406,
      "nõk": 5407,
      "ãmìxpa": 5408,
      "tsíkir": 5409,
      "tsídala": 5410,
      "tsídalala": 5411,
      "dakòqkẽ": 5412,
      "dakêt": 5413,
      "duà": 5414,
      "duké": 5415,
      "droga": 5416,
      "talâ": 5417,
      "talar": 5418,
      "talòqwö": 5419,
      "tkëtẽn": 5420,
      "àxrits": 5421,
      "àxritsé": 5422,
      "mòxë": 5423,
      "mòxki": 5424,
      "mòxwóq": 5425,
      "skéxtökicha": 5426,
      "skéxiki": 5427,
      "èstsã": 5428,
      "ìsie": 5429,
      "kanèxbalë": 5430,
      "tkòqkẽ": 5431,
      "tkòqtsã": 5432,
      "shkèxũk": 5433,
      "wíxes": 5434,
      "bòqtkue": 5435,
      "bám": 5436,
      "bárkẽ": 5437,
      "báyöm": 5438,
      "báshba": 5439,
      "kol": 5440,
      "kolo": 5441,
      "kotere": 5442,
      "tkèqt": 5443,
      "tkèqnâxnã": 5444,
      "túxnèxtsã": 5445,
      "tkèkèlur": 5446,
      "tkáshkal": 5447,
      "ajkóqnèxkẽ": 5448,
      "kéqak": 5449,
      "kéqwö": 5450,
      "kéqtali": 5451,
      "vado": 5452,
      "chkòqk": 5453,
      "wòqbatsòq": 5454,
      "dòqkamĩ": 5455,
      "nĩmàxichóqk": 5456,
      "wámbléqr": 5457,
      "kùxrke": 5458,
      "kùxnũ": 5459,
      "kùxrkètke": 5460,
      "râwã": 5461,
      "tió": 5462,
      "tiàli": 5463,
      "tiúxkã": 5464,
      "tsaí": 5465,
      "tsaka": 5466,
      "tsabàbâ": 5467,
      "aaa": 5468,
      "bìl": 5469,
      "misa": 5470,
      "ajkátë": 5471,
      "ajkáyë": 5472,
      "ajkáyèqnẽ": 5473,
      "ajkáchö": 5474,
      "naĩ": 5475,
      "mã": 5476,
      "masa": 5477,
      "mama": 5478,
      "mayo": 5479,
      "kàxjtö": 5480,
      "ttèlur": 5481,
      "nico": 5482,
      "nicos": 5483,
      "sawök": 5484,
      "sawànẽ": 5485,
      "sawânã": 5486,
      "ajkòqië": 5487,
      "mãñàxtóqkicha": 5488,
      "múxka": 5489,
      "múxkã": 5490,
      "múxköl": 5491,
      "sub": 5492,
      "sutâ": 5493,
      "suktkër": 5494,
      "sũr": 5495,
      "sũwèxkẽ": 5496,
      "sũköt": 5497,
      "ãwìxëkã": 5498,
      "ãwíxsh": 5499,
      "buléñak": 5500,
      "kùnã": 5501,
      "kùktöm": 5502,
      "kùmbi": 5503,
      "kùlyök": 5504,
      "élor": 5505,
      "dáa": 5506,
      "dáre": 5507,
      "táie": 5508,
      "táwã": 5509,
      "tonela": 5510,
      "ãmùxkö": 5511,
      "uláitö": 5512,
      "shkẽúx": 5513,
      "tkabèqdu": 5514,
      "ĩníxrule": 5515,
      "ĩùxche": 5516,
      "ĩùxté": 5517,
      "ĩùxtök": 5518,
      "sarûru": 5519,
      "skéxlka": 5520,
      "dâũk": 5521,
      "dâre": 5522,
      "dâãie": 5523,
      "mũlũ": 5524,
      "mũlúx": 5525,
      "kãñíxkã": 5526,
      "íxmãla": 5527,
      "policía": 5528,
      "ñáxa": 5529,
      "ñáxwĩ": 5530,
      "mãnèxt": 5531,
      "mãnèxwẽ": 5532,
      "mãnèxte": 5533,
      "mãnèxratuaa": 5534,
      "kàxlĩë": 5535,
      "löm": 5536,
      "nẽ": 5537,
      "katàie": 5538,
      "katànã": 5539,
      "katànõk": 5540,
      "ajkàche": 5541,
      "tàyëpa": 5542,
      "tàyëbú": 5543,
      "kéxwek": 5544,
      "kéxweie": 5545,
      "brun": 5546,
      "alèla": 5547,
      "buála": 5548,
      "àxnãwã": 5549,
      "àxnãre": 5550,
      "bùsila": 5551,
      "kúiki": 5552,
      "mũkka": 5553,
      "tóla": 5554,
      "tórkẽ": 5555,
      "tókàiö": 5556,
      "shkóqkmĩ": 5557,
      "dikìxñèxke": 5558,
      "dónẽ": 5559,
      "portan": 5560,
      "sèxnẽrak": 5561,
      "mũẽ": 5562,
      "mũéx": 5563,
      "mũèx": 5564,
      "mũáx": 5565,
      "mũerlur": 5566,
      "wìwö": 5567,
      "istèq": 5568,
      "sẽr": 5569,
      "ientes": 5570,
      "mìxketke": 5571,
      "éqltëpa": 5572,
      "dökukùnẽ": 5573,
      "dölòquaa": 5574,
      "oscar": 5575,
      "vidad": 5576,
      "villo": 5577,
      "vidrio": 5578,
      "klóqwe": 5579,
      "kíxmẽrule": 5580,
      "déqkala": 5581,
      "déqũtu": 5582,
      "déqdëkã": 5583,
      "vela": 5584,
      "chãmùxla": 5585,
      "tkîk": 5586,
      "tköñã": 5587,
      "wèxkẽnẽ": 5588,
      "biyòqchóqknãmẽ": 5589,
      "bikékla": 5590,
      "mãñáxlka": 5591,
      "mango": 5592,
      "mania": 5593,
      "péũ": 5594,
      "ãmèxmĩ": 5595,
      "tkékã": 5596,
      "derêqrêq": 5597,
      "tôto": 5598,
      "kakmũk": 5599,
      "pàkemĩ": 5600,
      "dékãnẽ": 5601,
      "tawẽ": 5602,
      "tawèx": 5603,
      "tawìnã": 5604,
      "talàwẽ": 5605,
      "talàũkka": 5606,
      "sùxnẽĩã": 5607,
      "tsóqköl": 5608,
      "tsóqkök": 5609,
      "kũèxke": 5610,
      "kũèxkĩ": 5611,
      "kũèxkẽ": 5612,
      "kânẽ": 5613,
      "talamãn": 5614,
      "kalaèq": 5615,
      "kapòqkũ": 5616,
      "kapòqrâ": 5617,
      "kápiwö": 5618,
      "dalôlôë": 5619,
      "1910": 5620,
      "1930": 5621,
      "1992": 5622,
      "1999": 5623,
      "kòk": 5624,
      "máxt": 5625,
      "tkamĩ": 5626,
      "wèike": 5627,
      "wèirke": 5628,
      "ôxka": 5629,
      "ôxdalër": 5630,
      "chòqwa": 5631,
      "chòqtke": 5632,
      "chòqkãt": 5633,
      "nãmẽpa": 5634,
      "akàñã": 5635,
      "yawémĩ": 5636,
      "sulàr": 5637,
      "sulàre": 5638,
      "sulàmèxke": 5639,
      "sulàyöbita": 5640,
      "sulàbitale": 5641,
      "bulâm": 5642,
      "bulâũk": 5643,
      "bulâme": 5644,
      "bulâbë": 5645,
      "tsiríwèx": 5646,
      "kúlka": 5647,
      "apánẽ": 5648,
      "apáinũ": 5649,
      "ièqkã": 5650,
      "ièqtöm": 5651,
      "ióqkka": 5652,
      "chòwa": 5653,
      "shatèwã": 5654,
      "shapóq": 5655,
      "káxpakök": 5656,
      "tkòqkeyal": 5657,
      "ichàkekẽ": 5658,
      "chakàie": 5659,
      "dóqnẽ": 5660,
      "lópez": 5661,
      "wíñãk": 5662,
      "tsakèkẽ": 5663,
      "tsakèe": 5664,
      "alemania": 5665,
      "batéx": 5666,
      "batòx": 5667,
      "séxndak": 5668,
      "fffu": 5669,
      "mãñàxtkue": 5670,
      "nũnã": 5671,
      "nũwéxkã": 5672,
      "pulì": 5673,
      "pulí": 5674,
      "páxrwã": 5675,
      "páxrlor": 5676,
      "tsèqnẽka": 5677,
      "dalòqie": 5678,
      "dalòqiök": 5679,
      "ĩâxĩâxë": 5680,
      "sóköl": 5681,
      "sórbulu": 5682,
      "sólchika": 5683,
      "öööö": 5684,
      "tsèqũk": 5685,
      "semestre": 5686,
      "shòxböt": 5687,
      "bitéxshka": 5688,
      "bitéxãnẽ": 5689,
      "akuôq": 5690,
      "dores": 5691,
      "filan": 5692,
      "filatro": 5693,
      "joaqu": 5694,
      "làs": 5695,
      "làla": 5696,
      "tkóqö": 5697,
      "tkóqrö": 5698,
      "tkóqwẽ": 5699,
      "tkóqtsã": 5700,
      "tkóqùxke": 5701,
      "kãnèxwèxketsã": 5702,
      "chakìkî": 5703,
      "ikiànãwã": 5704,
      "kulë": 5705,
      "kúxrkẽ": 5706,
      "mũ": 5707,
      "téqrke": 5708,
      "tsàxbata": 5709,
      "tsàxkkuö": 5710,
      "tkéqrkẽ": 5711,
      "tkéqtökicha": 5712,
      "tkéqtokicha": 5713,
      "sãwẽmĩ": 5714,
      "bulùsã": 5715,
      "bulùbulù": 5716,
      "bulùmĩã": 5717,
      "shkóqbitũ": 5718,
      "onave": 5719,
      "ahorros": 5720,
      "díjka": 5721,
      "iètã": 5722,
      "ièse": 5723,
      "ièkã": 5724,
      "ièppa": 5725,
      "yèkewa": 5726,
      "kãlã": 5727,
      "kuóqwã": 5728,
      "mãnéxt": 5729,
      "mãnéxwõ": 5730,
      "siòxla": 5731,
      "siòxwöla": 5732,
      "tsikirír": 5733,
      "tsikirìrì": 5734,
      "lárke": 5735,
      "lámpa": 5736,
      "wóxyök": 5737,
      "tsúxkat": 5738,
      "tãíxkpa": 5739,
      "kichàtè": 5740,
      "bitséitsẽ": 5741,
      "bitséitsè": 5742,
      "bitséitsök": 5743,
      "bitséitsèke": 5744,
      "dawòqkèwãtke": 5745,
      "ishtè": 5746,
      "ishtóq": 5747,
      "ishtàwẽ": 5748,
      "chéqulur": 5749,
      "éxrök": 5750,
      "kalötòqmĩ": 5751,
      "teleno": 5752,
      "dòqkãmĩ": 5753,
      "costa": 5754,
      "bílwe": 5755,
      "ĩnùxmĩ": 5756,
      "ĩnùxrâ": 5757,
      "batöròqk": 5758,
      "akèqnũ": 5759,
      "ishtó": 5760,
      "ishtàx": 5761,
      "itòqièkẽ": 5762,
      "tĩéx": 5763,
      "tĩwéx": 5764,
      "tĩũk": 5765,
      "tũr": 5766,
      "tũnéx": 5767,
      "ãããã": 5768,
      "chkàla": 5769,
      "chkàieël": 5770,
      "sargen": 5771,
      "wòqblaõ": 5772,
      "pàkòqrke": 5773,
      "balíwã": 5774,
      "séxrkerak": 5775,
      "bèqrbër": 5776,
      "stsòqmĩ": 5777,
      "yóqruletke": 5778,
      "iã": 5779,
      "stèq": 5780,
      "cháchá": 5781,
      "nãmàxitãmĩ": 5782,
      "bitsîxë": 5783,
      "sĩõlà": 5784,
      "séqbaliwak": 5785,
      "wêqñe": 5786,
      "yuwak": 5787,
      "yuwè": 5788,
      "kãnéxwèxmĩ": 5789,
      "ditséwöla": 5790,
      "wòqtkeka": 5791,
      "chakèkã": 5792,
      "talànẽkã": 5793,
      "béqwak": 5794,
      "alólô": 5795,
      "burîrî": 5796,
      "kãnèxõnẽ": 5797,
      "sĩêxë": 5798,
      "kèkãtke": 5799,
      "piloto": 5800,
      "wamblërke": 5801,
      "wamblërdâ": 5802,
      "dulèq": 5803,
      "mónica": 5804,
      "púpu": 5805,
      "púúú": 5806,
      "púlekã": 5807,
      "tâũk": 5808,
      "tâwẽ": 5809,
      "téxrkã": 5810,
      "wâxyök": 5811,
      "yaro": 5812,
      "shakòq": 5813,
      "shakóq": 5814,
      "tkéqrwã": 5815,
      "mãnêxũk": 5816,
      "kũlèx": 5817,
      "kũlũk": 5818,
      "pàkanẽ": 5819,
      "estatal": 5820,
      "kíxmũkbla": 5821,
      "ciocho": 5822,
      "síktakla": 5823,
      "tulúrsẽ": 5824,
      "presidencial": 5825,
      "apéitö": 5826,
      "dîla": 5827,
      "duláköl": 5828,
      "importan": 5829,
      "ikale": 5830,
      "ikalèkẽ": 5831,
      "ikalêqlêq": 5832,
      "nùxnã": 5833,
      "proyecto": 5834,
      "uuuu": 5835,
      "ñẽ": 5836,
      "èxnãwa": 5837,
      "tkóqkmĩ": 5838,
      "tkóqkdö": 5839,
      "akéqke": 5840,
      "akéqköl": 5841,
      "barátsèke": 5842,
      "shkótke": 5843,
      "kãnèxblòqmĩ": 5844,
      "kímũkdak": 5845,
      "mâxmãwö": 5846,
      "mâxmãdukà": 5847,
      "tsítsirpa": 5848,
      "ĩnìxnã": 5849,
      "tsìrtsir": 5850,
      "amén": 5851,
      "apakẽ": 5852,
      "ièqnãwã": 5853,
      "rìrì": 5854,
      "éyökie": 5855,
      "kalíúxk": 5856,
      "míxtkemũlẽ": 5857,
      "anny": 5858,
      "wéqstëla": 5859,
      "tsãnèxnèxnèx": 5860,
      "mèxkènẽ": 5861,
      "ratuã": 5862,
      "society": 5863,
      "maravillo": 5864,
      "tkèqnẽtsã": 5865,
      "ãlìxnẽ": 5866,
      "university": 5867,
      "924": 5868,
      "dèbitũ": 5869,
      "jtsâwak": 5870,
      "jtsêqka": 5871,
      "pòoë": 5872,
      "salas": 5873,
      "salabê": 5874,
      "êköltë": 5875,
      "shuyéq": 5876,
      "shutunîxnîx": 5877,
      "kiénẽ": 5878,
      "tkàmĩ": 5879,
      "ichèkerak": 5880,
      "batséka": 5881,
      "pàtkèkekã": 5882,
      "pàtkèketkenẽ": 5883,
      "balèwã": 5884,
      "dalèqnãĩã": 5885,
      "klöwẽ": 5886,
      "kèbisãwéx": 5887,
      "kùkurkùkur": 5888,
      "duládulapa": 5889,
      "organizaciones": 5890,
      "apì": 5891,
      "gui": 5892,
      "igala": 5893,
      "ièkeka": 5894,
      "iklök": 5895,
      "rèe": 5896,
      "rôs": 5897,
      "kabèũk": 5898,
      "shkãlâxlâx": 5899,
      "balôbalo": 5900,
      "shkítkö": 5901,
      "kãnèxblekẽ": 5902,
      "ñéxẽrö": 5903,
      "kolóm": 5904,
      "kolókolo": 5905,
      "béqrërë": 5906,
      "sháxbös": 5907,
      "adrón": 5908,
      "anãsta": 5909,
      "griego": 5910,
      "granny": 5911,
      "ijtsé": 5912,
      "iéqrke": 5913,
      "iéqtökicha": 5914,
      "kûyök": 5915,
      "kûkicha": 5916,
      "pôóxr": 5917,
      "plano": 5918,
      "póxlĩ": 5919,
      "sùla": 5920,
      "surùrù": 5921,
      "surûrû": 5922,
      "èwamĩ": 5923,
      "ñõr": 5924,
      "ñàxlĩ": 5925,
      "ñâxwẽwa": 5926,
      "chkénãwã": 5927,
      "alònã": 5928,
      "kãnìxñãk": 5929,
      "wòqsko": 5930,
      "wòqskèkamĩ": 5931,
      "wòqnĩrkẽ": 5932,
      "wóqstsũk": 5933,
      "kéũn": 5934,
      "tulúãt": 5935,
      "katánõ": 5936,
      "bùlñã": 5937,
      "bùlikalök": 5938,
      "millones": 5939,
      "élkêë": 5940,
      "ñáxktke": 5941,
      "ãlòxchka": 5942,
      "consejo": 5943,
      "profesionales": 5944,
      "abel": 5945,
      "aeronave": 5946,
      "dèmĩnẽ": 5947,
      "itôq": 5948,
      "séjka": 5949,
      "tònãr": 5950,
      "tòtóla": 5951,
      "chãnéx": 5952,
      "chãmũ": 5953,
      "irìria": 5954,
      "irìuaa": 5955,
      "káxnkuö": 5956,
      "wòqbutsaka": 5957,
      "dapáũk": 5958,
      "dapárke": 5959,
      "mìxchònẽ": 5960,
      "nèxnèxnèx": 5961,
      "kòqkekã": 5962,
      "kalòie": 5963,
      "ajkêq": 5964,
      "ajkêx": 5965,
      "ajkönèxmĩ": 5966,
      "andre": 5967,
      "pátkemĩ": 5968,
      "ttóqkulur": 5969,
      "dakírkipa": 5970,
      "èkkëpë": 5971,
      "cuente": 5972,
      "cooperativas": 5973,
      "away": 5974,
      "dúwã": 5975,
      "kìxkã": 5976,
      "kúkúr": 5977,
      "kúkúnẽ": 5978,
      "lawèir": 5979,
      "múxkka": 5980,
      "étkie": 5981,
      "tséqrũã": 5982,
      "kĩmẽrâ": 5983,
      "káxñìxnẽ": 5984,
      "káxñìxnã": 5985,
      "kipàmõ": 5986,
      "wéxrtsök": 5987,
      "wòqñãrkẽ": 5988,
      "wòqtkënẽ": 5989,
      "wòqetpa": 5990,
      "bikèqsi": 5991,
      "mìxkale": 5992,
      "mìxneyal": 5993,
      "kalâts": 5994,
      "kalâtskuö": 5995,
      "míxyartke": 5996,
      "óxrtsèke": 5997,
      "balèqrke": 5998,
      "baléqrke": 5999,
      "wàtũẽ": 6000,
      "kapöli": 6001,
      "wéblo": 6002,
      "wéblèke": 6003,
      "tomás": 6004,
      "tulùnãwã": 6005,
      "ujchéxnĩã": 6006,
      "kirìbulu": 6007,
      "talìri": 6008,
      "militares": 6009,
      "1970": 6010,
      "tèqnãnẽmĩ": 6011,
      "embajadores": 6012,
      "acres": 6013,
      "bûr": 6014,
      "eee": 6015,
      "grecia": 6016,
      "ikalòqk": 6017,
      "ikalòqkẽ": 6018,
      "iéqrwã": 6019,
      "kîxë": 6020,
      "llama": 6021,
      "olôya": 6022,
      "privado": 6023,
      "sichóq": 6024,
      "skóqtsãnẽ": 6025,
      "téxrsẽ": 6026,
      "wêikök": 6027,
      "wèqñẽ": 6028,
      "yótsã": 6029,
      "chkóqköl": 6030,
      "chôqã": 6031,
      "chöràë": 6032,
      "kapàgala": 6033,
      "nẽĩãnẽ": 6034,
      "shtóqka": 6035,
      "mĩchòë": 6036,
      "kióqrak": 6037,
      "íxwĩwak": 6038,
      "kutùnẽ": 6039,
      "tkìnũk": 6040,
      "tkìwèxwã": 6041,
      "wòqarke": 6042,
      "wòqarkũ": 6043,
      "kàrbli": 6044,
      "kàbisãũ": 6045,
      "kölòqwèxwa": 6046,
      "pàieketkö": 6047,
      "alabó": 6048,
      "yòqlukö": 6049,
      "yòqkelur": 6050,
      "kapóqkwã": 6051,
      "tsirûwö": 6052,
      "ichàkêkenẽ": 6053,
      "bolsa": 6054,
      "ĩâxchiki": 6055,
      "dakòlum": 6056,
      "mismo": 6057,
      "missouri": 6058,
      "tárbela": 6059,
      "tátsikö": 6060,
      "tátsiköla": 6061,
      "mũlûxlûx": 6062,
      "mãnèxnãtsã": 6063,
      "ôxsõs": 6064,
      "póppô": 6065,
      "wâxnwâxn": 6066,
      "jtsâwöwe": 6067,
      "blôblôwö": 6068,
      "náxũpa": 6069,
      "dakírkîë": 6070,
      "sãnâxnâxë": 6071,
      "mõlóxtsmõlóxts": 6072,
      "akuöúx": 6073,
      "abáwö": 6074,
      "clavo": 6075,
      "cinco": 6076,
      "cáncer": 6077,
      "dòã": 6078,
      "dire": 6079,
      "fly": 6080,
      "firm": 6081,
      "míshka": 6082,
      "réqkã": 6083,
      "sòquaa": 6084,
      "úpake": 6085,
      "èqkalènã": 6086,
      "ulèuaa": 6087,
      "kadije": 6088,
      "nãúxyöm": 6089,
      "nãñêxë": 6090,
      "shãlâx": 6091,
      "mĩtsẽr": 6092,
      "tkêqrkã": 6093,
      "wòqkbò": 6094,
      "wòqiewã": 6095,
      "wòqtekẽwã": 6096,
      "wòqmèxkètsãtke": 6097,
      "kàchökbla": 6098,
      "pàtkòqwã": 6099,
      "pàterèwã": 6100,
      "pàiklé": 6101,
      "tarëwèxkẽ": 6102,
      "míxyandak": 6103,
      "dawôqchke": 6104,
      "español": 6105,
      "klépa": 6106,
      "apàbako": 6107,
      "ẽnàxë": 6108,
      "tuluãt": 6109,
      "tsétsèë": 6110,
      "yulèkẽnẽ": 6111,
      "dàtsike": 6112,
      "daréqsda": 6113,
      "botella": 6114,
      "ikũáxtkĩ": 6115,
      "duwörà": 6116,
      "pereira": 6117,
      "ajkóqnarke": 6118,
      "escuadrón": 6119,
      "ñáxnũkwak": 6120,
      "golf": 6121,
      "ãlàxchka": 6122,
      "ahhh": 6123,
      "àkbalóqknãmẽ": 6124,
      "shatarô": 6125,
      "tsikirístsikiris": 6126,
      "batöróqö": 6127,
      "tĩèxkã": 6128,
      "centavos": 6129,
      "mèxkèãttke": 6130,
      "ejercito": 6131,
      "chukuèbulu": 6132,
      "crédito": 6133,
      "financieros": 6134,
      "francisco": 6135,
      "instituciones": 6136,
      "5539": 6137,
      "afroame": 6138,
      "azúcar": 6139,
      "affc": 6140,
      "bókli": 6141,
      "cómo": 6142,
      "caja": 6143,
      "dûr": 6144,
      "dieciocho": 6145,
      "díaz": 6146,
      "eyed": 6147,
      "euro": 6148,
      "emily": 6149,
      "equipo": 6150,
      "frecuente": 6151,
      "gasolina": 6152,
      "hombre": 6153,
      "iâxwẽ": 6154,
      "itárkẽ": 6155,
      "jurí": 6156,
      "japón": 6157,
      "kkuo": 6158,
      "kôqtk": 6159,
      "médicos": 6160,
      "morales": 6161,
      "olivo": 6162,
      "opòqp": 6163,
      "rchàkkuo": 6164,
      "rbëla": 6165,
      "súrwak": 6166,
      "spaniel": 6167,
      "yókòli": 6168,
      "ãñóxie": 6169,
      "ùsulë": 6170,
      "tsòxtkö": 6171,
      "chawë": 6172,
      "aluminio": 6173,
      "almengor": 6174,
      "kebérke": 6175,
      "ulúrkãmĩ": 6176,
      "kachèkènẽ": 6177,
      "kachòqtak": 6178,
      "áxnĩñã": 6179,
      "nẽiãnẽ": 6180,
      "setenta": 6181,
      "nãîxpe": 6182,
      "nãwáxki": 6183,
      "belório": 6184,
      "shulàkmã": 6185,
      "shalít": 6186,
      "shirìrìrì": 6187,
      "mĩnéxã": 6188,
      "mĩnêxã": 6189,
      "káxshùxa": 6190,
      "káxñíxka": 6191,
      "kãkèxs": 6192,
      "bunúxrkẽ": 6193,
      "butsurèq": 6194,
      "tkèsẽ": 6195,
      "àxríts": 6196,
      "sabino": 6197,
      "dichàchà": 6198,
      "dilùbio": 6199,
      "mãñãltë": 6200,
      "wéxshkètke": 6201,
      "yötuligala": 6202,
      "ichòqkewa": 6203,
      "wòqsèxrmĩ": 6204,
      "wòqtiẽ": 6205,
      "wòqklóqr": 6206,
      "wòqñàxrke": 6207,
      "kàchok": 6208,
      "banet": 6209,
      "bahid": 6210,
      "bakabiöla": 6211,
      "bakãlîxk": 6212,
      "mìxnèxtsẽ": 6213,
      "mìxkle": 6214,
      "mìxtkèrak": 6215,
      "mìxyaltke": 6216,
      "mìxtsèxwã": 6217,
      "pàbiterewã": 6218,
      "pàtkökwã": 6219,
      "pàkuòqknẽ": 6220,
      "también": 6221,
      "kòqppèkèkãtke": 6222,
      "charlote": 6223,
      "balenõ": 6224,
      "baléqrmĩ": 6225,
      "espectá": 6226,
      "ulàtsĩnĩ": 6227,
      "ñìxwèxketke": 6228,
      "ñìxúxknẽ": 6229,
      "ñìxkéqë": 6230,
      "chipòtë": 6231,
      "kíxmerke": 6232,
      "kapôqwe": 6233,
      "cachorros": 6234,
      "kóqnòxie": 6235,
      "locuts": 6236,
      "locust": 6237,
      "kóxrëbèq": 6238,
      "desarrollo": 6239,
      "wânamã": 6240,
      "británicos": 6241,
      "mãláxtsmãlãts": 6242,
      "báshbash": 6243,
      "kotereùùù": 6244,
      "kùxnũpa": 6245,
      "kùmbia": 6246,
      "tonelada": 6247,
      "sarûrü": 6248,
      "tàyëbúsi": 6249,
      "talamãnca": 6250,
      "apáinũũk": 6251,
      "páxrlornẽ": 6252,
      "filantr": 6253,
      "filatropía": 6254,
      "joaquín": 6255,
      "ièppakã": 6256,
      "tsikirírí": 6257,
      "lámpara": 6258,
      "telenovela": 6259,
      "sargento": 6260,
      "importante": 6261,
      "maravilloso": 6262,
      "anãstasia": 6263,
      "pôóxrulur": 6264,
      "daréqsdarës": 6265,
      "afroameri": 6266,
      "''": 6267,
      ".]": 6268,
      "01": 6269,
      "03": 6270,
      "06": 6271,
      "13": 6272,
      "17": 6273,
      "1000": 6274,
      "120": 6275,
      "26": 6276,
      "29": 6277,
      "32": 6278,
      "33": 6279,
      "30000": 6280,
      "43": 6281,
      "4ª": 6282,
      "400": 6283,
      "471": 6284,
      "58": 6285,
      "500": 6286,
      "5471": 6287,
      "60": 6288,
      "67": 6289,
      "75": 6290,
      "82": 6291,
      "800": 6292,
      "91": 6293,
      "ag": 6294,
      "aê": 6295,
      "anẽ": 6296,
      "awã": 6297,
      "amĩ": 6298,
      "akáx": 6299,
      "acha": 6300,
      "ari": 6301,
      "ate": 6302,
      "aéql": 6303,
      "ato": 6304,
      "añéx": 6305,
      "así": 6306,
      "améx": 6307,
      "amàx": 6308,
      "ape": 6309,
      "app": 6310,
      "ado": 6311,
      "aria": 6312,
      "aèqnã": 6313,
      "aúk": 6314,
      "aus": 6315,
      "amũ": 6316,
      "ave": 6317,
      "aèqr": 6318,
      "amáx": 6319,
      "ados": 6320,
      "apúx": 6321,
      "apû": 6322,
      "aël": 6323,
      "aia": 6324,
      "aura": 6325,
      "abéq": 6326,
      "ack": 6327,
      "amôx": 6328,
      "aùnẽ": 6329,
      "aéqk": 6330,
      "bã": 6331,
      "bó": 6332,
      "bô": 6333,
      "byòq": 6334,
      "bor": 6335,
      "bon": 6336,
      "bko": 6337,
      "bsẽ": 6338,
      "búr": 6339,
      "bble": 6340,
      "bókö": 6341,
      "btsùx": 6342,
      "byôq": 6343,
      "cm": 6344,
      "cr": 6345,
      "cà": 6346,
      "cî": 6347,
      "cka": 6348,
      "cki": 6349,
      "cur": 6350,
      "cue": 6351,
      "cti": 6352,
      "ctri": 6353,
      "clor": 6354,
      "ctr": 6355,
      "ctas": 6356,
      "clu": 6357,
      "cales": 6358,
      "cker": 6359,
      "c12": 6360,
      "ctan": 6361,
      "ctare": 6362,
      "cnico": 6363,
      "dc": 6364,
      "dd": 6365,
      "dl": 6366,
      "dba": 6367,
      "dulà": 6368,
      "dule": 6369,
      "déql": 6370,
      "dulâ": 6371,
      "dlô": 6372,
      "dís": 6373,
      "dlá": 6374,
      "dònẽ": 6375,
      "dkó": 6376,
      "dléq": 6377,
      "dge": 6378,
      "dèstsã": 6379,
      "ea": 6380,
      "ě": 6381,
      "eka": 6382,
      "eki": 6383,
      "erö": 6384,
      "eer": 6385,
      "ewe": 6386,
      "ejkë": 6387,
      "etöm": 6388,
      "eãt": 6389,
      "eas": 6390,
      "ele": 6391,
      "eper": 6392,
      "ema": 6393,
      "elor": 6394,
      "ekékã": 6395,
      "echó": 6396,
      "edia": 6397,
      "ekët": 6398,
      "episo": 6399,
      "ft": 6400,
      "fie": 6401,
      "fera": 6402,
      "fuer": 6403,
      "fút": 6404,
      "gj": 6405,
      "gro": 6406,
      "gue": 6407,
      "göö": 6408,
      "gru": 6409,
      "gres": 6410,
      "get": 6411,
      "gim": 6412,
      "garro": 6413,
      "galö": 6414,
      "géli": 6415,
      "hp": 6416,
      "hka": 6417,
      "hàx": 6418,
      "hök": 6419,
      "hor": 6420,
      "hon": 6421,
      "hue": 6422,
      "his": 6423,
      "ham": 6424,
      "hchál": 6425,
      "hpan": 6426,
      "harr": 6427,
      "hau": 6428,
      "héli": 6429,
      "il": 6430,
      "iy": 6431,
      "iê": 6432,
      "its": 6433,
      "itã": 6434,
      "ika": 6435,
      "iáx": 6436,
      "inẽ": 6437,
      "ikẽ": 6438,
      "ikö": 6439,
      "iàx": 6440,
      "ila": 6441,
      "iwö": 6442,
      "ikë": 6443,
      "ikòq": 6444,
      "iyi": 6445,
      "iéxn": 6446,
      "iar": 6447,
      "ikũéxkĩ": 6448,
      "iwẽ": 6449,
      "ipë": 6450,
      "iulà": 6451,
      "iñã": 6452,
      "ibak": 6453,
      "itóq": 6454,
      "iéql": 6455,
      "ikè": 6456,
      "ikóq": 6457,
      "ikì": 6458,
      "imíxk": 6459,
      "ipe": 6460,
      "ido": 6461,
      "iwóqkir": 6462,
      "iéwa": 6463,
      "ima": 6464,
      "iúk": 6465,
      "iàxnẽ": 6466,
      "iók": 6467,
      "itsök": 6468,
      "ikèke": 6469,
      "ique": 6470,
      "idòqmĩ": 6471,
      "iwèxkẽ": 6472,
      "ishkòqke": 6473,
      "imáx": 6474,
      "ikalé": 6475,
      "iyóqk": 6476,
      "itóqk": 6477,
      "iówã": 6478,
      "ikalóq": 6479,
      "iòqkewã": 6480,
      "itsũk": 6481,
      "iànẽ": 6482,
      "iph": 6483,
      "itske": 6484,
      "iànã": 6485,
      "iâũk": 6486,
      "itsõ": 6487,
      "iùxke": 6488,
      "iapàkök": 6489,
      "iânẽ": 6490,
      "ikèmĩ": 6491,
      "ikirèq": 6492,
      "ibert": 6493,
      "iajkáyërke": 6494,
      "idr": 6495,
      "ishkóqr": 6496,
      "iwéblö": 6497,
      "ishkòqwèxmĩ": 6498,
      "ikítule": 6499,
      "iser": 6500,
      "ikànã": 6501,
      "ikiàrpa": 6502,
      "ishkòqũ": 6503,
      "itémĩ": 6504,
      "iklóqwe": 6505,
      "ipáxrwã": 6506,
      "jp": 6507,
      "jul": 6508,
      "jkáx": 6509,
      "júx": 6510,
      "jcha": 6511,
      "jes": 6512,
      "jtè": 6513,
      "jtë": 6514,
      "jtsé": 6515,
      "jtsòq": 6516,
      "jko": 6517,
      "jkéq": 6518,
      "jtsa": 6519,
      "jók": 6520,
      "jtsök": 6521,
      "jchök": 6522,
      "jaìẽ": 6523,
      "jpé": 6524,
      "jtsö": 6525,
      "jchóqk": 6526,
      "jkuóq": 6527,
      "jtsër": 6528,
      "jnùx": 6529,
      "jpò": 6530,
      "jab": 6531,
      "janéxũ": 6532,
      "jpö": 6533,
      "jâxs": 6534,
      "jeros": 6535,
      "jtsóqkök": 6536,
      "jamàx": 6537,
      "km": 6538,
      "kt": 6539,
      "kῖ": 6540,
      "kör": 6541,
      "kirir": 6542,
      "kêq": 6543,
      "kmẽ": 6544,
      "kor": 6545,
      "kpá": 6546,
      "kbè": 6547,
      "kmõ": 6548,
      "kàxs": 6549,
      "kâr": 6550,
      "ksula": 6551,
      "kkrâ": 6552,
      "kówã": 6553,
      "kkul": 6554,
      "ktèkẽ": 6555,
      "ktéwã": 6556,
      "krô": 6557,
      "krá": 6558,
      "ktár": 6559,
      "kkãmã": 6560,
      "khar": 6561,
      "k̈̀": 6562,
      "lk": 6563,
      "lê": 6564,
      "lî": 6565,
      "lû": 6566,
      "lẽ": 6567,
      "lir": 6568,
      "líx": 6569,
      "lùx": 6570,
      "lwö": 6571,
      "luj": 6572,
      "ler": 6573,
      "lule": 6574,
      "lêx": 6575,
      "lèqr": 6576,
      "lés": 6577,
      "lònẽ": 6578,
      "lttö": 6579,
      "lvo": 6580,
      "lun": 6581,
      "lmõl": 6582,
      "lcán": 6583,
      "lulê": 6584,
      "lclor": 6585,
      "mp": 6586,
      "mö": 6587,
      "mul": 6588,
      "mẽnã": 6589,
      "micha": 6590,
      "mon": 6591,
      "mlĩ": 6592,
      "mêx": 6593,
      "msũ": 6594,
      "mpo": 6595,
      "mos": 6596,
      "mán": 6597,
      "muk": 6598,
      "mén": 6599,
      "mñàx": 6600,
      "mbërë": 6601,
      "mtkabë": 6602,
      "mîë": 6603,
      "mirador": 6604,
      "mbuála": 6605,
      "msãwẽmĩ": 6606,
      "nn": 6607,
      "nv": 6608,
      "ná": 6609,
      "ní": 6610,
      "nú": 6611,
      "ṉ": 6612,
      "nal": 6613,
      "níx": 6614,
      "ndi": 6615,
      "nda": 6616,
      "nóx": 6617,
      "ner": 6618,
      "nes": 6619,
      "nchi": 6620,
      "nàxnã": 6621,
      "ngo": 6622,
      "nuk": 6623,
      "nati": 6624,
      "nóxk": 6625,
      "nnûx": 6626,
      "nuc": 6627,
      "nìxñãk": 6628,
      "nyèqnãnã": 6629,
      "nmà": 6630,
      "oz": 6631,
      "oñ": 6632,
      "o̹": 6633,
      "oki": 6634,
      "ota": 6635,
      "our": 6636,
      "oööö": 6637,
      "pc": 6638,
      "pm": 6639,
      "pì": 6640,
      "péx": 6641,
      "pèx": 6642,
      "pbe": 6643,
      "pùx": 6644,
      "pök": 6645,
      "pĩã": 6646,
      "pâx": 6647,
      "pin": 6648,
      "pòqke": 6649,
      "pule": 6650,
      "pás": 6651,
      "ppá": 6652,
      "plo": 6653,
      "púxk": 6654,
      "palí": 6655,
      "pâr": 6656,
      "pàxnẽ": 6657,
      "pãl": 6658,
      "pros": 6659,
      "pònẽ": 6660,
      "pres": 6661,
      "pura": 6662,
      "palo": 6663,
      "plù": 6664,
      "pĩòx": 6665,
      "plás": 6666,
      "pèstsã": 6667,
      "rã": 6668,
      "rî": 6669,
      "rò": 6670,
      "ró": 6671,
      "rie": 6672,
      "rku": 6673,
      "ryö": 6674,
      "róqk": 6675,
      "rwak": 6676,
      "rét": 6677,
      "rbit": 6678,
      "rkè": 6679,
      "rpá": 6680,
      "rtsẽ": 6681,
      "rno": 6682,
      "rlur": 6683,
      "rìnẽ": 6684,
      "ruaa": 6685,
      "réwã": 6686,
      "rés": 6687,
      "rkèkã": 6688,
      "rbar": 6689,
      "rànẽ": 6690,
      "rrè": 6691,
      "rré": 6692,
      "ràmĩ": 6693,
      "rbê": 6694,
      "rlônẽ": 6695,
      "rrà": 6696,
      "r71": 6697,
      "rdànẽ": 6698,
      "rrôs": 6699,
      "sá": 6700,
      "sô": 6701,
      "sú": 6702,
      "sû": 6703,
      "sė": 6704,
      "s̀": 6705,
      "ś": 6706,
      "s̠": 6707,
      "sèq": 6708,
      "sóq": 6709,
      "skö": 6710,
      "sũk": 6711,
      "sër": 6712,
      "stke": 6713,
      "sás": 6714,
      "séqr": 6715,
      "ská": 6716,
      "sôq": 6717,
      "skì": 6718,
      "syàmĩ": 6719,
      "skua": 6720,
      "sue": 6721,
      "són": 6722,
      "súk": 6723,
      "skèke": 6724,
      "skíxmẽ": 6725,
      "skũèx": 6726,
      "skâ": 6727,
      "stka": 6728,
      "ster": 6729,
      "stkòqmĩ": 6730,
      "sàr": 6731,
      "sùnẽ": 6732,
      "salo": 6733,
      "swi": 6734,
      "sdòqkẽ": 6735,
      "súl": 6736,
      "swî": 6737,
      "skòqke": 6738,
      "sèql": 6739,
      "sóxr": 6740,
      "spri": 6741,
      "skalì": 6742,
      "sërër": 6743,
      "spòx": 6744,
      "smãs": 6745,
      "sbié": 6746,
      "sujte": 6747,
      "sbáyöm": 6748,
      "skûkicha": 6749,
      "sfera": 6750,
      "skówã": 6751,
      "slû": 6752,
      "sr71": 6753,
      "tv": 6754,
      "tä": 6755,
      "tî": 6756,
      "t̀": 6757,
      "tör": 6758,
      "tpa": 6759,
      "tìx": 6760,
      "tîx": 6761,
      "twö": 6762,
      "tta": 6763,
      "tto": 6764,
      "tio": 6765,
      "tbè": 6766,
      "talí": 6767,
      "tàxnẽ": 6768,
      "tĩẽ": 6769,
      "tĩùx": 6770,
      "tchà": 6771,
      "tien": 6772,
      "tlur": 6773,
      "túr": 6774,
      "tina": 6775,
      "tros": 6776,
      "téqrule": 6777,
      "ting": 6778,
      "tìnã": 6779,
      "tura": 6780,
      "thi": 6781,
      "tlí": 6782,
      "tèxnã": 6783,
      "túl": 6784,
      "tlë": 6785,
      "tirîrî": 6786,
      "téqrulewã": 6787,
      "tòxnã": 6788,
      "tcî": 6789,
      "uy": 6790,
      "uà": 6791,
      "ũ": 6792,
      "u̱": 6793,
      "ual": 6794,
      "utö": 6795,
      "usa": 6796,
      "uèkẽ": 6797,
      "uyà": 6798,
      "uya": 6799,
      "una": 6800,
      "utar": 6801,
      "uñĩ": 6802,
      "uyóqk": 6803,
      "ummm": 6804,
      "utos": 6805,
      "upuesto": 6806,
      "ustsé": 6807,
      "uffft": 6808,
      "uchí": 6809,
      "uido": 6810,
      "ví": 6811,
      "vir": 6812,
      "ven": 6813,
      "vis": 6814,
      "vina": 6815,
      "vcr": 6816,
      "ws": 6817,
      "wü": 6818,
      "wal": 6819,
      "wêx": 6820,
      "wèqr": 6821,
      "wíẽ": 6822,
      "wóie": 6823,
      "xis": 6824,
      "ys": 6825,
      "yâ": 6826,
      "yã": 6827,
      "yõ": 6828,
      "yù": 6829,
      "yak": 6830,
      "yét": 6831,
      "yalê": 6832,
      "yâr": 6833,
      "ywo": 6834,
      "ỳa": 6835,
      "yirîrî": 6836,
      "yróq": 6837,
      "ynn": 6838,
      "zan": 6839,
      "ài": 6840,
      "àà": 6841,
      "àki": 6842,
      "àköl": 6843,
      "àba": 6844,
      "ànèx": 6845,
      "àta": 6846,
      "àtsã": 6847,
      "àmĩk": 6848,
      "ànũk": 6849,
      "àsu": 6850,
      "àwí": 6851,
      "ànõkè": 6852,
      "àgali": 6853,
      "àià": 6854,
      "àbon": 6855,
      "áj": 6856,
      "áka": 6857,
      "ámĩ": 6858,
      "ákũ": 6859,
      "áli": 6860,
      "átke": 6861,
      "átsã": 6862,
      "átkóqk": 6863,
      "ákali": 6864,
      "áshkal": 6865,
      "ásule": 6866,
      "átwö": 6867,
      "âir": 6868,
      "ârke": 6869,
      "âwẽ": 6870,
      "âãt": 6871,
      "ârë": 6872,
      "âali": 6873,
      "âtkö": 6874,
      "ânãmẽ": 6875,
      "âbaw": 6876,
      "âstka": 6877,
      "ãr": 6878,
      "ãs": 6879,
      "ãú": 6880,
      "ãkĩ": 6881,
      "ãkã": 6882,
      "ãla": 6883,
      "ãtke": 6884,
      "ãnĩ": 6885,
      "ãlĩ": 6886,
      "ãmóx": 6887,
      "ãmíxk": 6888,
      "ãmũ": 6889,
      "ãmôx": 6890,
      "ãñîx": 6891,
      "ãtkéwã": 6892,
      "ãmãnéxrmĩ": 6893,
      "ãñúxk": 6894,
      "ãmí": 6895,
      "ãkîxë": 6896,
      "åki": 6897,
      "èki": 6898,
      "èkã": 6899,
      "èla": 6900,
      "èsi": 6901,
      "èkë": 6902,
      "èkal": 6903,
      "èĩã": 6904,
      "ètke": 6905,
      "ètër": 6906,
      "èra": 6907,
      "ètkö": 6908,
      "èble": 6909,
      "èjke": 6910,
      "èwèxkã": 6911,
      "ènuk": 6912,
      "ékĩ": 6913,
      "éla": 6914,
      "éwö": 6915,
      "ékal": 6916,
      "étsi": 6917,
      "étöm": 6918,
      "ére": 6919,
      "éãt": 6920,
      "érak": 6921,
      "étkë": 6922,
      "éwë": 6923,
      "éjke": 6924,
      "ékla": 6925,
      "ékkë": 6926,
      "érica": 6927,
      "édale": 6928,
      "éctri": 6929,
      "êë": 6930,
      "êwã": 6931,
      "êkö": 6932,
      "êla": 6933,
      "êyök": 6934,
      "êjkë": 6935,
      "êtöm": 6936,
      "êre": 6937,
      "êtkë": 6938,
      "ênĩk": 6939,
      "êkapë": 6940,
      "êtokicha": 6941,
      "êrê": 6942,
      "êréq": 6943,
      "ëtã": 6944,
      "ëköl": 6945,
      "ëtke": 6946,
      "ëga": 6947,
      "ëeee": 6948,
      "ìì": 6949,
      "ìtã": 6950,
      "ìie": 6951,
      "ìla": 6952,
      "ìyi": 6953,
      "ìnũk": 6954,
      "ìalê": 6955,
      "ìtul": 6956,
      "ìtsĩ": 6957,
      "ìuaa": 6958,
      "ìkòqke": 6959,
      "ìkkë": 6960,
      "ìtali": 6961,
      "ìlanõkè": 6962,
      "ìskuök": 6963,
      "ìtiàli": 6964,
      "ìjp": 6965,
      "ínẽ": 6966,
      "íwa": 6967,
      "íla": 6968,
      "íwẽ": 6969,
      "íñã": 6970,
      "íule": 6971,
      "íra": 6972,
      "ísha": 6973,
      "íru": 6974,
      "íjke": 6975,
      "ítola": 6976,
      "ítule": 6977,
      "ídas": 6978,
      "íjchál": 6979,
      "ímã": 6980,
      "íjkéq": 6981,
      "îs": 6982,
      "îã": 6983,
      "îsh": 6984,
      "îbi": 6985,
      "îñẽ": 6986,
      "îes": 6987,
      "îwẽ": 6988,
      "îrë": 6989,
      "îabe": 6990,
      "îèqkã": 6991,
      "îlila": 6992,
      "îlî": 6993,
      "ñá": 6994,
      "ñé": 6995,
      "ñ̀": 6996,
      "ñúx": 6997,
      "ñòx": 6998,
      "ñala": 6999,
      "ñèẽ": 7000,
      "ñâxã": 7001,
      "ñùxk": 7002,
      "òie": 7003,
      "òwã": 7004,
      "òmĩ": 7005,
      "òköl": 7006,
      "òrkẽ": 7007,
      "òmĩk": 7008,
      "òlo": 7009,
      "òkóx": 7010,
      "òkẽwã": 7011,
      "òlò": 7012,
      "òkãmã": 7013,
      "òrò": 7014,
      "óka": 7015,
      "ówa": 7016,
      "ómĩ": 7017,
      "ókã": 7018,
      "óla": 7019,
      "óũk": 7020,
      "ómĩk": 7021,
      "ókicha": 7022,
      "ópi": 7023,
      "óklö": 7024,
      "ógen": 7025,
      "ówêqñẽ": 7026,
      "óswak": 7027,
      "ôa": 7028,
      "ôk": 7029,
      "ôka": 7030,
      "ônẽ": 7031,
      "ôyö": 7032,
      "ôwẽ": 7033,
      "ôkicha": 7034,
      "ôbata": 7035,
      "ôyaro": 7036,
      "ôbô": 7037,
      "õõ": 7038,
      "õwa": 7039,
      "õmóx": 7040,
      "õnõ": 7041,
      "õmõ": 7042,
      "õrmĩ": 7043,
      "õdalèqnã": 7044,
      "õdalèqr": 7045,
      "öl": 7046,
      "öwa": 7047,
      "ökö": 7048,
      "öaa": 7049,
      "öbatsé": 7050,
      "ölök": 7051,
      "öbôq": 7052,
      "ömĩtsẽ": 7053,
      "ölpa": 7054,
      "ùi": 7055,
      "ùkẽ": 7056,
      "ùte": 7057,
      "ùrkẽ": 7058,
      "ùjkuö": 7059,
      "ùtu": 7060,
      "ùtkö": 7061,
      "ùlur": 7062,
      "ùtsì": 7063,
      "ùjkẽ": 7064,
      "ùñãk": 7065,
      "ùblu": 7066,
      "ùyawòq": 7067,
      "ùpámĩk": 7068,
      "ùtákla": 7069,
      "ùbaliwak": 7070,
      "ùjkóq": 7071,
      "ùrú": 7072,
      "ùtànã": 7073,
      "ùlwö": 7074,
      "úi": 7075,
      "úyök": 7076,
      "úbali": 7077,
      "únẽkã": 7078,
      "útule": 7079,
      "úshba": 7080,
      "único": 7081,
      "únyèqnãnã": 7082,
      "ûnã": 7083,
      "ûũk": 7084,
      "ûyök": 7085,
      "ûru": 7086,
      "ûulat": 7087,
      "ûaũk": 7088,
      "ĩe": 7089,
      "ĩĩ": 7090,
      "ĩnã": 7091,
      "ĩóx": 7092,
      "ĩwẽ": 7093,
      "ĩpe": 7094,
      "ĩnéx": 7095,
      "ĩwĩ": 7096,
      "ĩáxtke": 7097,
      "ĩìxr": 7098,
      "ĩmĩrak": 7099,
      "ĩwéxwã": 7100,
      "ĩóxk": 7101,
      "ĩmĩkẽ": 7102,
      "ĩmìxneshka": 7103,
      "ĩìxnẽ": 7104,
      "ĩènuk": 7105,
      "ĩñ̀": 7106,
      "īyi": 7107,
      "ũke": 7108,
      "ũka": 7109,
      "ũkã": 7110,
      "ũyö": 7111,
      "ũñẽ": 7112,
      "ũrkẽ": 7113,
      "ũshùx": 7114,
      "ũshka": 7115,
      "ũwíx": 7116,
      "ũnéx": 7117,
      "ũñèxke": 7118,
      "ũñũk": 7119,
      "ũéxk": 7120,
      "ũwẽwa": 7121,
      "̀i": 7122,
      "̀t": 7123,
      "̀kë": 7124,
      "̀wẽ": 7125,
      "̀blapa": 7126,
      "́k": 7127,
      "́ta": 7128,
      "́ria": 7129,
      "̂kela": 7130,
      "̂böt": 7131,
      "̂rî": 7132,
      "̃ie": 7133,
      "̃ke": 7134,
      "̃la": 7135,
      "̃wéx": 7136,
      "̃ni": 7137,
      "̈k": 7138,
      "̈köl": 7139,
      "̈si": 7140,
      "̈wak": 7141,
      "̈nãmã": 7142,
      "̈̂böt": 7143,
      "̏kẽ": 7144,
      "̜l": 7145,
      "̜r": 7146,
      "̠e": 7147,
      "̠k": 7148,
      "̠m": 7149,
      "̠s": 7150,
      "̠wö": 7151,
      "̠rkẽ": 7152,
      "̹wã": 7153,
      "ẽm": 7154,
      "ẽã": 7155,
      "ẽũ": 7156,
      "ẽnẽ": 7157,
      "ẽpà": 7158,
      "ẽmẽ": 7159,
      "ẽtsóx": 7160,
      "tsò": 7161,
      "tsó": 7162,
      "tsũ": 7163,
      "tsul": 7164,
      "tswòq": 7165,
      "tsâx": 7166,
      "tsúk": 7167,
      "tsàxnẽ": 7168,
      "tsàxnã": 7169,
      "tsulí": 7170,
      "tsùxkẽ": 7171,
      "tsùxk": 7172,
      "tsbôq": 7173,
      "tskinã": 7174,
      "tsalíx": 7175,
      "tsîrë": 7176,
      "òqpa": 7177,
      "òqwã": 7178,
      "òqki": 7179,
      "òqkã": 7180,
      "òqyèq": 7181,
      "òqtakiaa": 7182,
      "tãî": 7183,
      "tãũ": 7184,
      "tãie": 7185,
      "tãnã": 7186,
      "tãmíx": 7187,
      "tãtke": 7188,
      "tãwé": 7189,
      "tãmùx": 7190,
      "tãmàx": 7191,
      "tãwõ": 7192,
      "tãmúx": 7193,
      "tãwãr": 7194,
      "tãlárke": 7195,
      "ies": 7196,
      "ieke": 7197,
      "iepa": 7198,
      "iela": 7199,
      "ietke": 7200,
      "ienãkã": 7201,
      "iedule": 7202,
      "èqtã": 7203,
      "èqbal": 7204,
      "èqrke": 7205,
      "èqnũk": 7206,
      "èqtãnẽ": 7207,
      "èqbitũ": 7208,
      "èqna": 7209,
      "èqrpa": 7210,
      "èquaa": 7211,
      "yeke": 7212,
      "yeta": 7213,
      "yerâwã": 7214,
      "chë": 7215,
      "chù": 7216,
      "chîx": 7217,
      "chéql": 7218,
      "chto": 7219,
      "chũl": 7220,
      "chkela": 7221,
      "chos": 7222,
      "chík": 7223,
      "chûx": 7224,
      "chkala": 7225,
      "chale": 7226,
      "chéqrule": 7227,
      "chôë": 7228,
      "chkèkẽ": 7229,
      "chãmúx": 7230,
      "chöròq": 7231,
      "chêke": 7232,
      "chrit": 7233,
      "chlẽ": 7234,
      "alé": 7235,
      "alẽ": 7236,
      "aléq": 7237,
      "alba": 7238,
      "alor": 7239,
      "alto": 7240,
      "alòqk": 7241,
      "alòqkẽ": 7242,
      "alèqr": 7243,
      "alìnẽ": 7244,
      "alfon": 7245,
      "aléka": 7246,
      "alùnã": 7247,
      "aléi": 7248,
      "alberto": 7249,
      "alâir": 7250,
      "alåki": 7251,
      "éxkĩ": 7252,
      "éxyö": 7253,
      "éxũk": 7254,
      "éxdal": 7255,
      "éxrkẽ": 7256,
      "éxtsã": 7257,
      "éxjkë": 7258,
      "éxjkuö": 7259,
      "éxtsẽ": 7260,
      "éxtkòq": 7261,
      "éxtkö": 7262,
      "éxstsã": 7263,
      "éxñũk": 7264,
      "éxnèxnẽ": 7265,
      "éxjkèxë": 7266,
      "éxkĩ": 7267,
      "éxñìxnẽ": 7268,
      "kekã": 7269,
      "ketër": 7270,
      "ketkè": 7271,
      "keeper": 7272,
      "örö": 7273,
      "örie": 7274,
      "öréq": 7275,
      "töwa": 7276,
      "töwö": 7277,
      "tököl": 7278,
      "töũk": 7279,
      "töwẽ": 7280,
      "töwe": 7281,
      "töwéxkã": 7282,
      "èxn": 7283,
      "èxo": 7284,
      "èxö": 7285,
      "èxèq": 7286,
      "èxmã": 7287,
      "èxòx": 7288,
      "èxchi": 7289,
      "èxnĩ": 7290,
      "èxnũk": 7291,
      "èxnúx": 7292,
      "èxrpa": 7293,
      "èxwẽwa": 7294,
      "èxikë": 7295,
      "ulu": 7296,
      "ulèq": 7297,
      "uléx": 7298,
      "ulìx": 7299,
      "ulis": 7300,
      "ulís": 7301,
      "ulãã": 7302,
      "uléka": 7303,
      "uléi": 7304,
      "ulawẽ": 7305,
      "uls̀": 7306,
      "ulétsi": 7307,
      "óqie": 7308,
      "óqwa": 7309,
      "óqnã": 7310,
      "óqñã": 7311,
      "óqyök": 7312,
      "óqbö": 7313,
      "óqkök": 7314,
      "óqnãmẽ": 7315,
      "óqbôq": 7316,
      "óqmbla": 7317,
      "katã": 7318,
      "kapa": 7319,
      "kabe": 7320,
      "kakũ": 7321,
      "kabò": 7322,
      "kakòx": 7323,
      "kanéx": 7324,
      "kachà": 7325,
      "kakóqt": 7326,
      "kachâ": 7327,
      "kakuâ": 7328,
      "kabagra": 7329,
      "kanò": 7330,
      "kaiser": 7331,
      "kamsãwẽmĩ": 7332,
      "kanìxñãk": 7333,
      "kèqtã": 7334,
      "kèqie": 7335,
      "kèqta": 7336,
      "kèqchkepa": 7337,
      "kèqpatã": 7338,
      "kèqeee": 7339,
      "kèqëeee": 7340,
      "éqse": 7341,
      "éqkö": 7342,
      "éqwö": 7343,
      "éqan": 7344,
      "éqme": 7345,
      "éqkalö": 7346,
      "éqtokicha": 7347,
      "éqkalo": 7348,
      "éqbalòqkẽ": 7349,
      "éqrkewã": 7350,
      "éqshtë": 7351,
      "paa": 7352,
      "pake": 7353,
      "papa": 7354,
      "panẽ": 7355,
      "pawã": 7356,
      "pawèxke": 7357,
      "pato": 7358,
      "para": 7359,
      "paãt": 7360,
      "pashka": 7361,
      "patsë": 7362,
      "patro": 7363,
      "payóqrule": 7364,
      "pack": 7365,
      "paña": 7366,
      "paúl": 7367,
      "paũkmĩ": 7368,
      "pablo": 7369,
      "pacita": 7370,
      "paklöwẽ": 7371,
      "patio": 7372,
      "áxk": 7373,
      "áxs": 7374,
      "áxtã": 7375,
      "áxwéx": 7376,
      "áxri": 7377,
      "áxrke": 7378,
      "áxñìx": 7379,
      "áxnũk": 7380,
      "áxrmĩ": 7381,
      "áxwã": 7382,
      "áxtkéwã": 7383,
      "áxrkewã": 7384,
      "nẽwa": 7385,
      "nẽla": 7386,
      "nẽwẽ": 7387,
      "nẽtke": 7388,
      "nẽbak": 7389,
      "nẽméx": 7390,
      "nẽrlor": 7391,
      "nẽtkla": 7392,
      "waie": 7393,
      "waku": 7394,
      "wañẽ": 7395,
      "watãwéx": 7396,
      "watkök": 7397,
      "watkéx": 7398,
      "wänãmã": 7399,
      "ses": 7400,
      "seie": 7401,
      "sede": 7402,
      "secu": 7403,
      "seph": 7404,
      "sewèq": 7405,
      "nãi": 7406,
      "nãwa": 7407,
      "nãìx": 7408,
      "nãrke": 7409,
      "nãĩã": 7410,
      "nãtsã": 7411,
      "nãmèx": 7412,
      "nãrmĩ": 7413,
      "nãmúx": 7414,
      "nãñèxẽ": 7415,
      "nãnũ": 7416,
      "nãwĩ": 7417,
      "nãmũlẽ": 7418,
      "nãìtali": 7419,
      "kĩèq": 7420,
      "kĩìx": 7421,
      "kĩte": 7422,
      "kĩmèx": 7423,
      "kĩtë": 7424,
      "kĩmõ": 7425,
      "kĩmúx": 7426,
      "kĩmũk": 7427,
      "kĩme": 7428,
      "kĩèxkẽ": 7429,
      "kĩmer": 7430,
      "kĩchicha": 7431,
      "wãk": 7432,
      "wãnẽ": 7433,
      "wãwã": 7434,
      "wãku": 7435,
      "wãrak": 7436,
      "wãmi": 7437,
      "wãrla": 7438,
      "wãkwa": 7439,
      "bebè": 7440,
      "beig": 7441,
      "betes": 7442,
      "beitsök": 7443,
      "irkẽ": 7444,
      "irër": 7445,
      "irtse": 7446,
      "irish": 7447,
      "iria": 7448,
      "irlan": 7449,
      "irkewã": 7450,
      "irîsh": 7451,
      "ir̂rî": 7452,
      "iréqkö": 7453,
      "shèq": 7454,
      "shkĩ": 7455,
      "shóqk": 7456,
      "shkà": 7457,
      "shwak": 7458,
      "sher": 7459,
      "shto": 7460,
      "shkar": 7461,
      "shmàx": 7462,
      "shòqk": 7463,
      "shmũl": 7464,
      "shalàr": 7465,
      "shûx": 7466,
      "shkala": 7467,
      "shtar": 7468,
      "shuk": 7469,
      "shmo": 7470,
      "shalë": 7471,
      "shkàr": 7472,
      "shklé": 7473,
      "sháwö": 7474,
      "shìr": 7475,
      "shìtiàli": 7476,
      "shûulat": 7477,
      "shulèq": 7478,
      "shiréqkö": 7479,
      "ìxã": 7480,
      "ìxẽ": 7481,
      "ìxñẽ": 7482,
      "ìxëkã": 7483,
      "ìxnãka": 7484,
      "ìxnãwĩ": 7485,
      "mĩwö": 7486,
      "mĩkë": 7487,
      "mĩkl": 7488,
      "mĩne": 7489,
      "mĩyal": 7490,
      "mĩkalé": 7491,
      "mĩmãlẽ": 7492,
      "mĩlíxs": 7493,
      "mĩś": 7494,
      "mĩátke": 7495,
      "káxa": 7496,
      "káxka": 7497,
      "káxbi": 7498,
      "káxũk": 7499,
      "káxkòq": 7500,
      "káxjkuö": 7501,
      "káxchak": 7502,
      "káxblë": 7503,
      "káxtök": 7504,
      "káxko": 7505,
      "káxchka": 7506,
      "káxmũl": 7507,
      "káxpàkök": 7508,
      "káxkò": 7509,
      "káxbalë": 7510,
      "káxñãk": 7511,
      "káxchaka": 7512,
      "káxttö": 7513,
      "káxrkĩ": 7514,
      "káxmũlẽ": 7515,
      "káxsháxböts": 7516,
      "káxjku": 7517,
      "káxjkèxë": 7518,
      "káxjkué": 7519,
      "káxapàka": 7520,
      "káxikẽ": 7521,
      "káxjtè": 7522,
      "káxkàxs": 7523,
      "káxwañẽ": 7524,
      "awì": 7525,
      "awö": 7526,
      "awéx": 7527,
      "awák": 7528,
      "awàlia": 7529,
      "awèxkẽ": 7530,
      "awèxnẽ": 7531,
      "awéi": 7532,
      "awéxwã": 7533,
      "awèxke": 7534,
      "awìxëkã": 7535,
      "kit": 7536,
      "kitö": 7537,
      "kità": 7538,
      "kipë": 7539,
      "kitèke": 7540,
      "kipé": 7541,
      "kichòq": 7542,
      "kiówã": 7543,
      "kitéq": 7544,
      "kibë": 7545,
      "kiékã": 7546,
      "kichôq": 7547,
      "king": 7548,
      "kitèkũ": 7549,
      "kicka": 7550,
      "kãla": 7551,
      "kãmẽ": 7552,
      "kãtke": 7553,
      "kãlĩ": 7554,
      "kãtu": 7555,
      "kãjkêx": 7556,
      "kãkmẽ": 7557,
      "kãmîë": 7558,
      "íxk": 7559,
      "íxt": 7560,
      "íxwéx": 7561,
      "íxkë": 7562,
      "íxwẽ": 7563,
      "íxyök": 7564,
      "íxtsã": 7565,
      "íxnĩ": 7566,
      "íxchu": 7567,
      "íxñìxköl": 7568,
      "kuk": 7569,
      "kuã": 7570,
      "kuó": 7571,
      "kuke": 7572,
      "kuáx": 7573,
      "kukẽ": 7574,
      "kukö": 7575,
      "kukũ": 7576,
      "kuyök": 7577,
      "kuio": 7578,
      "kuko": 7579,
      "kukula": 7580,
      "kukul": 7581,
      "kuchéq": 7582,
      "kukuè": 7583,
      "kukué": 7584,
      "kutú": 7585,
      "kukúr": 7586,
      "kuìwak": 7587,
      "kuyèqr": 7588,
      "kük": 7589,
      "kuéxkĩ": 7590,
      "kukuó": 7591,
      "burke": 7592,
      "bukuö": 7593,
      "buen": 7594,
      "butsóq": 7595,
      "bukóqk": 7596,
      "butr": 7597,
      "bukule": 7598,
      "bukichö": 7599,
      "buffalo": 7600,
      "butsãka": 7601,
      "buélor": 7602,
      "bunal": 7603,
      "butúr": 7604,
      "buékal": 7605,
      "buíru": 7606,
      "butsàxnã": 7607,
      "tkie": 7608,
      "tktöm": 7609,
      "tkôq": 7610,
      "tkòqk": 7611,
      "tkîr": 7612,
      "tkéwa": 7613,
      "tkéqltë": 7614,
      "tkéqrule": 7615,
      "tkéxr": 7616,
      "tkìnã": 7617,
      "tkír": 7618,
      "tksìnã": 7619,
      "tkôqũk": 7620,
      "tklé": 7621,
      "tkíã": 7622,
      "tkêxk": 7623,
      "tkênĩk": 7624,
      "tkũwẽwa": 7625,
      "tkörö": 7626,
      "tkèxikë": 7627,
      "kẽs": 7628,
      "kẽãt": 7629,
      "kẽrak": 7630,
      "kẽmãlẽ": 7631,
      "kẽkkrâ": 7632,
      "kẽrlur": 7633,
      "köka": 7634,
      "köyök": 7635,
      "köchi": 7636,
      "köbika": 7637,
      "àxta": 7638,
      "àxte": 7639,
      "àxtke": 7640,
      "àxnũk": 7641,
      "àxtãnẽ": 7642,
      "àxrmĩ": 7643,
      "àxne": 7644,
      "àxlà": 7645,
      "àxlaba": 7646,
      "àxtpa": 7647,
      "sawak": 7648,
      "saké": 7649,
      "sakú": 7650,
      "sakuè": 7651,
      "sakèkẽ": 7652,
      "satèq": 7653,
      "sakûkicha": 7654,
      "saîabe": 7655,
      "sãwéx": 7656,
      "akê": 7657,
      "akbl": 7658,
      "akcha": 7659,
      "akâũk": 7660,
      "ak̀a": 7661,
      "akalóqknãmẽ": 7662,
      "akóqyök": 7663,
      "akwaie": 7664,
      "ùxka": 7665,
      "ùxnẽ": 7666,
      "ùxwa": 7667,
      "ùxwã": 7668,
      "ùxmĩ": 7669,
      "ùxkã": 7670,
      "ùxla": 7671,
      "ùxyö": 7672,
      "ùxrkẽ": 7673,
      "ùxtẽ": 7674,
      "ùxdiòq": 7675,
      "ùxrpa": 7676,
      "ùxalòqke": 7677,
      "ùxalóqknãmẽ": 7678,
      "ùxnẽmĩ": 7679,
      "ùxjúx": 7680,
      "dii": 7681,
      "dim": 7682,
      "dió": 7683,
      "dipa": 7684,
      "diba": 7685,
      "dicha": 7686,
      "dica": 7687,
      "dici": 7688,
      "diká": 7689,
      "dina": 7690,
      "dijkö": 7691,
      "dill": 7692,
      "diár": 7693,
      "dist": 7694,
      "dipâ": 7695,
      "diga": 7696,
      "diapa": 7697,
      "disti": 7698,
      "diâũk": 7699,
      "dindî": 7700,
      "ding": 7701,
      "diwóqsãwõ": 7702,
      "dinãmũ": 7703,
      "dictas": 7704,
      "dibetes": 7705,
      "mãk": 7706,
      "mãmã": 7707,
      "mãúx": 7708,
      "mãlĩ": 7709,
      "mãùxkẽ": 7710,
      "mãùxke": 7711,
      "mãwéxwã": 7712,
      "mãnîxnîx": 7713,
      "mãmĩtke": 7714,
      "mãòxrule": 7715,
      "mãnẽwẽ": 7716,
      "buaũ": 7717,
      "buaòxkule": 7718,
      "buambuála": 7719,
      "wèxdi": 7720,
      "wèxkë": 7721,
      "wèxri": 7722,
      "wèxñẽ": 7723,
      "wèxĩã": 7724,
      "wèxde": 7725,
      "wèxwãmĩ": 7726,
      "wèxwamĩ": 7727,
      "wèxkènẽ": 7728,
      "îxnẽ": 7729,
      "îxñã": 7730,
      "îxlîx": 7731,
      "îxñe": 7732,
      "kũn": 7733,
      "kũwa": 7734,
      "kũnã": 7735,
      "kũwéx": 7736,
      "kũèkẽ": 7737,
      "kũrkẽ": 7738,
      "kũlĩ": 7739,
      "kũrmĩ": 7740,
      "kũiã": 7741,
      "kũkèkẽ": 7742,
      "kũeki": 7743,
      "kũãkîxë": 7744,
      "kũékĩ": 7745,
      "laa": 7746,
      "lakã": 7747,
      "laköl": 7748,
      "lata": 7749,
      "lari": 7750,
      "laël": 7751,
      "lagu": 7752,
      "lairö": 7753,
      "lactan": 7754,
      "laèqtã": 7755,
      "lakapa": 7756,
      "wéxpa": 7757,
      "wéxër": 7758,
      "wéxtke": 7759,
      "wéxtsã": 7760,
      "wéxbalök": 7761,
      "wéxët": 7762,
      "wéxël": 7763,
      "wéxmãlẽ": 7764,
      "wéxbròq": 7765,
      "wéxaie": 7766,
      "wéxdök": 7767,
      "wéxléx": 7768,
      "wéxũka": 7769,
      "wéxalẽ": 7770,
      "úxye": 7771,
      "úxlo": 7772,
      "úxtké": 7773,
      "úxyèke": 7774,
      "úxalòq": 7775,
      "úxyan": 7776,
      "úxrdâ": 7777,
      "úxmbla": 7778,
      "yöpa": 7779,
      "óqknẽ": 7780,
      "óqkwa": 7781,
      "óqkbla": 7782,
      "óqktkö": 7783,
      "óqkchö": 7784,
      "ichá": 7785,
      "ichóq": 7786,
      "ichök": 7787,
      "ichák": 7788,
      "ichar": 7789,
      "ichala": 7790,
      "ichòqk": 7791,
      "ichâk": 7792,
      "ich̀a": 7793,
      "ichikie": 7794,
      "icho̹": 7795,
      "wöé": 7796,
      "wöba": 7797,
      "wöalà": 7798,
      "wöala": 7799,
      "wöalá": 7800,
      "wöula": 7801,
      "wöti": 7802,
      "wöbala": 7803,
      "wölà": 7804,
      "wölá": 7805,
      "wömìxr": 7806,
      "wöchaka": 7807,
      "wökû": 7808,
      "wöaka": 7809,
      "wöyawö": 7810,
      "wöiké": 7811,
      "wölöm": 7812,
      "wöjtsêqka": 7813,
      "wöjtsé": 7814,
      "wöũñèxke": 7815,
      "wòqkö": 7816,
      "wòqök": 7817,
      "wòqri": 7818,
      "wòqñẽ": 7819,
      "wòqan": 7820,
      "wòqwẽ": 7821,
      "wòqkl": 7822,
      "wòqkalòq": 7823,
      "wòqbak": 7824,
      "wòqtè": 7825,
      "wòqsts": 7826,
      "wòqjkuö": 7827,
      "wòqsí": 7828,
      "wòqulâ": 7829,
      "wòqkök": 7830,
      "wòqmõ": 7831,
      "wòqtsè": 7832,
      "wòqat": 7833,
      "wòqyë": 7834,
      "wòqyawóqk": 7835,
      "wòqtök": 7836,
      "wòqtkòq": 7837,
      "wòqbá": 7838,
      "wòqâr": 7839,
      "wòqñáx": 7840,
      "wòqsì": 7841,
      "wòqkue": 7842,
      "wòqwì": 7843,
      "wòqyèqnã": 7844,
      "wòqtkóq": 7845,
      "wòqblö": 7846,
      "wòqyòqnã": 7847,
      "wòqyóqrke": 7848,
      "wòqtĩ": 7849,
      "wòqtsule": 7850,
      "wòqtèwã": 7851,
      "wòqbur": 7852,
      "wòqkèkã": 7853,
      "wòqjkue": 7854,
      "wòqkalôq": 7855,
      "wòqyör": 7856,
      "wòqkata": 7857,
      "wòqklö": 7858,
      "wòqtéwã": 7859,
      "wòqshtök": 7860,
      "wòqshkí": 7861,
      "wòqtkèmĩ": 7862,
      "wòqãn": 7863,
      "wòqtsõ": 7864,
      "wòqit": 7865,
      "wòqrkua": 7866,
      "wòqtèqnẽ": 7867,
      "wòqshtóq": 7868,
      "wòqdiö": 7869,
      "wòqklòqwèxke": 7870,
      "wòqshkít": 7871,
      "wòqânã": 7872,
      "wòqdiche": 7873,
      "wòqyèqnãnã": 7874,
      "wòqióqkwã": 7875,
      "wòqshõ": 7876,
      "wòqkũèxke": 7877,
      "wòqñõr": 7878,
      "wòqjtsóqkök": 7879,
      "wòqtĩùx": 7880,
      "wòqywo": 7881,
      "wòqârke": 7882,
      "wòqìtul": 7883,
      "wòqöwa": 7884,
      "wòqĩóxk": 7885,
      "wòqchto": 7886,
      "wòqtöwa": 7887,
      "wòqóqwa": 7888,
      "wòqtkũwẽwa": 7889,
      "wòqakcha": 7890,
      "wòqmãùxkẽ": 7891,
      "wòqkũrmĩ": 7892,
      "bis": 7893,
      "bióq": 7894,
      "bikà": 7895,
      "bikë": 7896,
      "bièke": 7897,
      "biar": 7898,
      "bili": 7899,
      "biyóq": 7900,
      "bikök": 7901,
      "bitsè": 7902,
      "biko": 7903,
      "bigo": 7904,
      "bitsök": 7905,
      "bikèke": 7906,
      "bièmĩ": 7907,
      "bisó": 7908,
      "bisãwẽ": 7909,
      "bikèwã": 7910,
      "bikalö": 7911,
      "bióqknãmẽ": 7912,
      "bical": 7913,
      "biót": 7914,
      "bitséwã": 7915,
      "bikalâ": 7916,
      "biéstsã": 7917,
      "bigöö": 7918,
      "biàtsã": 7919,
      "biátsã": 7920,
      "daki": 7921,
      "data": 7922,
      "danĩ": 7923,
      "dara": 7924,
      "dare": 7925,
      "datsẽ": 7926,
      "dama": 7927,
      "dapéq": 7928,
      "dakuèq": 7929,
      "daót": 7930,
      "danò": 7931,
      "datsù": 7932,
      "dayéqla": 7933,
      "datâũk": 7934,
      "dabókö": 7935,
      "dapalí": 7936,
      "days": 7937,
      "dakuã": 7938,
      "kàkã": 7939,
      "kàba": 7940,
      "kàñã": 7941,
      "kànũk": 7942,
      "kàbà": 7943,
      "kàblë": 7944,
      "kàtkèq": 7945,
      "kàtak": 7946,
      "kàbalë": 7947,
      "kàble": 7948,
      "kàbale": 7949,
      "kàchóq": 7950,
      "kànãkã": 7951,
      "kàsie": 7952,
      "kànũnã": 7953,
      "kànùxnã": 7954,
      "kàiwö": 7955,
      "kàmsũ": 7956,
      "költe": 7957,
      "kölska": 7958,
      "sio": 7959,
      "siè": 7960,
      "sila": 7961,
      "sita": 7962,
      "sibö": 7963,
      "sibèq": 7964,
      "side": 7965,
      "sibí": 7966,
      "siti": 7967,
      "siwèkẽ": 7968,
      "sinàx": 7969,
      "sibir": 7970,
      "sibû": 7971,
      "sibáyöm": 7972,
      "sicales": 7973,
      "simp": 7974,
      "siàköl": 7975,
      "sĩni": 7976,
      "siàxlà": 7977,
      "bake": 7978,
      "baka": 7979,
      "barö": 7980,
      "baro": 7981,
      "babò": 7982,
      "batsẽ": 7983,
      "batsa": 7984,
      "batô": 7985,
      "batsòqke": 7986,
      "batsu": 7987,
      "basãwẽ": 7988,
      "batsúx": 7989,
      "batsèmĩ": 7990,
      "bayo": 7991,
      "barûrû": 7992,
      "batsóqkök": 7993,
      "mìxa": 7994,
      "mìxpa": 7995,
      "mìxkẽ": 7996,
      "mìxãt": 7997,
      "mìxshka": 7998,
      "mìxrkã": 7999,
      "mìxnĩã": 8000,
      "mìxchke": 8001,
      "mìxppa": 8002,
      "mìxã": 8003,
      "mìxchake": 8004,
      "mìxkẽwã": 8005,
      "mìxtkènẽ": 8006,
      "mìxẽã": 8007,
      "ũkkwa": 8008,
      "pàsi": 8009,
      "pàta": 8010,
      "pàmĩk": 8011,
      "pàkè": 8012,
      "pàjkuö": 8013,
      "pàblë": 8014,
      "pàsku": 8015,
      "pàlö": 8016,
      "pàkue": 8017,
      "pàchòq": 8018,
      "pàióqk": 8019,
      "pàtkóq": 8020,
      "pàiö": 8021,
      "pàtóx": 8022,
      "pàtĩ": 8023,
      "pàble": 8024,
      "pàtkèqnẽ": 8025,
      "pàyör": 8026,
      "pàsĩéx": 8027,
      "pàiéq": 8028,
      "pàiök": 8029,
      "pàsë": 8030,
      "pàskuök": 8031,
      "pàtãwèxmĩ": 8032,
      "pàió": 8033,
      "pàtkënẽ": 8034,
      "pànãnũk": 8035,
      "pàsinã": 8036,
      "pàtköñã": 8037,
      "pàtawèx": 8038,
      "pàika": 8039,
      "pàtãwãr": 8040,
      "pàtököl": 8041,
      "pàbake": 8042,
      "nèxtã": 8043,
      "nèxes": 8044,
      "nèxkã": 8045,
      "tanẽ": 8046,
      "tata": 8047,
      "tari": 8048,
      "tasí": 8049,
      "taria": 8050,
      "tabé": 8051,
      "tabú": 8052,
      "taùxkẽ": 8053,
      "tampa": 8054,
      "tarea": 8055,
      "tadora": 8056,
      "taòxkule": 8057,
      "taxis": 8058,
      "kòqk": 8059,
      "kòqie": 8060,
      "kòqnẽ": 8061,
      "kòqyök": 8062,
      "kòquaa": 8063,
      "kòqwo": 8064,
      "kòqlwak": 8065,
      "kòqchí": 8066,
      "kòqtule": 8067,
      "kòqaria": 8068,
      "kòqmêx": 8069,
      "kòqrkè": 8070,
      "blé": 8071,
      "blî": 8072,
      "blõ": 8073,
      "blèke": 8074,
      "blër": 8075,
      "blès": 8076,
      "bléwa": 8077,
      "blòqkẽ": 8078,
      "blês": 8079,
      "bléwã": 8080,
      "blékã": 8081,
      "bléqrkẽ": 8082,
      "blèqnẽwã": 8083,
      "blài": 8084,
      "blùblu": 8085,
      "blèqrke": 8086,
      "blóqmbla": 8087,
      "blóqkbla": 8088,
      "ujo": 8089,
      "ujù": 8090,
      "ujkö": 8091,
      "ujúx": 8092,
      "ujta": 8093,
      "ujché": 8094,
      "ujkuèke": 8095,
      "ujòqki": 8096,
      "irirbétka": 8097,
      "èketke": 8098,
      "kalõ": 8099,
      "kalkã": 8100,
      "kalula": 8101,
      "kalnúx": 8102,
      "kalle": 8103,
      "kalìnã": 8104,
      "kalóqktër": 8105,
      "kalàtska": 8106,
      "kalwöjtsêqka": 8107,
      "chase": 8108,
      "chakö": 8109,
      "chamùx": 8110,
      "chabà": 8111,
      "chakela": 8112,
      "chacho": 8113,
      "charê": 8114,
      "chacà": 8115,
      "ökpũ": 8116,
      "êqã": 8117,
      "êqë": 8118,
      "êqsh": 8119,
      "êqköl": 8120,
      "êqũk": 8121,
      "êqkèqkë": 8122,
      "êqkkë": 8123,
      "êqikalë": 8124,
      "òxwa": 8125,
      "òxwã": 8126,
      "òxtãnẽ": 8127,
      "òxnõk": 8128,
      "òxnẽ": 8129,
      "òxkãlã": 8130,
      "míxa": 8131,
      "míxpa": 8132,
      "míxnã": 8133,
      "míxwã": 8134,
      "míxla": 8135,
      "míxrö": 8136,
      "míxtkenẽ": 8137,
      "míxshkã": 8138,
      "míxtkẽ": 8139,
      "míxrka": 8140,
      "míxlapa": 8141,
      "míxshkala": 8142,
      "míxàxtke": 8143,
      "röla": 8144,
      "rö̜l": 8145,
      "áklo": 8146,
      "ákjkuö": 8147,
      "áknãmã": 8148,
      "ákchakà": 8149,
      "ákbita": 8150,
      "ákttö": 8151,
      "ákchkà": 8152,
      "áksaku": 8153,
      "áknĩmẽ": 8154,
      "ákshalë": 8155,
      "ërke": 8156,
      "ërpa": 8157,
      "yawẽ": 8158,
      "yawók": 8159,
      "yawâk": 8160,
      "dawo": 8161,
      "dawó": 8162,
      "dawák": 8163,
      "dawéwa": 8164,
      "dawéwã": 8165,
      "dawóqwã": 8166,
      "dawòkẽwã": 8167,
      "óxsh": 8168,
      "óxmĩ": 8169,
      "óxjkèx": 8170,
      "óxtkie": 8171,
      "bòqka": 8172,
      "bòqkã": 8173,
      "bòqte": 8174,
      "ris": 8175,
      "riwẽ": 8176,
      "rigo": 8177,
      "ritas": 8178,
      "ricula": 8179,
      "rimĩnẽ": 8180,
      "riitske": 8181,
      "tãîx̠": 8182,
      "yéqka": 8183,
      "yéqwa": 8184,
      "yéqmĩ": 8185,
      "yéqkã": 8186,
      "yéqwö": 8187,
      "yéqbak": 8188,
      "yéqule": 8189,
      "yéqrmĩ": 8190,
      "yéqblë": 8191,
      "yéqulur": 8192,
      "yéqrkũ": 8193,
      "yéqblô": 8194,
      "yéqttsã": 8195,
      "yéqlapa": 8196,
      "yéqchkepa": 8197,
      "yéqkkuö": 8198,
      "yéqchkela": 8199,
      "yéqblòqkẽ": 8200,
      "yéqchakela": 8201,
      "baló": 8202,
      "balèqnẽ": 8203,
      "balat": 8204,
      "balèmĩ": 8205,
      "baléwã": 8206,
      "balènẽ": 8207,
      "balèqnẽwã": 8208,
      "balátkóqk": 8209,
      "balêwã": 8210,
      "séxka": 8211,
      "séxnẽ": 8212,
      "séxnã": 8213,
      "séxkã": 8214,
      "séxes": 8215,
      "séxwèxke": 8216,
      "séxsèx": 8217,
      "séxwõ": 8218,
      "séxrâ": 8219,
      "séxshàx": 8220,
      "séxkala": 8221,
      "séxraã": 8222,
      "séxss": 8223,
      "séxjkáx": 8224,
      "séxõnõ": 8225,
      "séxtöwẽ": 8226,
      "séxwèxĩã": 8227,
      "yilí": 8228,
      "yilì": 8229,
      "ero": 8230,
      "erkẽ": 8231,
      "eran": 8232,
      "erson": 8233,
      "erèwãmĩ": 8234,
      "erböla": 8235,
      "sãk": 8236,
      "sãnẽ": 8237,
      "sãla": 8238,
      "sãwé": 8239,
      "sãnêx": 8240,
      "sãnêxnẽ": 8241,
      "sãùxkẽ": 8242,
      "sãmâxs": 8243,
      "sãwãr": 8244,
      "sãw̱": 8245,
      "sãnèxnèxnèx": 8246,
      "sãùkẽ": 8247,
      "ajkë": 8248,
      "ajkar": 8249,
      "ajkuóq": 8250,
      "ñẽpa": 8251,
      "ñẽké": 8252,
      "sulì": 8253,
      "sulí": 8254,
      "sulĩ": 8255,
      "sulis": 8256,
      "sulèqr": 8257,
      "sulina": 8258,
      "sulël": 8259,
      "sulèùà": 8260,
      "suléqt": 8261,
      "sulîs": 8262,
      "tsio": 8263,
      "tsika": 8264,
      "tsimĩ": 8265,
      "tsikèwã": 8266,
      "tsitkèwã": 8267,
      "tsipì": 8268,
      "tsióũk": 8269,
      "ujtòqkẽ": 8270,
      "ujtii": 8271,
      "ujtâkũ": 8272,
      "ujtòkẽ": 8273,
      "éxntã": 8274,
      "éxnéx": 8275,
      "éxnĩã": 8276,
      "éxnâx": 8277,
      "éxnbikök": 8278,
      "eso": 8279,
      "estu": 8280,
      "está": 8281,
      "espo": 8282,
      "estro": 8283,
      "alàtsítsi": 8284,
      "alànũ": 8285,
      "alàuaa": 8286,
      "alànõkè": 8287,
      "alàstsök": 8288,
      "alàduláköl": 8289,
      "alàkòqkekã": 8290,
      "alàpàjkuö": 8291,
      "ary": 8292,
      "ares": 8293,
      "arto": 8294,
      "arti": 8295,
      "arma": 8296,
      "ardia": 8297,
      "arkĩ": 8298,
      "arrôs": 8299,
      "kãnèxwéx": 8300,
      "kãnèxwák": 8301,
      "kãnèxwõ": 8302,
      "bulâx": 8303,
      "bulñã": 8304,
      "bulúr": 8305,
      "bulam": 8306,
      "bulànã": 8307,
      "bulànũk": 8308,
      "buléqwö": 8309,
      "kàly": 8310,
      "kàlwâ": 8311,
      "kàlwák": 8312,
      "kàlko": 8313,
      "kàlkichà": 8314,
      "kàlwòqki": 8315,
      "kàlulâtska": 8316,
      "kàlnĩmẽ": 8317,
      "kàlsũlĩ": 8318,
      "kàlĩ": 8319,
      "kàlkukö": 8320,
      "kàlbukule": 8321,
      "kàlsulĩ": 8322,
      "tàa": 8323,
      "tànũk": 8324,
      "tàyé": 8325,
      "tàyë̩": 8326,
      "kũéxwa": 8327,
      "kũéxki": 8328,
      "wèxsĩõ": 8329,
      "rkeka": 8330,
      "ẽnãë": 8331,
      "mẽkẽ": 8332,
      "mẽñã": 8333,
      "mẽãt": 8334,
      "mẽmbresía": 8335,
      "mẽ̈si": 8336,
      "mẽdici": 8337,
      "dalé": 8338,
      "dalia": 8339,
      "dalió": 8340,
      "dalèùà": 8341,
      "daléri": 8342,
      "dalënã": 8343,
      "dalêqwẽ": 8344,
      "dalòlò": 8345,
      "dalèqna": 8346,
      "ane": 8347,
      "anie": 8348,
      "anto": 8349,
      "andro": 8350,
      "anual": 8351,
      "ĩãnã": 8352,
      "ĩãrke": 8353,
      "ĩãchí": 8354,
      "wẽr": 8355,
      "wẽka": 8356,
      "wẽnẽ": 8357,
      "wẽmãlẽ": 8358,
      "alabèq": 8359,
      "alabà": 8360,
      "alatsítsi": 8361,
      "alaála": 8362,
      "alambre": 8363,
      "aläköl": 8364,
      "liwö": 8365,
      "liwẽ": 8366,
      "lito": 8367,
      "litak": 8368,
      "libr": 8369,
      "likalök": 8370,
      "liũköl": 8371,
      "lives": 8372,
      "kiànũk": 8373,
      "âxr": 8374,
      "âxli": 8375,
      "âxjáx": 8376,
      "përöà": 8377,
      "ulàbua": 8378,
      "ulàba": 8379,
      "ulàmẽ": 8380,
      "ulàwe": 8381,
      "ulàmũk": 8382,
      "ulàdö": 8383,
      "ulàbulù": 8384,
      "ulàjkue": 8385,
      "ulàtska": 8386,
      "ulàmèxkè": 8387,
      "ulàkata": 8388,
      "ulàièke": 8389,
      "ulàitö": 8390,
      "ulàbitsèke": 8391,
      "ulàbatsèke": 8392,
      "ulàbàtsẽ": 8393,
      "ulàkanìxñãk": 8394,
      "ulàwèxkènẽ": 8395,
      "ulàbitséwã": 8396,
      "ulàtsika": 8397,
      "déca": 8398,
      "détsẽ": 8399,
      "dérak": 8400,
      "déstsã": 8401,
      "débitu": 8402,
      "ñãa": 8403,
      "ñãr": 8404,
      "ñãã": 8405,
      "ñãwã": 8406,
      "ñãwẽ": 8407,
      "ñãwé": 8408,
      "ñãik": 8409,
      "ñãwĩ": 8410,
      "ñãnàx": 8411,
      "ñãóköl": 8412,
      "ñãlitak": 8413,
      "teë": 8414,
      "tepa": 8415,
      "tela": 8416,
      "teulor": 8417,
      "alánẽ": 8418,
      "alánã": 8419,
      "aláwö": 8420,
      "alárkẽ": 8421,
      "alánũk": 8422,
      "aláköla": 8423,
      "alárla": 8424,
      "aláköpa": 8425,
      "kléq": 8426,
      "klur": 8427,
      "klóm": 8428,
      "klôqũk": 8429,
      "klàtska": 8430,
      "klynn": 8431,
      "klâstka": 8432,
      "klóklö": 8433,
      "klôwẽ": 8434,
      "yèqke": 8435,
      "yèqpa": 8436,
      "yèqnẽt": 8437,
      "yèqne": 8438,
      "yèqchà": 8439,
      "yèqnũ": 8440,
      "yèqblö": 8441,
      "yèqnêxnẽ": 8442,
      "yèqña": 8443,
      "yèqrlùnẽ": 8444,
      "tket": 8445,
      "tketke": 8446,
      "tkewãmĩ": 8447,
      "ñìxw": 8448,
      "ñìxwá": 8449,
      "ñìxpòq": 8450,
      "ñìxketke": 8451,
      "rkẽwã": 8452,
      "wéqn": 8453,
      "wéqtã": 8454,
      "wéqta": 8455,
      "wéqbla": 8456,
      "wéqemĩ": 8457,
      "sibòqr": 8458,
      "sibòqnũ": 8459,
      "tsãñã": 8460,
      "tsãwe": 8461,
      "tsãlĩ": 8462,
      "tsãna": 8463,
      "tsãsarûrû": 8464,
      "tsãlíxs": 8465,
      "roe": 8466,
      "ron": 8467,
      "rosita": 8468,
      "yòqa": 8469,
      "yòqtsã": 8470,
      "yòqnũ": 8471,
      "yòqnâxnã": 8472,
      "yòqtakiaa": 8473,
      "yòqulewã": 8474,
      "kalòqë": 8475,
      "kalòqshk": 8476,
      "kalòqtóq": 8477,
      "kalòqtkö": 8478,
      "kalòqsir": 8479,
      "kalòqttö": 8480,
      "kalòqwèxwã": 8481,
      "kalòqkita": 8482,
      "kalòqtèkũ": 8483,
      "kalòqñáxwĩ": 8484,
      "kalòqkãnìxñãk": 8485,
      "chii": 8486,
      "chip": 8487,
      "chiki": 8488,
      "chikà": 8489,
      "chili": 8490,
      "chiké": 8491,
      "chikè": 8492,
      "chikí": 8493,
      "chino": 8494,
      "china": 8495,
      "chikala": 8496,
      "chilì": 8497,
      "chiok": 8498,
      "chitiàli": 8499,
      "shkèkẽ": 8500,
      "shkók": 8501,
      "shkirîrî": 8502,
      "shkârë": 8503,
      "shkòwã": 8504,
      "shkéxñũk": 8505,
      "shkir̂rî": 8506,
      "shkàxtãnẽ": 8507,
      "bakë": 8508,
      "bakka": 8509,
      "bakwã": 8510,
      "bakóqk": 8511,
      "baktkër": 8512,
      "bakshka": 8513,
      "bakdak": 8514,
      "bakènẽ": 8515,
      "bakéulur": 8516,
      "bakêke": 8517,
      "bakalíx": 8518,
      "kéxwẽ": 8519,
      "kéxnẽt": 8520,
      "kéxtar": 8521,
      "kéxbata": 8522,
      "kéxsik": 8523,
      "kéxrtã": 8524,
      "kéx̠s": 8525,
      "yàwa": 8526,
      "yàwã": 8527,
      "yànũk": 8528,
      "yàbë": 8529,
      "yàrkũ": 8530,
      "yàblu": 8531,
      "yànâxnã": 8532,
      "yàblo": 8533,
      "yànóxk": 8534,
      "yàmíxpa": 8535,
      "inéx": 8536,
      "inien": 8537,
      "inìxnẽ": 8538,
      "ineran": 8539,
      "insulina": 8540,
      "wets": 8541,
      "wewã": 8542,
      "week": 8543,
      "wewamĩ": 8544,
      "weikòq": 8545,
      "weìnũk": 8546,
      "dòqwa": 8547,
      "dòqwã": 8548,
      "dòqköl": 8549,
      "dòqĩã": 8550,
      "dòqrâ": 8551,
      "dòqyal": 8552,
      "dòqwãmĩ": 8553,
      "dòqñĩ": 8554,
      "dòqmãlẽ": 8555,
      "dòqtsãmĩ": 8556,
      "dòqlë": 8557,
      "dòqtsãrâ": 8558,
      "dòqrànẽ": 8559,
      "wóqwã": 8560,
      "wóqki": 8561,
      "wóqköl": 8562,
      "wóqri": 8563,
      "wóqnĩ": 8564,
      "wóqula": 8565,
      "wóqpp": 8566,
      "wóqulá": 8567,
      "wóqkela": 8568,
      "wóqike": 8569,
      "wóqalök": 8570,
      "wóqit": 8571,
      "wóqukâ": 8572,
      "wóqulàũk": 8573,
      "wóqulat": 8574,
      "wóqikèmĩ": 8575,
      "ĩàxĩâx": 8576,
      "ĩàxtẽ": 8577,
      "ĩàxṉ": 8578,
      "ĩàxrtsẽ": 8579,
      "mèxn": 8580,
      "mèxs": 8581,
      "mèxie": 8582,
      "mèxwã": 8583,
      "mèxwö": 8584,
      "mèxtè": 8585,
      "mèxwèxke": 8586,
      "mèxbitũ": 8587,
      "mèxiã": 8588,
      "mèxia": 8589,
      "tèmĩ": 8590,
      "tèkã": 8591,
      "tètsã": 8592,
      "tèkè": 8593,
      "tènêx": 8594,
      "tèlor": 8595,
      "tèwãmĩ": 8596,
      "tèkèwã": 8597,
      "tèwã": 8598,
      "tèktöm": 8599,
      "tèktökicha": 8600,
      "tèktóqkicha": 8601,
      "tèróq": 8602,
      "tèruaa": 8603,
      "tètktöm": 8604,
      "tèrö̜l": 8605,
      "tóqwã": 8606,
      "tóqmĩk": 8607,
      "tóqñãl": 8608,
      "tóqtkök": 8609,
      "tóqtko": 8610,
      "mĩkie": 8611,
      "mĩk̀ã": 8612,
      "òqkebitũ": 8613,
      "orting": 8614,
      "wàk": 8615,
      "wàp": 8616,
      "wàwa": 8617,
      "wàkẽ": 8618,
      "wàkö": 8619,
      "wàpi": 8620,
      "wàtòq": 8621,
      "wàtkök": 8622,
      "wàióqk": 8623,
      "wàtóx": 8624,
      "wàtãúxk": 8625,
      "wàtãũk": 8626,
      "wàtãwèxke": 8627,
      "wàtãwóx": 8628,
      "wàbalèke": 8629,
      "wàiéqr": 8630,
      "wàiéqrke": 8631,
      "wàbalèqrke": 8632,
      "wàiar": 8633,
      "wàiedule": 8634,
      "wàblèqrke": 8635,
      "dënẽ": 8636,
      "dërö": 8637,
      "dëula": 8638,
      "dëlèqr": 8639,
      "dëùtu": 8640,
      "kíxtã": 8641,
      "kíxtso": 8642,
      "kíxtse": 8643,
      "kíxmùx": 8644,
      "kíxtsë": 8645,
      "kíxmúx": 8646,
      "kíxme": 8647,
      "kíxtsër": 8648,
      "kíxmèxnẽ": 8649,
      "kíxstsök": 8650,
      "kíxmúxk": 8651,
      "kíxmèxnã": 8652,
      "kíxmèxkẽ": 8653,
      "kíxméxrmĩ": 8654,
      "kíxmuk": 8655,
      "kíxmãk": 8656,
      "kíxsãùkẽ": 8657,
      "skakali": 8658,
      "ésela": 8659,
      "éqlala": 8660,
      "éqlté": 8661,
      "ichapa": 8662,
      "ichakök": 8663,
      "ujtéwãmĩ": 8664,
      "ujtéchóqk": 8665,
      "ujtémĩnẽ": 8666,
      "ujtékölpa": 8667,
      "ujtépóqk": 8668,
      "ujtéköpa": 8669,
      "ujtémĩne": 8670,
      "one": 8671,
      "onal": 8672,
      "onklynn": 8673,
      "ásẽ": 8674,
      "kuöla": 8675,
      "kuöbie": 8676,
      "kél": 8677,
      "ké̀": 8678,
      "kébi": 8679,
      "kéĩã": 8680,
      "kékëpa": 8681,
      "kétket": 8682,
      "nĩméx": 8683,
      "nĩúxk": 8684,
      "tkërta": 8685,
      "apàie": 8686,
      "apàbi": 8687,
      "apàtse": 8688,
      "apàtu": 8689,
      "apàtkë": 8690,
      "apàsãũk": 8691,
      "apàchök": 8692,
      "apàyawök": 8693,
      "apàtkóq": 8694,
      "apàppè": 8695,
      "apàppök": 8696,
      "apàsíx": 8697,
      "apàyo": 8698,
      "apàdalër": 8699,
      "apàbalèkẽ": 8700,
      "apàstse": 8701,
      "apàsíũk": 8702,
      "apàbakèkẽ": 8703,
      "apàbaw": 8704,
      "apàbutur": 8705,
      "apàdiche": 8706,
      "apàstsë": 8707,
      "apàbiök": 8708,
      "apàkár": 8709,
      "apàbárkẽ": 8710,
      "apàmũẽ": 8711,
      "apàtköñã": 8712,
      "apàikalèkẽ": 8713,
      "apàklöwẽ": 8714,
      "apàkûyök": 8715,
      "apàklôqũk": 8716,
      "apàchikí": 8717,
      "sĩán": 8718,
      "sĩòxr": 8719,
      "sĩnáx": 8720,
      "sĩawã": 8721,
      "été": 8722,
      "éttak": 8723,
      "éttsãk": 8724,
      "éttâ": 8725,
      "éttsáxk": 8726,
      "bitë": 8727,
      "bitèq": 8728,
      "bitĩnìx": 8729,
      "bitâk": 8730,
      "jkëtã": 8731,
      "bákmĩ": 8732,
      "sulûa": 8733,
      "sulûõ": 8734,
      "sulûwéx": 8735,
      "sulûèqmẽ": 8736,
      "sulûrpa": 8737,
      "sulûòxnẽ": 8738,
      "sulûũkka": 8739,
      "nũkwa": 8740,
      "tsenãmũlẽ": 8741,
      "kãnèxblak": 8742,
      "kãnèxblèmĩ": 8743,
      "kãnèxblèqbitũ": 8744,
      "bölòq": 8745,
      "tën": 8746,
      "tëbitũ": 8747,
      "tënãmẽ": 8748,
      "tëshkö": 8749,
      "kapéq": 8750,
      "kapòqk": 8751,
      "kapèqnẽ": 8752,
      "kapéqrule": 8753,
      "kapôqũk": 8754,
      "kapèqnẽwã": 8755,
      "kapòkẽ": 8756,
      "dawáskã": 8757,
      "dawáskalö": 8758,
      "bulukáwak": 8759,
      "ãñìxë": 8760,
      "ãñìxblö": 8761,
      "ãñìxppök": 8762,
      "ãñìxkkë": 8763,
      "ãñìxbuk": 8764,
      "ãñìxtsêx": 8765,
      "ãñìxbule": 8766,
      "ãñìxtkërule": 8767,
      "ãñìxbulè": 8768,
      "ãñìxies": 8769,
      "ãñìxwöalá": 8770,
      "ãñìxbölòq": 8771,
      "wéla": 8772,
      "wétke": 8773,
      "wéìnẽ": 8774,
      "wésha": 8775,
      "wéik": 8776,
      "wéble": 8777,
      "wéalök": 8778,
      "wéikök": 8779,
      "wéirmĩ": 8780,
      "wéìkòqke": 8781,
      "caci": 8782,
      "camar": 8783,
      "cado": 8784,
      "cami": 8785,
      "catá": 8786,
      "capital": 8787,
      "cadores": 8788,
      "cahor": 8789,
      "caídas": 8790,
      "capacita": 8791,
      "ena": 8792,
      "ente": 8793,
      "enio": 8794,
      "entes": 8795,
      "encan": 8796,
      "entien": 8797,
      "enero": 8798,
      "éqrmapa": 8799,
      "kèl": 8800,
      "kèka": 8801,
      "kèkuö": 8802,
      "kèãt": 8803,
      "kèrâ": 8804,
      "kèbale": 8805,
      "mùxke": 8806,
      "mùxkètsã": 8807,
      "klòqúx": 8808,
      "klòqnũk": 8809,
      "klòqio": 8810,
      "klòqwõ": 8811,
      "klòqwèxkẽ": 8812,
      "klòqwè": 8813,
      "klòqwãwã": 8814,
      "klòqwöba": 8815,
      "kóqkã": 8816,
      "kóqkö": 8817,
      "kóqyö": 8818,
      "kóqchi": 8819,
      "kóqnũk": 8820,
      "kóqiè": 8821,
      "kuòqtã": 8822,
      "kuòqpa": 8823,
      "kuòqwö": 8824,
      "sèxn": 8825,
      "sèxr": 8826,
      "sèxnéx": 8827,
      "sèxne": 8828,
      "sèxrpa": 8829,
      "sèxnũ": 8830,
      "sèxòxwã": 8831,
      "shùxwö": 8832,
      "shùxali": 8833,
      "shùxtkë": 8834,
      "shùxtké": 8835,
      "shùxbú": 8836,
      "shùxlòq": 8837,
      "shùxtur": 8838,
      "shùxkũk": 8839,
      "shùxpã": 8840,
      "shùxalékã": 8841,
      "shùxtawé": 8842,
      "shùxishtök": 8843,
      "shùxppe": 8844,
      "shùxiklök": 8845,
      "shùxhàx": 8846,
      "ciden": 8847,
      "cicio": 8848,
      "ciales": 8849,
      "cista": 8850,
      "city": 8851,
      "cigarro": 8852,
      "pálĩ": 8853,
      "pátök": 8854,
      "pátsök": 8855,
      "pátké": 8856,
      "pátkèke": 8857,
      "pánèxke": 8858,
      "pátkèqnã": 8859,
      "páikl": 8860,
      "págin": 8861,
      "pátkar": 8862,
      "páùtã": 8863,
      "pálir": 8864,
      "páryö": 8865,
      "páuñĩ": 8866,
      "pánãrke": 8867,
      "páliũköl": 8868,
      "bèqre": 8869,
      "bèqsulu": 8870,
      "stsó": 8871,
      "stsáx": 8872,
      "stsër": 8873,
      "stskuö": 8874,
      "stsènẽ": 8875,
      "stsêqwẽ": 8876,
      "stsáxnĩñã": 8877,
      "stsâali": 8878,
      "stsèqnũk": 8879,
      "stsawö": 8880,
      "chèka": 8881,
      "chèkã": 8882,
      "chèãt": 8883,
      "chèrak": 8884,
      "mãñéxk": 8885,
      "mãñéxnẽ": 8886,
      "mãñàt": 8887,
      "mãñêxk": 8888,
      "mãñĩwéxwã": 8889,
      "mãñíxt": 8890,
      "wìxk": 8891,
      "wìxm": 8892,
      "wìxs": 8893,
      "wìxkĩ": 8894,
      "wìxes": 8895,
      "wìxkóx": 8896,
      "wìxkòx": 8897,
      "wìxẽ": 8898,
      "wìxnèxtã": 8899,
      "kichawak": 8900,
      "îxñẽnẽ": 8901,
      "tott": 8902,
      "topi": 8903,
      "todo": 8904,
      "toria": 8905,
      "tomasa": 8906,
      "todd": 8907,
      "toget": 8908,
      "tokalle": 8909,
      "tsiriwẽ": 8910,
      "tsir̀wẽ": 8911,
      "ñèxtã": 8912,
      "ñèxkũ": 8913,
      "ñèxlor": 8914,
      "ñèxẽ": 8915,
      "tërtã": 8916,
      "íxẽla": 8917,
      "íxẽrö": 8918,
      "íxẽrök": 8919,
      "icheketke": 8920,
      "lota": 8921,
      "logo": 8922,
      "êxlêx": 8923,
      "ñéxse": 8924,
      "ñéxes": 8925,
      "ñéxjkë": 8926,
      "ñéxikök": 8927,
      "ñéxrmã": 8928,
      "kará": 8929,
      "karò": 8930,
      "karòq": 8931,
      "karak": 8932,
      "karírkẽ": 8933,
      "karêrê": 8934,
      "karawéxwã": 8935,
      "dìdì": 8936,
      "dìbatà": 8937,
      "dìtsik": 8938,
      "dììì": 8939,
      "kóxtö": 8940,
      "kóxba": 8941,
      "kóxmìx": 8942,
      "kóxwak": 8943,
      "kóxsẽ": 8944,
      "kóxpàke": 8945,
      "kóxjkẽ": 8946,
      "kóxrkĩ": 8947,
      "kóxñõ": 8948,
      "kóxpàkö": 8949,
      "kóxirö": 8950,
      "kóxpàkóq": 8951,
      "kóxñìxnẽ": 8952,
      "kóxrbëla": 8953,
      "kièkã": 8954,
      "kièbtà": 8955,
      "kièkètsã": 8956,
      "yéqstöwe": 8957,
      "káũ": 8958,
      "kánẽ": 8959,
      "kátsi": 8960,
      "káche": 8961,
      "kánũk": 8962,
      "káme": 8963,
      "kájkêx": 8964,
      "káchke": 8965,
      "káttö": 8966,
      "kálök": 8967,
      "kámèxnã": 8968,
      "kálakã": 8969,
      "kábisãwẽ": 8970,
      "núxr": 8971,
      "núxla": 8972,
      "núxwẽ": 8973,
      "núxblök": 8974,
      "núxmũ": 8975,
      "núxnãwã": 8976,
      "núxlapa": 8977,
      "núxknãmẽ": 8978,
      "núxböl": 8979,
      "núxjnùx": 8980,
      "núxnnûx": 8981,
      "súxrke": 8982,
      "súxre": 8983,
      "súxnõ": 8984,
      "súxrak": 8985,
      "súxrmĩ": 8986,
      "súxrkũ": 8987,
      "súxkule": 8988,
      "súxköt": 8989,
      "ttô": 8990,
      "tter": 8991,
      "ttéwã": 8992,
      "ttôë": 8993,
      "yamĩ": 8994,
      "yaùxkẽ": 8995,
      "alêë": 8996,
      "ôqwak": 8997,
      "ôqũkẽ": 8998,
      "ras": 8999,
      "rato": 9000,
      "rafa": 9001,
      "raúl": 9002,
      "raza": 9003,
      "rabble": 9004,
      "raham": 9005,
      "ratta": 9006,
      "racista": 9007,
      "séxjkatkö": 9008,
      "síã": 9009,
      "síie": 9010,
      "sínẽ": 9011,
      "síwõ": 9012,
      "síko": 9013,
      "síwöla": 9014,
      "síkũk": 9015,
      "síitãmĩ": 9016,
      "sísulu": 9017,
      "síùxwã": 9018,
      "méxkã": 9019,
      "méxla": 9020,
      "méxrkẽ": 9021,
      "méxtër": 9022,
      "méxã": 9023,
      "méxmũlẽ": 9024,
      "méxrka": 9025,
      "méxico": 9026,
      "méxtëshkö": 9027,
      "rec": 9028,
      "red": 9029,
      "reo": 9030,
      "rez": 9031,
      "reos": 9032,
      "reter": 9033,
      "tuler": 9034,
      "tuléulur": 9035,
      "tulèkẽwã": 9036,
      "tulére": 9037,
      "tulëga": 9038,
      "tulòqwã": 9039,
      "míxãmĩ": 9040,
      "míxãrâ": 9041,
      "aìk": 9042,
      "aìse": 9043,
      "aìrö": 9044,
      "aìjkë": 9045,
      "aìbalo": 9046,
      "aìsũ": 9047,
      "aìnũ": 9048,
      "aìshòx": 9049,
      "bòta": 9050,
      "bòtöwö": 9051,
      "coche": 9052,
      "coca": 9053,
      "coco": 9054,
      "comõ": 9055,
      "color": 9056,
      "cobert": 9057,
      "cobre": 9058,
      "colum": 9059,
      "cocher": 9060,
      "cocker": 9061,
      "kìtã": 9062,
      "kìkã": 9063,
      "kìta": 9064,
      "kìtë": 9065,
      "kìnẽkã": 9066,
      "kìanã": 9067,
      "kìnẽwã": 9068,
      "sùxr": 9069,
      "sùxule": 9070,
      "sùxnãwã": 9071,
      "sùxnêxnẽ": 9072,
      "sùxnèxĩã": 9073,
      "yóqö": 9074,
      "yóqnã": 9075,
      "yóqkĩ": 9076,
      "yóqwö": 9077,
      "yóqnõ": 9078,
      "yóqrak": 9079,
      "yóqrkũ": 9080,
      "yóqmtkabë": 9081,
      "katù": 9082,
      "katnẽ": 9083,
      "katéwã": 9084,
      "katéndak": 9085,
      "katâkũ": 9086,
      "kítso": 9087,
      "kíkã": 9088,
      "kírö": 9089,
      "kíru": 9090,
      "tsétse": 9091,
      "tsébita": 9092,
      "tsáxr": 9093,
      "tsáxwã": 9094,
      "tsáxli": 9095,
      "tsáxtkè": 9096,
      "tsáxtkök": 9097,
      "tsáxtka": 9098,
      "tsáxikalòqkẽ": 9099,
      "tsáxtkërta": 9100,
      "ichàkòqke": 9101,
      "ichàkèmĩ": 9102,
      "ichàkìnã": 9103,
      "ichàhök": 9104,
      "màxë": 9105,
      "màxsö": 9106,
      "màxtkle": 9107,
      "màxmáxla": 9108,
      "màxsmãs": 9109,
      "màxtklé": 9110,
      "móxk": 9111,
      "móxu": 9112,
      "móxka": 9113,
      "móxwã": 9114,
      "móxvi": 9115,
      "móxzo": 9116,
      "móxsopa": 9117,
      "yulu": 9118,
      "yulâr": 9119,
      "yuléqla": 9120,
      "kuála": 9121,
      "kuáköl": 9122,
      "kuátkö": 9123,
      "kuátké": 9124,
      "kuátko": 9125,
      "kuátkóq": 9126,
      "kuátkèkẽ": 9127,
      "kuátkèmĩ": 9128,
      "kuátkërule": 9129,
      "kuátkòqkẽ": 9130,
      "kuáëtã": 9131,
      "dakarówêqñẽ": 9132,
      "del": 9133,
      "dez": 9134,
      "deula": 9135,
      "deton": 9136,
      "dead": 9137,
      "deico": 9138,
      "delito": 9139,
      "tsòqnẽ": 9140,
      "tsòqkũ": 9141,
      "dakarònãmẽ": 9142,
      "dakaròãmĩ": 9143,
      "peo": 9144,
      "peé": 9145,
      "peta": 9146,
      "peit": 9147,
      "petsãmĩ": 9148,
      "peítule": 9149,
      "ulâska": 9150,
      "ulâtsa": 9151,
      "ulâtswòq": 9152,
      "ulâsio": 9153,
      "ulâtsio": 9154,
      "ulâstskuö": 9155,
      "kuatkë": 9156,
      "kuatkè": 9157,
      "kuatkèkẽ": 9158,
      "dàwa": 9159,
      "dàwã": 9160,
      "dàtke": 9161,
      "dàmíxtke": 9162,
      "dàtske": 9163,
      "uel": 9164,
      "wâkö": 9165,
      "wâwö": 9166,
      "wâttö": 9167,
      "wâñe": 9168,
      "wâyër": 9169,
      "wâmãmã": 9170,
      "shkòqèq": 9171,
      "shkòqwa": 9172,
      "shkòqwéx": 9173,
      "shkòqwak": 9174,
      "shkòqar": 9175,
      "shkòqúxk": 9176,
      "shkòqâr": 9177,
      "shkòqôx": 9178,
      "shkòqmĩr": 9179,
      "shkòqãr": 9180,
      "shkòqõrmĩ": 9181,
      "yawèwã": 9182,
      "yawèkã": 9183,
      "yawèkũ": 9184,
      "yawèrâ": 9185,
      "yawèmĩnẽ": 9186,
      "dùu": 9187,
      "dùwã": 9188,
      "dùkö": 9189,
      "dùala": 9190,
      "dùrkĩ": 9191,
      "dùnèxkã": 9192,
      "ũléx": 9193,
      "ũlkẽ": 9194,
      "úxknãmẽ": 9195,
      "rëë": 9196,
      "chékã": 9197,
      "chéũk": 9198,
      "yêqũk": 9199,
      "juut": 9200,
      "tsẽr": 9201,
      "tsẽka": 9202,
      "tsẽwã": 9203,
      "tsẽkẽ": 9204,
      "kutàie": 9205,
      "kutàla": 9206,
      "kutàienẽ": 9207,
      "mìxkla": 9208,
      "ĩàxnãwã": 9209,
      "002": 9210,
      "chaká": 9211,
      "chakò": 9212,
      "chakóq": 9213,
      "chakala": 9214,
      "chakòqk": 9215,
      "chakòqkẽ": 9216,
      "chakyal": 9217,
      "chakóie": 9218,
      "chakulu": 9219,
      "blacki": 9220,
      "blasón": 9221,
      "aliados": 9222,
      "diàèqka": 9223,
      "diànẽwã": 9224,
      "diàrtã": 9225,
      "diàrlônẽ": 9226,
      "daré": 9227,
      "darì": 9228,
      "darèqtãnẽ": 9229,
      "darêqũk": 9230,
      "mâxtso": 9231,
      "mâxwéx": 9232,
      "mâxrule": 9233,
      "mâxòxnẽ": 9234,
      "dawèkãla": 9235,
      "ukòqtkë": 9236,
      "ukòqtko": 9237,
      "shtòqk": 9238,
      "shtrì": 9239,
      "shtrìnẽ": 9240,
      "shtéqshtë": 9241,
      "shtêqsh": 9242,
      "kòxr": 9243,
      "picio": 9244,
      "bàtse": 9245,
      "bàchö": 9246,
      "bàbàë": 9247,
      "ppö": 9248,
      "ppóqk": 9249,
      "ppòqk": 9250,
      "pporting": 9251,
      "wáknẽ": 9252,
      "wákyö": 9253,
      "wáksũ": 9254,
      "kabèqlala": 9255,
      "bikeitsè": 9256,
      "bikeitsóqk": 9257,
      "chìchì": 9258,
      "chìnẽkã": 9259,
      "chìchí": 9260,
      "chìrwak": 9261,
      "wóqulârkẽ": 9262,
      "wóqulâwèxke": 9263,
      "wóqulâùxkẽ": 9264,
      "wóqulâuṉk": 9265,
      "wóqulâknãmẽ": 9266,
      "wóqulâòxrule": 9267,
      "leche": 9268,
      "leares": 9269,
      "mõso": 9270,
      "mõkĩã": 9271,
      "mõkĩìx": 9272,
      "dióqse": 9273,
      "dióqmĩ": 9274,
      "dióqya": 9275,
      "ujtèku": 9276,
      "ujtèkũ": 9277,
      "ujtèulur": 9278,
      "ujtèwãmĩ": 9279,
      "ujtèmĩka": 9280,
      "ujtèpawã": 9281,
      "rmĩka": 9282,
      "wáyök": 9283,
      "wáwër": 9284,
      "wábalòq": 9285,
      "wábalèqrke": 9286,
      "tsèë": 9287,
      "tsènẽ": 9288,
      "tsèwã": 9289,
      "tsèsku": 9290,
      "ujchèxr": 9291,
      "ujchéxr": 9292,
      "ujchèxnẽ": 9293,
      "ujchèxn": 9294,
      "tsóxãt": 9295,
      "tsóxtu": 9296,
      "tsóxtkök": 9297,
      "tsóxkuèke": 9298,
      "tsóxkã": 9299,
      "tsóxbalenõ": 9300,
      "tsóxieke": 9301,
      "tsóxkòqrkè": 9302,
      "bíyök": 9303,
      "bítökicha": 9304,
      "bísku": 9305,
      "bískakali": 9306,
      "atre": 9307,
      "atuaa": 9308,
      "attkènẽ": 9309,
      "atmó": 9310,
      "atùso": 9311,
      "atrét": 9312,
      "brian": 9313,
      "bridge": 9314,
      "mîxpa": 9315,
      "mîxnẽ": 9316,
      "mîxmĩ": 9317,
      "mîxkũ": 9318,
      "mîxkale": 9319,
      "sota": 9320,
      "soló": 9321,
      "socien": 9322,
      "soft": 9323,
      "chìchila": 9324,
      "bùke": 9325,
      "bùnũ": 9326,
      "bùkule": 9327,
      "bùtsée": 9328,
      "bùtsãna": 9329,
      "bùtsẽka": 9330,
      "yëlur": 9331,
      "bitũkẽrak": 9332,
      "mãñáxk": 9333,
      "mãñáxtk": 9334,
      "mãñáxtkë": 9335,
      "nãñéxweë": 9336,
      "tòqki": 9337,
      "tòqkũ": 9338,
      "tòqar": 9339,
      "tòqtkè": 9340,
      "tòqtkök": 9341,
      "tòqtkèqnã": 9342,
      "tòqtĩẽ": 9343,
      "ĩàxnẽĩã": 9344,
      "diko": 9345,
      "dikîbi": 9346,
      "mary": 9347,
      "marcos": 9348,
      "marga": 9349,
      "martes": 9350,
      "marcadores": 9351,
      "yawóqkke": 9352,
      "yawóqknẽ": 9353,
      "sãwèxwa": 9354,
      "sãwèxne": 9355,
      "sãwèxmĩr": 9356,
      "bóqtkuak": 9357,
      "bóqtkla": 9358,
      "bóqiklök": 9359,
      "bóqjtë": 9360,
      "bóqtsbôq": 9361,
      "kiriwèxkẽ": 9362,
      "kirîã": 9363,
      "kiréqrmapa": 9364,
      "tush": 9365,
      "tubo": 9366,
      "tuàlia": 9367,
      "mãlée": 9368,
      "mãlũshka": 9369,
      "durnẽ": 9370,
      "durla": 9371,
      "durane": 9372,
      "ténẽ": 9373,
      "tékã": 9374,
      "téwö": 9375,
      "téröl": 9376,
      "tétsãmĩ": 9377,
      "térömwak": 9378,
      "técnico": 9379,
      "tégalö": 9380,
      "téksula": 9381,
      "téùlur": 9382,
      "téiela": 9383,
      "dabòmtóqkicha": 9384,
      "boca": 9385,
      "botar": 9386,
      "bolòq": 9387,
      "bolò": 9388,
      "doso": 9389,
      "doctor": 9390,
      "nom": 9391,
      "nomòx": 9392,
      "nove": 9393,
      "nomo": 9394,
      "wõka": 9395,
      "ãmìxwö": 9396,
      "tsír": 9397,
      "tsíwö": 9398,
      "tsída": 9399,
      "tsítsí": 9400,
      "tsípátsi": 9401,
      "ikũãkĩ": 9402,
      "dakékã": 9403,
      "dakalóq": 9404,
      "dakëkã": 9405,
      "dakîë": 9406,
      "dakóköl": 9407,
      "dakéãt": 9408,
      "dakûaũk": 9409,
      "dakéxjkuö": 9410,
      "dakéqbalòqkẽ": 9411,
      "ikuòqkalòq": 9412,
      "ikuòqjkuö": 9413,
      "ikuòqnẽnẽ": 9414,
      "skuà": 9415,
      "skué": 9416,
      "skuó": 9417,
      "skukua": 9418,
      "skuéqk": 9419,
      "skuélor": 9420,
      "skuóqkök": 9421,
      "ñíxñìx": 9422,
      "duwa": 9423,
      "duwã": 9424,
      "duala": 9425,
      "dukar": 9426,
      "duòqkẽ": 9427,
      "duwè": 9428,
      "duchá": 9429,
      "duála": 9430,
      "duín": 9431,
      "dukár": 9432,
      "duìuaa": 9433,
      "duwóqwã": 9434,
      "drogo": 9435,
      "talves": 9436,
      "taller": 9437,
      "talîlila": 9438,
      "talété": 9439,
      "tsîralala": 9440,
      "tsîrlala": 9441,
      "tsîrlaël": 9442,
      "tkënãwã": 9443,
      "tkënĩk": 9444,
      "tkëtẽr": 9445,
      "tkëshkö": 9446,
      "tkëlë": 9447,
      "àxritsã": 9448,
      "àxritsule": 9449,
      "àxritsimĩ": 9450,
      "mòxr": 9451,
      "mòxnẽ": 9452,
      "mòxwã": 9453,
      "mòxar": 9454,
      "mòxkicha": 9455,
      "mòxtër": 9456,
      "mòxsó": 9457,
      "mòxwã": 9458,
      "mòxnẽkã": 9459,
      "skéxk": 9460,
      "skéxwã": 9461,
      "skéxtkuak": 9462,
      "skéxttsãk": 9463,
      "kanèxbalo": 9464,
      "kanèxbala": 9465,
      "kanèxbale": 9466,
      "kanèxbalé": 9467,
      "kanèxbalóq": 9468,
      "kanèxblóqmbla": 9469,
      "tkòqka": 9470,
      "tkòqwã": 9471,
      "tkòqkã": 9472,
      "tkòqwéx": 9473,
      "tkòqro": 9474,
      "tkòqwèxke": 9475,
      "tkòqwãmĩ": 9476,
      "tkòqòxnẽ": 9477,
      "tkòqwẽke": 9478,
      "shkèxnẽ": 9479,
      "shkèxwéx": 9480,
      "shkèxúx": 9481,
      "shkèxnèxkã": 9482,
      "shkèxrkèkã": 9483,
      "tẽrke": 9484,
      "wíxkĩ": 9485,
      "wíxkela": 9486,
      "wíxchake": 9487,
      "yèm": 9488,
      "yèwã": 9489,
      "yèmĩ": 9490,
      "yèkũ": 9491,
      "yèri": 9492,
      "yèĩã": 9493,
      "yèkètke": 9494,
      "ulìtãnẽie": 9495,
      "mìxnẽa": 9496,
      "mìxnẽka": 9497,
      "mìxnẽrak": 9498,
      "mìxnẽyar": 9499,
      "mìxnẽtsẽr": 9500,
      "bòqttã": 9501,
      "bòqtókicha": 9502,
      "sãwéxwa": 9503,
      "sãwéxwã": 9504,
      "sãwéxmĩ": 9505,
      "sãwéxjkuö": 9506,
      "sãwéxmãléx": 9507,
      "báwẽ": 9508,
      "bátsẽ": 9509,
      "bámba": 9510,
      "bámb": 9511,
      "bárbar": 9512,
      "bátsenãmũlẽ": 9513,
      "fferson": 9514,
      "kov": 9515,
      "kowa": 9516,
      "kokòqmêx": 9517,
      "tkèqnàx": 9518,
      "tkèqnũkwã": 9519,
      "tkèqrkẽwã": 9520,
      "túxs": 9521,
      "túxrkẽ": 9522,
[...]
