{
  "version": "1.0",
  "truncation": null,
  "padding": null,
  "added_tokens": [
    {
      "id": 0,
      "content": "[PAD]",
      "single_word": false,
      "lstrip": false,
      "rstrip": false,
      "normalized": false,
      "special": true
    },
    {
      "id": 1,
      "content": "[CLS]",
      "single_word": false,
      "lstrip": false,
      "rstrip": false,
      "normalized": false,
      "special": true
    },
    {
      "id": 2,
      "content": "[SEP]",
      "single_word": false,
      "lstrip": false,
      "rstrip": false,
      "normalized": false,
      "special": true
    },
    {
      "id": 3,
      "content": "[MASK]",
      "single_word": false,
      "lstrip": false,
      "rstrip": false,
      "normalized": false,
      "special": true
    },
    {
      "id": 4,
      "content": "[UNK]",
      "single_word": false,
      "lstrip": false,
      "rstrip": false,
      "normalized": false,
      "special": true
    }
  ],
  "normalizer": null,
  "pre_tokenizer": {
    "type": "Whitespace"
  },
  "post_processor": null,
  "decoder": null,
  "model": {
    "type": "WordPiece",
    "unk_token": "[UNK]",
    "continuing_subword_prefix": "##",
    "max_input_chars_per_word": 100,
    "vocab": {
      "[PAD]": 0,
      "[CLS]": 1,
      "[SEP]": 2,
      "[MASK]": 3,
      "[UNK]": 4,
      "!": 5,
      "\"": 6,
      "$": 7,
      "%": 8,
      "'": 9,
      "(": 10,
      ")": 11,
      "*": 12,
      ",": 13,
      "-": 14,
      ".": 15,
      "/": 16,
      "0": 17,
      "1": 18,
      "2": 19,
      "3": 20,
      "4": 21,
      "5": 22,
      "6": 23,
      "7": 24,
      "8": 25,
      "9": 26,
      ":": 27,
      ";": 28,
      "?": 29,
      "[": 30,
      "]": 31,
      "a": 32,
      "b": 33,
      "c": 34,
      "d": 35,
      "e": 36,
      "f": 37,
      "g": 38,
      "h": 39,
      "i": 40,
      "j": 41,
      "k": 42,
      "l": 43,
      "m": 44,
      "n": 45,
      "o": 46,
      "p": 47,
      "q": 48,
      "r": 49,
      "s": 50,
      "t": 51,
      "u": 52,
      "v": 53,
      "w": 54,
      "x": 55,
      "y": 56,
      "z": 57,
      "ª": 58,
      "´": 59,
      "·": 60,
      "à": 61,
      "á": 62,
      "â": 63,
      "ã": 64,
      "ä": 65,
      "å": 66,
      "è": 67,
      "é": 68,
      "ê": 69,
      "ë": 70,
      "ì": 71,
      "í": 72,
      "î": 73,
      "ñ": 74,
      "ò": 75,
      "ó": 76,
      "ô": 77,
      "õ": 78,
      "ö": 79,
      "ù": 80,
      "ú": 81,
      "û": 82,
      "ü": 83,
      "ė": 84,
      "ĩ": 85,
      "ī": 86,
      "ũ": 87,
      "̀": 88,
      "́": 89,
      "̂": 90,
      "̃": 91,
      "̈": 92,
      "̌": 93,
      "̏": 94,
      "̜": 95,
      "̠": 96,
      "̩": 97,
      "̱": 98,
      "̹": 99,
      "ẽ": 100,
      "ῖ": 101,
      "–": 102,
      "􀑳": 103,
      "##w": 104,
      "##á": 105,
      "##p": 106,
      "##a": 107,
      "##ò": 108,
      "##q": 109,
      "##k": 110,
      "##ĩ": 111,
      "##ê": 112,
      "##r": 113,
      "##i": 114,
      "##e": 115,
      "##ë": 116,
      "##t": 117,
      "##s": 118,
      "##ã": 119,
      "##o": 120,
      "##ẽ": 121,
      "##m": 122,
      "##b": 123,
      "##í": 124,
      "##é": 125,
      "##è": 126,
      "##n": 127,
      "##u": 128,
      "##ũ": 129,
      "##l": 130,
      "##ì": 131,
      "##x": 132,
      "##ñ": 133,
      "##h": 134,
      "##î": 135,
      "##z": 136,
      "##ú": 137,
      "##ö": 138,
      "##ù": 139,
      "##y": 140,
      "##à": 141,
      "##ó": 142,
      "##õ": 143,
      "##ô": 144,
      "##g": 145,
      "##c": 146,
      "##â": 147,
      "##̃": 148,
      "##j": 149,
      "##d": 150,
      "##v": 151,
      "##û": 152,
      "##̀": 153,
      "##ė": 154,
      "##̠": 155,
      "##9": 156,
      "##2": 157,
      "##6": 158,
      "##f": 159,
      "##1": 160,
      "##0": 161,
      "##̩": 162,
      "##̈": 163,
      "##3": 164,
      "##̏": 165,
      "##8": 166,
      "##́": 167,
      "##̹": 168,
      "##4": 169,
      "##7": 170,
      "##ü": 171,
      "##̂": 172,
      "##5": 173,
      "##̌": 174,
      "##ä": 175,
      "##ª": 176,
      "##̱": 177,
      "##ī": 178,
      "##]": 179,
      "##å": 180,
      "##̜": 181,
      "##'": 182,
      "##.": 183,
      "##ῖ": 184,
      "##òq": 185,
      "tã": 186,
      "ie": 187,
      "ye": 188,
      "ts": 189,
      "##èq": 190,
      "##ör": 191,
      "##ke": 192,
      "dör": 193,
      "##éx": 194,
      "##èx": 195,
      "tö": 196,
      "##óq": 197,
      "##al": 198,
      "kèq": 199,
      "##áx": 200,
      "##ch": 201,
      "##nẽ": 202,
      "##ul": 203,
      "##ts": 204,
      "be": 205,
      "##éq": 206,
      "tso": 207,
      "ch": 208,
      "se": 209,
      "##ak": 210,
      "##nã": 211,
      "##ìx": 212,
      "káx": 213,
      "##ka": 214,
      "##ua": 215,
      "al": 216,
      "##pa": 217,
      "##aw": 218,
      "##ri": 219,
      "##kẽ": 220,
      "kĩ": 221,
      "##ök": 222,
      "wa": 223,
      "##íx": 224,
      "wã": 225,
      "##mĩ": 226,
      "bua": 227,
      "ki": 228,
      "sa": 229,
      "sh": 230,
      "##ùx": 231,
      "di": 232,
      "##óqk": 233,
      "##öl": 234,
      "##kë": 235,
      "##àx": 236,
      "##úx": 237,
      "##îx": 238,
      "ich": 239,
      "##wã": 240,
      "kũ": 241,
      "wòq": 242,
      "ka": 243,
      "##la": 244,
      "##kĩ": 245,
      "pa": 246,
      "wéx": 247,
      "tk": 248,
      "##ũk": 249,
      "##kã": 250,
      "##jk": 251,
      "##nèx": 252,
      "mã": 253,
      "kã": 254,
      "##ar": 255,
      "##wö": 256,
      "##sh": 257,
      "iri": 258,
      "##ák": 259,
      "irir": 260,
      "uj": 261,
      "##èke": 262,
      "bi": 263,
      "##ki": 264,
      "##êq": 265,
      "mìx": 266,
      "daw": 267,
      "íy": 268,
      "kà": 269,
      "ul": 270,
      "yaw": 271,
      "##wèx": 272,
      "##bl": 273,
      "yö": 274,
      "míx": 275,
      "ku": 276,
      "tãîx": 277,
      "si": 278,
      "éx": 279,
      "##óx": 280,
      "séx": 281,
      "yéq": 282,
      "wèx": 283,
      "íyi": 284,
      "ujt": 285,
      "##òx": 286,
      "aû": 287,
      "sul": 288,
      "nã": 289,
      "sã": 290,
      "##rke": 291,
      "##ku": 292,
      "##ta": 293,
      "rö": 294,
      "kãnèx": 295,
      "kàl": 296,
      "èq": 297,
      "kũéx": 298,
      "shk": 299,
      "ba": 300,
      "kal": 301,
      "wèxs": 302,
      "éxn": 303,
      "##tã": 304,
      "##ie": 305,
      "##ur": 306,
      "mĩ": 307,
      "pà": 308,
      "##rë": 309,
      "##es": 310,
      "ẽnã": 311,
      "##mã": 312,
      "ajk": 313,
      "alà": 314,
      "da": 315,
      "kũéxkĩ": 316,
      "##se": 317,
      "##òqke": 318,
      "##köl": 319,
      "##tk": 320,
      "##tà": 321,
      "##wa": 322,
      "##ro": 323,
      "ak": 324,
      "##ir": 325,
      "dal": 326,
      "##èkẽ": 327,
      "##ala": 328,
      "cha": 329,
      "dé": 330,
      "ulà": 331,
      "ãm": 332,
      "##âx": 333,
      "##wẽ": 334,
      "éq": 335,
      "##tsi": 336,
      "sib": 337,
      "##rkẽ": 338,
      "ap": 339,
      "àx": 340,
      "kià": 341,
      "wéq": 342,
      "##li": 343,
      "sibòq": 344,
      "##éqkë": 345,
      "sk": 346,
      "##tke": 347,
      "##ñẽ": 348,
      "##ër": 349,
      "bak": 350,
      "sö": 351,
      "íx": 352,
      "##ba": 353,
      "##òqt": 354,
      "##mẽ": 355,
      "yà": 356,
      "##wak": 357,
      "##ñìx": 358,
      "káxwö": 359,
      "ĩã": 360,
      "##ule": 361,
      "##chi": 362,
      "dòq": 363,
      "bal": 364,
      "wà": 365,
      "##we": 366,
      "##na": 367,
      "##tsã": 368,
      "wak": 369,
      "##er": 370,
      "bul": 371,
      "ĩàx": 372,
      "sĩ": 373,
      "ése": 374,
      "##ás": 375,
      "##io": 376,
      "pë": 377,
      "yòq": 378,
      "##or": 379,
      "ujté": 380,
      "wóq": 381,
      "kíx": 382,
      "icha": 383,
      "##òqk": 384,
      "tkë": 385,
      "##cha": 386,
      "##wéx": 387,
      "kap": 388,
      "kiànã": 389,
      "ñã": 390,
      "##áköl": 391,
      "##éqkëpa": 392,
      "ik": 393,
      "##kòq": 394,
      "##jkë": 395,
      "##bal": 396,
      "##nũk": 397,
      "dawás": 398,
      "sulû": 399,
      "apà": 400,
      "##to": 401,
      "kãnèxbl": 402,
      "##tse": 403,
      "kat": 404,
      "ãñìx": 405,
      "aw": 406,
      "bák": 407,
      "dak": 408,
      "che": 409,
      "##bi": 410,
      "##öm": 411,
      "mĩk": 412,
      "erë": 413,
      "tóq": 414,
      "bu": 415,
      "tt": 416,
      "yì": 417,
      "ñẽ": 418,
      "##ik": 419,
      "##lòq": 420,
      "##lĩ": 421,
      "mãñ": 422,
      "##wèxke": 423,
      "wé": 424,
      "##yök": 425,
      "dë": 426,
      "##jku": 427,
      "sèx": 428,
      "##ulu": 429,
      "##èqnẽ": 430,
      "##ula": 431,
      "éql": 432,
      "kòq": 433,
      "aláköl": 434,
      "tkër": 435,
      "kéx": 436,
      "îx": 437,
      "ta": 438,
      "##bulu": 439,
      "kie": 440,
      "chè": 441,
      "in": 442,
      "##kö": 443,
      "##si": 444,
      "##jka": 445,
      "îxñẽ": 446,
      "pe": 447,
      "yéqs": 448,
      "akéqkëpa": 449,
      "awá": 450,
      "##mùx": 451,
      "##të": 452,
      "bö": 453,
      "##yèq": 454,
      "kalòq": 455,
      "##jkuö": 456,
      "##nĩ": 457,
      "sts": 458,
      "iche": 459,
      "##êx": 460,
      "##ẽn": 461,
      "shùx": 462,
      "dì": 463,
      "súx": 464,
      "##àk": 465,
      "##éqr": 466,
      "##an": 467,
      "##ôq": 468,
      "ichóqk": 469,
      "íxẽ": 470,
      "##te": 471,
      "##ue": 472,
      "kiè": 473,
      "séxjka": 474,
      "##os": 475,
      "alê": 476,
      "##úxk": 477,
      "batà": 478,
      "kóx": 479,
      "##êqr": 480,
      "míxã": 481,
      "ãw": 482,
      "tsir": 483,
      "aì": 484,
      "sí": 485,
      "sùx": 486,
      "ñèx": 487,
      "wéqm": 488,
      "bòqt": 489,
      "ét": 490,
      "mìxk": 491,
      "ák": 492,
      "ĩn": 493,
      "dab": 494,
      "##tãnẽ": 495,
      "##at": 496,
      "tal": 497,
      "##èqnã": 498,
      "##kuòq": 499,
      "yàmĩ": 500,
      "dakar": 501,
      "yul": 502,
      "##ãt": 503,
      "##bèq": 504,
      "tsáx": 505,
      "míxk": 506,
      "dakarò": 507,
      "kuá": 508,
      "wakpa": 509,
      "##ic": 510,
      "##bè": 511,
      "yawè": 512,
      "dù": 513,
      "wâ": 514,
      "##rû": 515,
      "dabò": 516,
      "dar": 517,
      "ya": 518,
      "##ũl": 519,
      "chk": 520,
      "chak": 521,
      "es": 522,
      "tër": 523,
      "tul": 524,
      "##en": 525,
      "kutà": 526,
      "ĩàxnã": 527,
      "ar": 528,
      "wö": 529,
      "##tsẽ": 530,
      "dà": 531,
      "móx": 532,
      "nãñ": 533,
      "yóq": 534,
      "##mbl": 535,
      "##èwã": 536,
      "dià": 537,
      "te": 538,
      "uyèq": 539,
      "##rule": 540,
      "##nõ": 541,
      "##lo": 542,
      "##êqs": 543,
      "káxwöta": 544,
      "uyèqjkuö": 545,
      "mèx": 546,
      "##ac": 547,
      "dawè": 548,
      "köl": 549,
      "bl": 550,
      "ukòq": 551,
      "##ìtãnẽ": 552,
      "##ulâ": 553,
      "sht": 554,
      "bike": 555,
      "wìx": 556,
      "òx": 557,
      "##bla": 558,
      "kũẽ": 559,
      "bit": 560,
      "bikei": 561,
      "kòx": 562,
      "ska": 563,
      "èx": 564,
      "##ska": 565,
      "dìwö": 566,
      "klòq": 567,
      "wák": 568,
      "##ad": 569,
      "##ñã": 570,
      "##îr": 571,
      "chì": 572,
      "ujch": 573,
      "##rmĩ": 574,
      "##màx": 575,
      "dik": 576,
      "bik": 577,
      "nãmùx": 578,
      "##êqrêq": 579,
      "wá": 580,
      "##éxwe": 581,
      "datsi": 582,
      "de": 583,
      "jua": 584,
      "mâx": 585,
      "##as": 586,
      "##re": 587,
      "##töm": 588,
      "wóqk": 589,
      "##ía": 590,
      "##00": 591,
      "tsóx": 592,
      "mìxkã": 593,
      "chìchi": 594,
      "mẽ": 595,
      "##öla": 596,
      "íyiwak": 597,
      "tè": 598,
      "éjkë": 599,
      "##éi": 600,
      "balo": 601,
      "mãñáx": 602,
      "tabè": 603,
      "darêqrêq": 604,
      "nãñéxwe": 605,
      "##tök": 606,
      "alá": 607,
      "##úxköl": 608,
      "##shka": 609,
      "ĩàxnẽ": 610,
      "wóqulâ": 611,
      "##icha": 612,
      "séxrkẽ": 613,
      "##bit": 614,
      "juan": 615,
      "##nẽt": 616,
      "ujtè": 617,
      "sãwèx": 618,
      "bù": 619,
      "kí": 620,
      "ùx": 621,
      "yawóqk": 622,
      "##ra": 623,
      "wake": 624,
      "bits": 625,
      "dabòm": 626,
      "aj": 627,
      "bóq": 628,
      "dur": 629,
      "nẽ": 630,
      "ala": 631,
      "ãmìx": 632,
      "co": 633,
      "nĩ": 634,
      "tka": 635,
      "##ìnẽ": 636,
      "##òqkẽ": 637,
      "alí": 638,
      "kalòqt": 639,
      "ikũ": 640,
      "pá": 641,
      "##ria": 642,
      "ikuòq": 643,
      "ké": 644,
      "##èmĩ": 645,
      "##di": 646,
      "tsîr": 647,
      "dits": 648,
      "àxri": 649,
      "ñãl": 650,
      "blë": 651,
      "ìs": 652,
      "##le": 653,
      "##rie": 654,
      "kanèx": 655,
      "shkèx": 656,
      "kiànẽ": 657,
      "skéx": 658,
      "kũẽkĩ": 659,
      "wóqkir": 660,
      "bêq": 661,
      "##wõ": 662,
      "##òr": 663,
      "##ày": 664,
      "##ón": 665,
      "ulìtãnẽ": 666,
      "mar": 667,
      "túx": 668,
      "##dro": 669,
      "##èxke": 670,
      "mìxnẽ": 671,
      "skà": 672,
      "alákölpa": 673,
      "kòxs": 674,
      "ax": 675,
      "du": 676,
      "mòx": 677,
      "##rak": 678,
      "##blök": 679,
      "sãwéx": 680,
      "pedro": 681,
      "##bitũ": 682,
      "##néx": 683,
      "tsik": 684,
      "ché": 685,
      "tká": 686,
      "íyök": 687,
      "kòqchi": 688,
      "ñãlàx": 689,
      "sòr": 690,
      "èẽ": 691,
      "úx": 692,
      "##so": 693,
      "wòqba": 694,
      "ajkóq": 695,
      "dòqka": 696,
      "wámbl": 697,
      "nĩmàx": 698,
      "##kè": 699,
      "tkéq": 700,
      "sulù": 701,
      "bé": 702,
      "kùx": 703,
      "sku": 704,
      "té": 705,
      "##kua": 706,
      "##râ": 707,
      "bo": 708,
      "##ĩã": 709,
      "tsi": 710,
      "ichàk": 711,
      "ajká": 712,
      "àxs": 713,
      "##balök": 714,
      "sòrbulu": 715,
      "ca": 716,
      "ká": 717,
      "yè": 718,
      "ès": 719,
      "##pi": 720,
      "##tt": 721,
      "##ìnã": 722,
      "töm": 723,
      "ãwíx": 724,
      "yàmĩpa": 725,
      "tulur": 726,
      "kë": 727,
      "kàx": 728,
      "##ali": 729,
      "kib": 730,
      "bá": 731,
      "kóq": 732,
      "saw": 733,
      "##tkë": 734,
      "##mìx": 735,
      "##nc": 736,
      "shkòq": 737,
      "ãñìxes": 738,
      "mãñàx": 739,
      "esc": 740,
      "ujchẽn": 741,
      "maría": 742,
      "kl": 743,
      "kéq": 744,
      "##kũ": 745,
      "##ñíx": 746,
      "##ók": 747,
      "##mĩk": 748,
      "tkòq": 749,
      "ajkòq": 750,
      "bulé": 751,
      "iklòq": 752,
      "kãnèxblök": 753,
      "ãwìx": 754,
      "àxrits": 755,
      "iã": 756,
      "kéqkë": 757,
      "su": 758,
      "##ana": 759,
      "##rö": 760,
      "##il": 761,
      "tsé": 762,
      "##èqr": 763,
      "mãl": 764,
      "nãùx": 765,
      "dalì": 766,
      "bikeitse": 767,
      "ditsòq": 768,
      "..": 769,
      "mîx": 770,
      "ĩẽ": 771,
      "##tu": 772,
      "wéxsh": 773,
      "##kicha": 774,
      "kíxm": 775,
      "##uela": 776,
      "escuela": 777,
      "...": 778,
      "dá": 779,
      "ke": 780,
      "##át": 781,
      "##pë": 782,
      "##ol": 783,
      "##bri": 784,
      "##ni": 785,
      "##ne": 786,
      "tãwèx": 787,
      "chkòq": 788,
      "##óqköl": 789,
      "yòqnẽ": 790,
      "pero": 791,
      "skéxl": 792,
      "bêqrie": 793,
      "##àyë": 794,
      "méx": 795,
      "pp": 796,
      "ĩùx": 797,
      "##res": 798,
      "sarû": 799,
      "dióq": 800,
      "ichà": 801,
      "kãñíx": 802,
      "yéqria": 803,
      "bats": 804,
      "ãméx": 805,
      "íxmã": 806,
      "tsiru": 807,
      "tkabèq": 808,
      "bà": 809,
      "áx": 810,
      "él": 811,
      "##sta": 812,
      "##nd": 813,
      "##úk": 814,
      "##yêqs": 815,
      "tãwéx": 816,
      "tsí": 817,
      "##chka": 818,
      "mãnèx": 819,
      "ĩnúxköl": 820,
      "kàxlĩ": 821,
      "sũl": 822,
      "tàyë": 823,
      "##in": 824,
      "##tẽ": 825,
      "##nto": 826,
      "##âr": 827,
      "tsë": 828,
      "chã": 829,
      "katà": 830,
      "##ion": 831,
      "kéxwe": 832,
      "ukòqki": 833,
      "kibí": 834,
      "sũlìx": 835,
      "béq": 836,
      "ci": 837,
      "kua": 838,
      "la": 839,
      "no": 840,
      "wôq": 841,
      "yêqs": 842,
      "ñáx": 843,
      "##dë": 844,
      "##dad": 845,
      "yawèke": 846,
      "shkóqk": 847,
      "apàio": 848,
      "kéxk": 849,
      "##tökicha": 850,
      "shkèxnã": 851,
      "wéxshkẽ": 852,
      "sarûrû": 853,
      "yêqsyêqs": 854,
      "núx": 855,
      "yèqnẽ": 856,
      "##pp": 857,
      "##éwa": 858,
      "ali": 859,
      "míxshka": 860,
      "tãîxë": 861,
      "pàk": 862,
      "alàr": 863,
      "sèxrke": 864,
      "móxki": 865,
      "##aca": 866,
      "ajá": 867,
      "bì": 868,
      "kẽ": 869,
      "sũ": 870,
      "vaca": 871,
      "ĩâx": 872,
      "##rí": 873,
      "##mp": 874,
      "##uk": 875,
      "tsur": 876,
      "diòq": 877,
      "biy": 878,
      "mìxke": 879,
      "kàlula": 880,
      "sèxnẽ": 881,
      "dikìx": 882,
      "dó": 883,
      "ùsh": 884,
      "ẽmã": 885,
      "##ár": 886,
      "##áala": 887,
      "##kal": 888,
      "##lô": 889,
      "##ci": 890,
      "tsã": 891,
      "##áxkĩ": 892,
      "wéxjkë": 893,
      "káxwötã": 894,
      "súxrule": 895,
      "bùsi": 896,
      "axmìx": 897,
      "ajkách": 898,
      "tsuru": 899,
      "car": 900,
      "kè": 901,
      "##rì": 902,
      "##rkã": 903,
      "##éwã": 904,
      "##úl": 905,
      "tsìx": 906,
      "##këpa": 907,
      "sãũk": 908,
      "wìxke": 909,
      "déq": 910,
      "iki": 911,
      "tri": 912,
      "wì": 913,
      "##rpa": 914,
      "##mb": 915,
      "##mõ": 916,
      "dich": 917,
      "##tsitsi": 918,
      "sulûë": 919,
      "ttè": 920,
      "éqltë": 921,
      "kuátk": 922,
      "bóql": 923,
      "bét": 924,
      "iklòqwẽ": 925,
      "mîxkẽ": 926,
      "ish": 927,
      "tòq": 928,
      "##ànã": 929,
      "##ff": 930,
      "kabèq": 931,
      "tkî": 932,
      "tkèq": 933,
      "èqmẽ": 934,
      "bat": 935,
      "yàbulu": 936,
      "dòqmĩ": 937,
      "kíxmẽ": 938,
      "ñèxẽ": 939,
      "chkì": 940,
      "mãñáxl": 941,
      "alátsitsi": 942,
      "tkéql": 943,
      "chãmùx": 944,
      "biyòq": 945,
      "mũl": 946,
      "èk": 947,
      "èköl": 948,
      "íke": 949,
      "ímã": 950,
      "##án": 951,
      "##tö": 952,
      "##sã": 953,
      "##mo": 954,
      "tãìx": 955,
      "##alè": 956,
      "##ulur": 957,
      "##uaa": 958,
      "ajkà": 959,
      "wéqpa": 960,
      "aìẽ": 961,
      "kãñíxk": 962,
      "dâ": 963,
      "kéqkëpa": 964,
      "tó": 965,
      "tch": 966,
      "àsh": 967,
      "##pàk": 968,
      "##ti": 969,
      "##nêx": 970,
      "##ca": 971,
      "##tsĩ": 972,
      "nãĩ": 973,
      "##kuö": 974,
      "akõ": 975,
      "ãmèx": 976,
      "##ere": 977,
      "bikeits": 978,
      "bí": 979,
      "bòq": 980,
      "eh": 981,
      "múx": 982,
      "por": 983,
      "ñéx": 984,
      "ñìx": 985,
      "##wöla": 986,
      "##is": 987,
      "##ãki": 988,
      "##yal": 989,
      "tsa": 990,
      "tsè": 991,
      "chi": 992,
      "ulát": 993,
      "dékã": 994,
      "teat": 995,
      "tèr": 996,
      "ikũáxkĩ": 997,
      "kak": 998,
      "wîx": 999,
      "yé": 1000,
      "yèq": 1001,
      "##tẽn": 1002,
      "##úr": 1003,
      "##ànẽ": 1004,
      "##nãwã": 1005,
      "wambl": 1006,
      "wòqsh": 1007,
      "yawòqk": 1008,
      "##wèxkẽ": 1009,
      "kuk": 1010,
      "pàke": 1011,
      "ajku": 1012,
      "dalô": 1013,
      "àxnẽ": 1014,
      "bakdë": 1015,
      "sĩnĩ": 1016,
      "inùx": 1017,
      "awápa": 1018,
      "sùxnẽ": 1019,
      "bitùx": 1020,
      "këkëpa": 1021,
      "mãléx": 1022,
      "béqrë": 1023,
      "ah": 1024,
      "bòqk": 1025,
      "kù": 1026,
      "ãl": 1027,
      "##pà": 1028,
      "##sẽ": 1029,
      "##ûx": 1030,
      "##óqli": 1031,
      "káxm": 1032,
      "dawe": 1033,
      "sãúxk": 1034,
      "èqk": 1035,
      "indi": 1036,
      "tsirí": 1037,
      "bèq": 1038,
      "bri": 1039,
      "so": 1040,
      "u2": 1041,
      "yök": 1042,
      "yèqnã": 1043,
      "##ẽt": 1044,
      "##ma": 1045,
      "##man": 1046,
      "##bala": 1047,
      "##no": 1048,
      "##lur": 1049,
      "dióqköl": 1050,
      "kab": 1051,
      "##jkö": 1052,
      "##shẽt": 1053,
      "sãwèxke": 1054,
      "shkòqke": 1055,
      "dayèq": 1056,
      "sĩwã": 1057,
      "wóqs": 1058,
      "katèkẽ": 1059,
      "buáala": 1060,
      "kalòqio": 1061,
      "tabèchka": 1062,
      "kím": 1063,
      "skuèq": 1064,
      "kápi": 1065,
      "diché": 1066,
      "dalôlô": 1067,
      "19": 1068,
      "aku": 1069,
      "kúl": 1070,
      "sì": 1071,
      "tala": 1072,
      "íñẽ": 1073,
      "##pá": 1074,
      "##pòq": 1075,
      "##ina": 1076,
      "##ug": 1077,
      "##alar": 1078,
      "##chà": 1079,
      "##jkêx": 1080,
      "dawö": 1081,
      "yawé": 1082,
      "míxkẽ": 1083,
      "shkè": 1084,
      "##ien": 1085,
      "pàl": 1086,
      "akà": 1087,
      "bulâ": 1088,
      "móxköl": 1089,
      "bikéi": 1090,
      "kùxnẽ": 1091,
      "alàralar": 1092,
      "tchõ": 1093,
      "dúk": 1094,
      "ié": 1095,
      "ièq": 1096,
      "kò": 1097,
      "ra": 1098,
      "rak": 1099,
      "wër": 1100,
      "íẽ": 1101,
      "##krâ": 1102,
      "##ĩâx": 1103,
      "##sir": 1104,
      "##go": 1105,
      "##âk": 1106,
      "chèke": 1107,
      "kũèx": 1108,
      "sula": 1109,
      "daléqr": 1110,
      "ské": 1111,
      "dàtsĩ": 1112,
      "kalòqte": 1113,
      "wòqbatse": 1114,
      "mãñàxt": 1115,
      "ichàke": 1116,
      "teatro": 1117,
      "aí": 1118,
      "dö": 1119,
      "ento": 1120,
      "it": 1121,
      "tóqk": 1122,
      "wè": 1123,
      "àk": 1124,
      "èt": 1125,
      "êska": 1126,
      "ët": 1127,
      "tsu": 1128,
      "tsì": 1129,
      "##nãmã": 1130,
      "##nãmẽ": 1131,
      "wéxse": 1132,
      "tkòqke": 1133,
      "kãn": 1134,
      "ujtòq": 1135,
      "ujtóqk": 1136,
      "kalé": 1137,
      "pàtk": 1138,
      "yòqkĩ": 1139,
      "##ikal": 1140,
      "sèxnũk": 1141,
      "inúxköl": 1142,
      "chakà": 1143,
      "wóqulârke": 1144,
      "wòqbats": 1145,
      "bola": 1146,
      "##nces": 1147,
      "ĩùxt": 1148,
      "kéxkkrâ": 1149,
      "tèröl": 1150,
      "bribri": 1151,
      "entonces": 1152,
      "êskapë": 1153,
      "dóq": 1154,
      "fff": 1155,
      "ióqk": 1156,
      "li": 1157,
      "pul": 1158,
      "taw": 1159,
      "we": 1160,
      "áie": 1161,
      "ês": 1162,
      "òq": 1163,
      "##wóq": 1164,
      "##que": 1165,
      "##id": 1166,
      "##lor": 1167,
      "##xas": 1168,
      "tsak": 1169,
      "tsèqnẽ": 1170,
      "##che": 1171,
      "##cho": 1172,
      "alâr": 1173,
      "##rio": 1174,
      "kièkẽ": 1175,
      "tkè": 1176,
      "dawà": 1177,
      "##tkö": 1178,
      "##ros": 1179,
      "dalòq": 1180,
      "apá": 1181,
      "katè": 1182,
      "buà": 1183,
      "##nĩã": 1184,
      "kóxpàk": 1185,
      "talók": 1186,
      "##ico": 1187,
      "texas": 1188,
      "ikũãki": 1189,
      "nãùxy": 1190,
      "ĩâxĩâx": 1191,
      "tãìxë": 1192,
      "tótt": 1193,
      "yawòqkbla": 1194,
      "ir": 1195,
      "oh": 1196,
      "páx": 1197,
      "të": 1198,
      "téx": 1199,
      "tak": 1200,
      "wẽ": 1201,
      "wí": 1202,
      "yóqk": 1203,
      "áb": 1204,
      "##ión": 1205,
      "##tër": 1206,
      "##ówã": 1207,
      "##òqwã": 1208,
      "tséx": 1209,
      "tsîx": 1210,
      "##èqkë": 1211,
      "sem": 1212,
      "##pake": 1213,
      "kièke": 1214,
      "séxn": 1215,
      "##tad": 1216,
      "kapóqli": 1217,
      "kãnèxblö": 1218,
      "dìba": 1219,
      "##éqrule": 1220,
      "dabòp": 1221,
      "diàẽ": 1222,
      "dawèie": 1223,
      "ukòqkĩ": 1224,
      "bitéx": 1225,
      "mãñáxt": 1226,
      "klóq": 1227,
      "indiana": 1228,
      "ábion": 1229,
      "aug": 1230,
      "bêqr": 1231,
      "dul": 1232,
      "mõ": 1233,
      "pi": 1234,
      "sà": 1235,
      "tèke": 1236,
      "éwa": 1237,
      "óx": 1238,
      "##ike": 1239,
      "##usta": 1240,
      "##dal": 1241,
      "##ve": 1242,
      "##chke": 1243,
      "##tsí": 1244,
      "##aka": 1245,
      "##shùx": 1246,
      "sulìtãnẽ": 1247,
      "sãúx": 1248,
      "kãnèxwèxke": 1249,
      "àxnã": 1250,
      "##ora": 1251,
      "kãnèxblòqke": 1252,
      "tsirì": 1253,
      "sùxmã": 1254,
      "wânãmã": 1255,
      "chakì": 1256,
      "dikó": 1257,
      "wámblök": 1258,
      "wìxkela": 1259,
      "trini": 1260,
      "wìm": 1261,
      "ajkuòq": 1262,
      "èqkèqkë": 1263,
      "##manca": 1264,
      "talamanca": 1265,
      "augusta": 1266,
      "akuòq": 1267,
      "dí": 1268,
      "her": 1269,
      "kúx": 1270,
      "kula": 1271,
      "ma": 1272,
      "màx": 1273,
      "púx": 1274,
      "só": 1275,
      "ètöm": 1276,
      "ĩñã": 1277,
      "##wîx": 1278,
      "##po": 1279,
      "##pala": 1280,
      "##et": 1281,
      "##ík": 1282,
      "##nàx": 1283,
      "##nán": 1284,
      "##ài": 1285,
      "tsk": 1286,
      "tsèq": 1287,
      "tsàx": 1288,
      "tsòqke": 1289,
      "chòq": 1290,
      "káxpake": 1291,
      "shòx": 1292,
      "wòqk": 1293,
      "wéxalè": 1294,
      "##tko": 1295,
      "daló": 1296,
      "débitũ": 1297,
      "apë": 1298,
      "ttòq": 1299,
      "##nĩk": 1300,
      "ñèxke": 1301,
      "tsáxka": 1302,
      "tsáxlĩ": 1303,
      "wákpa": 1304,
      "cabal": 1305,
      "ikiànã": 1306,
      "isht": 1307,
      "sìkua": 1308,
      "wòqbatsö": 1309,
      "tsîxnẽt": 1310,
      "hernán": 1311,
      "ab": 1312,
      "iè": 1313,
      "pû": 1314,
      "èka": 1315,
      "ũj": 1316,
      "##wë": 1317,
      "##mba": 1318,
      "##bö": 1319,
      "##udad": 1320,
      "##lẽ": 1321,
      "##los": 1322,
      "##ôë": 1323,
      "tsòq": 1324,
      "alè": 1325,
      "kir": 1326,
      "yawök": 1327,
      "##blö": 1328,
      "sulèq": 1329,
      "daléq": 1330,
      "wàtã": 1331,
      "bulu": 1332,
      "kékã": 1333,
      "axñìx": 1334,
      "élke": 1335,
      "ciudad": 1336,
      "pàkök": 1337,
      "ùshikal": 1338,
      "porque": 1339,
      "wîxke": 1340,
      "káxmîx": 1341,
      "bikéitse": 1342,
      "kalépa": 1343,
      "##tsítsi": 1344,
      "caballo": 1345,
      "pûs": 1346,
      "dere": 1347,
      "jo": 1348,
      "kö": 1349,
      "máx": 1350,
      "mil": 1351,
      "yèke": 1352,
      "##ia": 1353,
      "##mm": 1354,
      "##ékã": 1355,
      "##öö": 1356,
      "##ùù": 1357,
      "##ôx": 1358,
      "tãíx": 1359,
      "##ale": 1360,
      "##tsë": 1361,
      "káxjkêx": 1362,
      "shak": 1363,
      "mìxã": 1364,
      "siòx": 1365,
      "##kue": 1366,
      "daléwa": 1367,
      "ãmẽ": 1368,
      "éqwë": 1369,
      "##lim": 1370,
      "íxs": 1371,
      "##bata": 1372,
      "sĩàx": 1373,
      "wéblök": 1374,
      "wébalök": 1375,
      "bòqtöm": 1376,
      "dàmĩ": 1377,
      "##ación": 1378,
      "òxmĩk": 1379,
      "##ñãk": 1380,
      "mẽr": 1381,
      "bitséi": 1382,
      "úxrkẽ": 1383,
      "ajkóqnũk": 1384,
      "tsiki": 1385,
      "bánẽt": 1386,
      "kéqkëla": 1387,
      "wôqke": 1388,
      "##mona": 1389,
      "ramona": 1390,
      "kãnòx": 1391,
      "##shùxã": 1392,
      "derecho": 1393,
      "100": 1394,
      "is": 1395,
      "kák": 1396,
      "tô": 1397,
      "tke": 1398,
      "wë": 1399,
      "yë": 1400,
      "àlim": 1401,
      "ãñ": 1402,
      "érë": 1403,
      "##òò": 1404,
      "##tak": 1405,
      "##méx": 1406,
      "##bë": 1407,
      "##és": 1408,
      "##nũ": 1409,
      "##ls": 1410,
      "##jkẽ": 1411,
      "##dak": 1412,
      "##fo": 1413,
      "tsúx": 1414,
      "##èxkẽ": 1415,
      "##óqwã": 1416,
      "mãnéx": 1417,
      "mìxr": 1418,
      "kàch": 1419,
      "shkóq": 1420,
      "pàköl": 1421,
      "ãmíx": 1422,
      "àxtẽ": 1423,
      "##lia": 1424,
      "dòqkã": 1425,
      "bulù": 1426,
      "yòqki": 1427,
      "ĩnùx": 1428,
      "yulóqk": 1429,
      "tsóxlĩ": 1430,
      "tsikìnẽ": 1431,
      "sulùë": 1432,
      "bétk": 1433,
      "bìt": 1434,
      "batör": 1435,
      "bíl": 1436,
      "wóqsũk": 1437,
      "##pátsi": 1438,
      "páxlĩ": 1439,
      "sàl": 1440,
      "##àiö": 1441,
      "ana": 1442,
      "cu": 1443,
      "jkö": 1444,
      "lo": 1445,
      "mu": 1446,
      "mmm": 1447,
      "sẽn": 1448,
      "sûx": 1449,
      "téq": 1450,
      "uni": 1451,
      "átu": 1452,
      "ñàx": 1453,
      "újkö": 1454,
      "ĩéx": 1455,
      "##pe": 1456,
      "##ru": 1457,
      "##ẽr": 1458,
      "##lîx": 1459,
      "##co": 1460,
      "##de": 1461,
      "##ver": 1462,
      "##èxr": 1463,
      "##tsa": 1464,
      "chal": 1465,
      "chéq": 1466,
      "##rikĩ": 1467,
      "san": 1468,
      "wòqs": 1469,
      "wòqbla": 1470,
      "tké": 1471,
      "##jkèx": 1472,
      "##kili": 1473,
      "kàsir": 1474,
      "yawóq": 1475,
      "séxrke": 1476,
      "éxnũk": 1477,
      "akèq": 1478,
      "démĩ": 1479,
      "ãmèxke": 1480,
      "balí": 1481,
      "yòqnã": 1482,
      "kapòq": 1483,
      "síwèxke": 1484,
      "yóqrke": 1485,
      "tsikí": 1486,
      "tsipátsi": 1487,
      "##ing": 1488,
      "sũwèx": 1489,
      "carlos": 1490,
      "pulèq": 1491,
      "bitséits": 1492,
      "en": 1493,
      "iòx": 1494,
      "kul": 1495,
      "là": 1496,
      "söla": 1497,
      "ti": 1498,
      "to": 1499,
      "tùx": 1500,
      "yík": 1501,
      "##rù": 1502,
      "##ròq": 1503,
      "##iòx": 1504,
      "##tá": 1505,
      "##tro": 1506,
      "##éwö": 1507,
      "##ènẽ": 1508,
      "##ues": 1509,
      "##lé": 1510,
      "##lö": 1511,
      "chóqk": 1512,
      "káxshùxã": 1513,
      "kichà": 1514,
      "shàx": 1515,
      "shkã": 1516,
      "ichèmĩ": 1517,
      "wòqa": 1518,
      "tkóq": 1519,
      "kãnõ": 1520,
      "##êqtẽn": 1521,
      "mìxwöla": 1522,
      "yawòqke": 1523,
      "míxke": 1524,
      "kuóq": 1525,
      "sulà": 1526,
      "nãmàx": 1527,
      "##mãlẽ": 1528,
      "##òqkewã": 1529,
      "wéqs": 1530,
      "wéqtsë": 1531,
      "ujtéwã": 1532,
      "kíxka": 1533,
      "kapé": 1534,
      "katèke": 1535,
      "stsa": 1536,
      "stsòq": 1537,
      "talá": 1538,
      "yóqrule": 1539,
      "##nõk": 1540,
      "klòqwẽ": 1541,
      "mẽrkã": 1542,
      "bitsîx": 1543,
      "ajkẽ": 1544,
      "duw": 1545,
      "kóqt": 1546,
      "##tkër": 1547,
      "tsítsi": 1548,
      "alátsitsipa": 1549,
      "mãléxpa": 1550,
      "ahora": 1551,
      "kabàiö": 1552,
      "iéjkë": 1553,
      "ũjúx": 1554,
      "brì": 1555,
      "do": 1556,
      "ju": 1557,
      "le": 1558,
      "mũ": 1559,
      "na": 1560,
      "po": 1561,
      "pres": 1562,
      "séq": 1563,
      "tóx": 1564,
      "ur": 1565,
      "ís": 1566,
      "ñĩ": 1567,
      "ñíx": 1568,
      "##ál": 1569,
      "##pâ": 1570,
      "##rwã": 1571,
      "##iki": 1572,
      "##tal": 1573,
      "##mũ": 1574,
      "##us": 1575,
      "##ùnẽ": 1576,
      "##vo": 1577,
      "tsúxk": 1578,
      "##chö": 1579,
      "##chaka": 1580,
      "chka": 1581,
      "chòqke": 1582,
      "alat": 1583,
      "shka": 1584,
      "wòqtke": 1585,
      "##nèxke": 1586,
      "bikili": 1587,
      "yawèkẽ": 1588,
      "##wèxmĩ": 1589,
      "##ble": 1590,
      "kãnèxũk": 1591,
      "kalóq": 1592,
      "pàka": 1593,
      "ulàr": 1594,
      "balë": 1595,
      "yòqr": 1596,
      "##òqko": 1597,
      "apàk": 1598,
      "##tos": 1599,
      "##bita": 1600,
      "ttòqke": 1601,
      "sík": 1602,
      "ĩnúxk": 1603,
      "talànẽ": 1604,
      "yulár": 1605,
      "chkà": 1606,
      "dàtsẽ": 1607,
      "òxr": 1608,
      "##îrî": 1609,
      "bikâk": 1610,
      "wóqulâũk": 1611,
      "bêqrë": 1612,
      "tsikìnã": 1613,
      "tkámĩ": 1614,
      "sawéq": 1615,
      "kéqpa": 1616,
      "kéxkra": 1617,
      "mũlùx": 1618,
      "ãmèxnẽ": 1619,
      "wòqshàx": 1620,
      "wíköl": 1621,
      "semana": 1622,
      "brìbri": 1623,
      "10": 1624,
      "béqr": 1625,
      "cien": 1626,
      "ia": 1627,
      "mes": 1628,
      "of": 1629,
      "tar": 1630,
      "tèkẽ": 1631,
      "tèqnã": 1632,
      "tèwã": 1633,
      "tẽr": 1634,
      "ûrikĩ": 1635,
      "##wĩ": 1636,
      "##wóx": 1637,
      "##kà": 1638,
      "##kèwã": 1639,
      "##mèx": 1640,
      "##bu": 1641,
      "##éköl": 1642,
      "##nâx": 1643,
      "##um": 1644,
      "##yë": 1645,
      "##àlia": 1646,
      "##cie": 1647,
      "##va": 1648,
      "tsòqk": 1649,
      "tökicha": 1650,
      "##chök": 1651,
      "##tsök": 1652,
      "##tsir": 1653,
      "aló": 1654,
      "wash": 1655,
      "##ùxkẽ": 1656,
      "##óqkicha": 1657,
      "##óqknãmẽ": 1658,
      "ichè": 1659,
      "tkèkẽ": 1660,
      "ulí": 1661,
      "ulâ": 1662,
      "##wèxwã": 1663,
      "éxmã": 1664,
      "yéqpa": 1665,
      "##kuak": 1666,
      "kãnèxõ": 1667,
      "dénẽ": 1668,
      "ãmõ": 1669,
      "##lis": 1670,
      "##tkenẽ": 1671,
      "yànẽ": 1672,
      "sĩõ": 1673,
      "sĩêx": 1674,
      "##ton": 1675,
      "tté": 1676,
      "kuáblök": 1677,
      "chakè": 1678,
      "##ente": 1679,
      "##enne": 1680,
      "bitũ": 1681,
      "mâxtk": 1682,
      "tsóxtã": 1683,
      "durkĩ": 1684,
      "con": 1685,
      "ikuòqwö": 1686,
      "túxnũk": 1687,
      "mìxnẽyal": 1688,
      "ichàkök": 1689,
      "##ttö": 1690,
      "àxritsök": 1691,
      "##oló": 1692,
      "bàka": 1693,
      "wôqik": 1694,
      "kuátkök": 1695,
      "tkînẽ": 1696,
      "tsiríwẽ": 1697,
      "itòq": 1698,
      "kóxpàkök": 1699,
      "tóttô": 1700,
      "irt": 1701,
      "pilo": 1702,
      "màxso": 1703,
      "##ington": 1704,
      "ñíxwe": 1705,
      "bikâkala": 1706,
      "mesa": 1707,
      "washington": 1708,
      "20": 1709,
      "bar": 1710,
      "dèq": 1711,
      "je": 1712,
      "mũk": 1713,
      "or": 1714,
      "pú": 1715,
      "péq": 1716,
      "pàx": 1717,
      "ri": 1718,
      "rë": 1719,
      "st": 1720,
      "tá": 1721,
      "tĩ": 1722,
      "ták": 1723,
      "ve": 1724,
      "wêq": 1725,
      "yi": 1726,
      "yu": 1727,
      "àr": 1728,
      "ãt": 1729,
      "èse": 1730,
      "íjkë": 1731,
      "ñîx": 1732,
      "ñêx": 1733,
      "ók": 1734,
      "ũk": 1735,
      "##wáx": 1736,
      "##ám": 1737,
      "##aa": 1738,
      "##rô": 1739,
      "##rkĩ": 1740,
      "##rkũ": 1741,
      "##eli": 1742,
      "##ël": 1743,
      "##ttsã": 1744,
      "##ter": 1745,
      "##söl": 1746,
      "##lóq": 1747,
      "##les": 1748,
      "##ya": 1749,
      "##yóq": 1750,
      "##gan": 1751,
      "##âl": 1752,
      "##da": 1753,
      "tsèx": 1754,
      "##èqk": 1755,
      "chòò": 1756,
      "kipòq": 1757,
      "wòqtkë": 1758,
      "wòqbala": 1759,
      "tkéqr": 1760,
      "mãnêx": 1761,
      "kãnéx": 1762,
      "ujú": 1763,
      "yéqblök": 1764,
      "##kur": 1765,
      "kãnèxbalök": 1766,
      "kàlwak": 1767,
      "mĩr": 1768,
      "pàtã": 1769,
      "akák": 1770,
      "##bali": 1771,
      "##bisã": 1772,
      "ttèke": 1773,
      "ttèwã": 1774,
      "sèxnõ": 1775,
      "kéxska": 1776,
      "shùxsh": 1777,
      "ichóqkle": 1778,
      "síkua": 1779,
      "bòqtök": 1780,
      "talà": 1781,
      "##ica": 1782,
      "##icos": 1783,
      "wâñẽ": 1784,
      "tulúr": 1785,
      "##eno": 1786,
      "arkĩ": 1787,
      "òxnẽ": 1788,
      "èxë": 1789,
      "darêqrêqë": 1790,
      "aláala": 1791,
      "kalòqtök": 1792,
      "ditséwö": 1793,
      "kanèxblö": 1794,
      "mìxnẽã": 1795,
      "wámblèke": 1796,
      "bomba": 1797,
      "ichàkèke": 1798,
      "camp": 1799,
      "tkòqmĩ": 1800,
      "mãlíx": 1801,
      "kíxmũk": 1802,
      "ppèke": 1803,
      "ãméxãt": 1804,
      "bàts": 1805,
      "ajkáchök": 1806,
      "tsìxnẽt": 1807,
      "trinĩ": 1808,
      "yèqri": 1809,
      "kéxkkrâë": 1810,
      "tôt": 1811,
      "ajkẽn": 1812,
      "presid": 1813,
      "alattsítsi": 1814,
      "àrros": 1815,
      "and": 1816,
      "bàk": 1817,
      "dòqke": 1818,
      "fac": 1819,
      "iku": 1820,
      "iska": 1821,
      "kó": 1822,
      "môx": 1823,
      "pó": 1824,
      "pro": 1825,
      "que": 1826,
      "re": 1827,
      "tũ": 1828,
      "us": 1829,
      "wíx": 1830,
      "èrpa": 1831,
      "êt": 1832,
      "êrë": 1833,
      "##kõ": 1834,
      "##el": 1835,
      "##tar": 1836,
      "##tur": 1837,
      "##stsã": 1838,
      "##sik": 1839,
      "##mâx": 1840,
      "##mèxke": 1841,
      "##bak": 1842,
      "##ber": 1843,
      "##èe": 1844,
      "##núx": 1845,
      "##nta": 1846,
      "##lôq": 1847,
      "##cula": 1848,
      "##âũk": 1849,
      "##dy": 1850,
      "##dala": 1851,
      "tséq": 1852,
      "tsèke": 1853,
      "##éxk": 1854,
      "##ultad": 1855,
      "chó": 1856,
      "iché": 1857,
      "kũl": 1858,
      "wéxs": 1859,
      "dawa": 1860,
      "dawówã": 1861,
      "##bli": 1862,
      "kuèq": 1863,
      "sulày": 1864,
      "sãwẽ": 1865,
      "shkó": 1866,
      "shkòqkẽ": 1867,
      "bach": 1868,
      "pàio": 1869,
      "##seo": 1870,
      "##tkök": 1871,
      "akéq": 1872,
      "dalôq": 1873,
      "ãmùx": 1874,
      "apéi": 1875,
      "sibòqkõ": 1876,
      "skáx": 1877,
      "bakmĩ": 1878,
      "bakali": 1879,
      "##tsãnẽ": 1880,
      "bulú": 1881,
      "ikal": 1882,
      "kãnèxblòq": 1883,
      "dakí": 1884,
      "tã": 1885,
      "kalòqka": 1886,
      "stsóqk": 1887,
      "##osé": 1888,
      "kóxjkèx": 1889,
      "yulè": 1890,
      "yulèke": 1891,
      "tsáxtã": 1892,
      "shtèke": 1893,
      "èxnĩã": 1894,
      "ujchẽ": 1895,
      "mâxũk": 1896,
      "mòxso": 1897,
      "##kètke": 1898,
      "tsiòq": 1899,
      "àxritsè": 1900,
      "ichàki": 1901,
      "tsítsir": 1902,
      "dâtsẽ": 1903,
      "kakmẽ": 1904,
      "wamblër": 1905,
      "kukù": 1906,
      "bèqrie": 1907,
      "kímũk": 1908,
      "bulâmẽ": 1909,
      "kòke": 1910,
      "tsìr": 1911,
      "lib": 1912,
      "tawàlia": 1913,
      "##polis": 1914,
      "èkapë": 1915,
      "joe": 1916,
      "museo": 1917,
      "ĩéxn": 1918,
      "ísie": 1919,
      "ofic": 1920,
      "ulítãnẽ": 1921,
      "pilotos": 1922,
      "ñêxes": 1923,
      "bòqtökicha": 1924,
      "tôtô": 1925,
      "facultad": 1926,
      "sibòqkõmõ": 1927,
      "000": 1928,
      "aula": 1929,
      "bròq": 1930,
      "cor": 1931,
      "ej": 1932,
      "ièqnã": 1933,
      "irí": 1934,
      "imp": 1935,
      "jts": 1936,
      "josé": 1937,
      "kèke": 1938,
      "mi": 1939,
      "me": 1940,
      "nêx": 1941,
      "pé": 1942,
      "páköl": 1943,
      "sáx": 1944,
      "sak": 1945,
      "tu": 1946,
      "táx": 1947,
      "wèkẽ": 1948,
      "yú": 1949,
      "yèkẽ": 1950,
      "âr": 1951,
      "ãj": 1952,
      "èrë": 1953,
      "éẽ": 1954,
      "émã": 1955,
      "étk": 1956,
      "éyök": 1957,
      "êk": 1958,
      "íse": 1959,
      "ònẽ": 1960,
      "##ámĩ": 1961,
      "##ála": 1962,
      "##ppa": 1963,
      "##per": 1964,
      "##ònẽ": 1965,
      "##ko": 1966,
      "##rd": 1967,
      "##rîrî": 1968,
      "##iã": 1969,
      "##mi": 1970,
      "##món": 1971,
      "##úsi": 1972,
      "##ye": 1973,
      "##àmĩ": 1974,
      "##âba": 1975,
      "##dula": 1976,
      "tsíx": 1977,
      "tsër": 1978,
      "##alala": 1979,
      "ale": 1980,
      "wòqi": 1981,
      "wòqki": 1982,
      "wòqtk": 1983,
      "##kãt": 1984,
      "yawó": 1985,
      "kuèke": 1986,
      "kuéwã": 1987,
      "yéqrkẽ": 1988,
      "kãnèxwèx": 1989,
      "kalí": 1990,
      "ajkéx": 1991,
      "##wã": 1992,
      "##âxã": 1993,
      "dòqnẽ": 1994,
      "katé": 1995,
      "##jkue": 1996,
      "##sia": 1997,
      "shùxã": 1998,
      "##ann": 1999,
      "kóxlĩ": 2000,
      "estad": 2001,
      "tele": 2002,
      "##blapa": 2003,
      "kũẽki": 2004,
      "mâxmã": 2005,
      "kínèxke": 2006,
      "kanèxbal": 2007,
      "##son": 2008,
      "ditsòqwö": 2009,
      "ppé": 2010,
      "batsìx": 2011,
      "##stasia": 2012,
      "katànõk": 2013,
      "##iones": 2014,
      "ĩâxch": 2015,
      "dómĩ": 2016,
      "tsãnèx": 2017,
      "##mbu": 2018,
      "chichi": 2019,
      "wòqshki": 2020,
      "inùxk": 2021,
      "mãléxk": 2022,
      "ãlìx": 2023,
      "socie": 2024,
      "limón": 2025,
      "nãùxyöla": 2026,
      "yawòqkblapa": 2027,
      "tskìnẽ": 2028,
      "tsèqrke": 2029,
      "wòqklòq": 2030,
      "ãmíxla": 2031,
      "cuba": 2032,
      "univer": 2033,
      "tsikírkẽ": 2034,
      "kuóqska": 2035,
      "nãmàxsöl": 2036,
      "wéqstë": 2037,
      "kalóqm": 2038,
      "##âlâ": 2039,
      "mãnêxnêx": 2040,
      "presidente": 2041,
      "dalôqlôq": 2042,
      "libro": 2043,
      "nêxnẽ": 2044,
      "universi": 2045,
      "añìx": 2046,
      "bú": 2047,
      "bóqk": 2048,
      "bur": 2049,
      "cl": 2050,
      "cen": 2051,
      "dè": 2052,
      "dóqk": 2053,
      "eẽ": 2054,
      "has": 2055,
      "hum": 2056,
      "iõ": 2057,
      "kenne": 2058,
      "láköl": 2059,
      "pôë": 2060,
      "rök": 2061,
      "tẽn": 2062,
      "ukö": 2063,
      "wèqk": 2064,
      "âx": 2065,
      "ãmĩ": 2066,
      "óq": 2067,
      "##ádula": 2068,
      "##qu": 2069,
      "##kóq": 2070,
      "##rat": 2071,
      "##iz": 2072,
      "##sti": 2073,
      "##osh": 2074,
      "##me": 2075,
      "##móx": 2076,
      "##mas": 2077,
      "##bër": 2078,
      "##ít": 2079,
      "##nîx": 2080,
      "##lí": 2081,
      "##ll": 2082,
      "##öt": 2083,
      "##yú": 2084,
      "##yaw": 2085,
      "##yar": 2086,
      "##àwã": 2087,
      "##ck": 2088,
      "##jàx": 2089,
      "##vi": 2090,
      "##vic": 2091,
      "tãúxk": 2092,
      "tsaw": 2093,
      "tsũk": 2094,
      "##èxn": 2095,
      "##alo": 2096,
      "##ales": 2097,
      "##tska": 2098,
      "chèxr": 2099,
      "alóqk": 2100,
      "alfo": 2101,
      "kié": 2102,
      "kirí": 2103,
      "shu": 2104,
      "shúx": 2105,
      "ichèke": 2106,
      "##wãmĩ": 2107,
      "wòqts": 2108,
      "wòqtë": 2109,
      "tkóqk": 2110,
      "tkèke": 2111,
      "##ara": 2112,
      "##shdal": 2113,
      "##blë": 2114,
      "míxtke": 2115,
      "éxnẽ": 2116,
      "éxrke": 2117,
      "ujtèkẽ": 2118,
      "ujtèwã": 2119,
      "##tas": 2120,
      "kàlwö": 2121,
      "kalôq": 2122,
      "alàla": 2123,
      "##tkè": 2124,
      "àxtã": 2125,
      "wéqbala": 2126,
      "wàt": 2127,
      "##erson": 2128,
      "bulámĩ": 2129,
      "sĩwéx": 2130,
      "##ord": 2131,
      "wóqrkĩ": 2132,
      "kapòqkewã": 2133,
      "iklóq": 2134,
      "kãnèxblë": 2135,
      "buk": 2136,
      "buyú": 2137,
      "ttök": 2138,
      "yéqska": 2139,
      "kalòqjkuö": 2140,
      "stsö": 2141,
      "##ano": 2142,
      "ñèxkẽ": 2143,
      "chkè": 2144,
      "mèxnẽ": 2145,
      "kòxmĩ": 2146,
      "##ados": 2147,
      "conc": 2148,
      "kéli": 2149,
      "túxn": 2150,
      "kùxnã": 2151,
      "méxãt": 2152,
      "áxn": 2153,
      "áxjàx": 2154,
      "sũlìxt": 2155,
      "##ppök": 2156,
      "ajkáchèke": 2157,
      "carta": 2158,
      "kèkã": 2159,
      "kuátkèke": 2160,
      "tkèqtöm": 2161,
      "tkèqnĩk": 2162,
      "mũléx": 2163,
      "bòqyök": 2164,
      "wîxwîx": 2165,
      "kímèxke": 2166,
      "##iente": 2167,
      "pàtkèke": 2168,
      "ĩùxtèke": 2169,
      "òqk": 2170,
      "kóxpàkòqke": 2171,
      "téxrkẽ": 2172,
      "yóqktsã": 2173,
      "duládula": 2174,
      "àxnãs": 2175,
      "dalóshdal": 2176,
      "ùshikalòqke": 2177,
      "tsipátsipâ": 2178,
      "bitséitsèkẽ": 2179,
      "##uesto": 2180,
      "chòqkeãt": 2181,
      "organ": 2182,
      "mãlíxs": 2183,
      "uséköl": 2184,
      "irík": 2185,
      "##mbuáala": 2186,
      "añìxes": 2187,
      "hasta": 2188,
      "iõiòx": 2189,
      "kennedy": 2190,
      "concord": 2191,
      "dalóshdalosh": 2192,
      "organiz": 2193,
      "30": 2194,
      "ã": 2195,
      "cám": 2196,
      "déqrule": 2197,
      "el": 2198,
      "feli": 2199,
      "ièkẽ": 2200,
      "ker": 2201,
      "kòqko": 2202,
      "lu": 2203,
      "pí": 2204,
      "sẽ": 2205,
      "swóq": 2206,
      "téqr": 2207,
      "uh": 2208,
      "wáx": 2209,
      "wèke": 2210,
      "wèqnẽ": 2211,
      "àl": 2212,
      "ãã": 2213,
      "èmã": 2214,
      "ètökicha": 2215,
      "ènĩã": 2216,
      "êköl": 2217,
      "êtk": 2218,
      "íes": 2219,
      "ôx": 2220,
      "ĩáx": 2221,
      "ẽn": 2222,
      "##áwak": 2223,
      "##ph": 2224,
      "##òë": 2225,
      "##kê": 2226,
      "##êke": 2227,
      "##rwa": 2228,
      "##tkẽ": 2229,
      "##sul": 2230,
      "##sku": 2231,
      "##og": 2232,
      "##mũl": 2233,
      "##buk": 2234,
      "##ék": 2235,
      "##éka": 2236,
      "##nùx": 2237,
      "##ũsh": 2238,
      "##lã": 2239,
      "##lve": 2240,
      "##ña": 2241,
      "##yö": 2242,
      "##yöm": 2243,
      "##óm": 2244,
      "##âwẽ": 2245,
      "##âwõ": 2246,
      "##òqmĩ": 2247,
      "tãwẽ": 2248,
      "tsóq": 2249,
      "##èqmẽ": 2250,
      "##alalala": 2251,
      "##áxbö": 2252,
      "##tsè": 2253,
      "##tske": 2254,
      "chö": 2255,
      "##ìxr": 2256,
      "káxbata": 2257,
      "káxjkẽ": 2258,
      "alök": 2259,
      "alèke": 2260,
      "##mĩnẽ": 2261,
      "kiòq": 2262,
      "kiar": 2263,
      "kicha": 2264,
      "sha": 2265,
      "shã": 2266,
      "shô": 2267,
      "shat": 2268,
      "##ùxke": 2269,
      "##ölö": 2270,
      "wòqtko": 2271,
      "kach": 2272,
      "kabè": 2273,
      "kayóq": 2274,
      "##las": 2275,
      "tkêqtẽn": 2276,
      "##nèxwã": 2277,
      "kãm": 2278,
      "##shmã": 2279,
      "mìxch": 2280,
      "dawòq": 2281,
      "dawòqwã": 2282,
      "##blu": 2283,
      "míxkã": 2284,
      "kukuòq": 2285,
      "silve": 2286,
      "éxnã": 2287,
      "wèxke": 2288,
      "ujtó": 2289,
      "##òxnẽ": 2290,
      "sãméx": 2291,
      "kàlyök": 2292,
      "kàlkö": 2293,
      "banẽt": 2294,
      "##tãmĩ": 2295,
      "##iento": 2296,
      "mĩn": 2297,
      "mĩke": 2298,
      "pàr": 2299,
      "pàt": 2300,
      "akéqkë": 2301,
      "dalèqnã": 2302,
      "détke": 2303,
      "détsã": 2304,
      "ulàba": 2305,
      "wéqrmĩ": 2306,
      "##likal": 2307,
      "bakòx": 2308,
      "íxñẽ": 2309,
      "yàie": 2310,
      "dòqkẽ": 2311,
      "##nam": 2312,
      "wakdë": 2313,
      "sĩòx": 2314,
      "sĩnàx": 2315,
      "wóqbla": 2316,
      "##chake": 2317,
      "kãnèxble": 2318,
      "katóqwã": 2319,
      "buts": 2320,
      "bueno": 2321,
      "##osa": 2322,
      "##ati": 2323,
      "yulé": 2324,
      "yulóq": 2325,
      "dùla": 2326,
      "chkòqke": 2327,
      "nãñèx": 2328,
      "yóqrmĩ": 2329,
      "##èwãmĩ": 2330,
      "telé": 2331,
      "mèxãt": 2332,
      "òxrke": 2333,
      "èxrke": 2334,
      "klòqnẽ": 2335,
      "mâxwẽ": 2336,
      "kít": 2337,
      "bóqyök": 2338,
      "alab": 2339,
      "kalòqtòqke": 2340,
      "páj": 2341,
      "pánẽ": 2342,
      "kanèxblök": 2343,
      "shkèxwèxke": 2344,
      "túxnẽ": 2345,
      "télur": 2346,
      "shkòqë": 2347,
      "mãñàxtöm": 2348,
      "tkòqrö": 2349,
      "àxritsóq": 2350,
      "àxritsèke": 2351,
      "kéqkëpala": 2352,
      "kíxmèxke": 2353,
      "dióqshẽt": 2354,
      "yéqriapa": 2355,
      "sũlìxtu": 2356,
      "civic": 2357,
      "ñáxk": 2358,
      "bìk": 2359,
      "bìtöm": 2360,
      "##ciano": 2361,
      "déqbitũ": 2362,
      "##mbra": 2363,
      "bikeitsök": 2364,
      "bòqtk": 2365,
      "ñéxẽ": 2366,
      "inùxke": 2367,
      "bèqrë": 2368,
      "shkòqkekã": 2369,
      "akuóqk": 2370,
      "akuòqke": 2371,
      "shkènẽ": 2372,
      "pàlèke": 2373,
      "pàlalalala": 2374,
      "ièqtẽn": 2375,
      "àksi": 2376,
      "ĩùxtóq": 2377,
      "tsakìnẽ": 2378,
      "tséxmĩ": 2379,
      "mõwèxke": 2380,
      "tsirìwèxke": 2381,
      "akuòqwèxke": 2382,
      "kirèqr": 2383,
      "máxshmã": 2384,
      "##ùùù": 2385,
      "kàchèke": 2386,
      "batörèke": 2387,
      "anastasia": 2388,
      "átuwö": 2389,
      "ñàxnẽ": 2390,
      "tùxrke": 2391,
      "shkãl": 2392,
      "talárke": 2393,
      "brìbriwak": 2394,
      "óköm": 2395,
      "shùxshàx": 2396,
      "bàtsul": 2397,
      "anderson": 2398,
      "sulàyöm": 2399,
      "wamblërmĩ": 2400,
      "kòkekuö": 2401,
      "impuesto": 2402,
      "yúshka": 2403,
      "sociedad": 2404,
      "bóqkali": 2405,
      "##móxköl": 2406,
      "alfombra": 2407,
      "iklóqwẽ": 2408,
      "cartago": 2409,
      "cámara": 2410,
      "feliciano": 2411,
      "píska": 2412,
      "swóqulâ": 2413,
      "silverio": 2414,
      "teléfo": 2415,
      "máxshmãsh": 2416,
      "18": 2417,
      "92": 2418,
      "den": 2419,
      "emp": 2420,
      "gr": 2421,
      "hil": 2422,
      "ië": 2423,
      "ij": 2424,
      "ike": 2425,
      "ièke": 2426,
      "las": 2427,
      "pla": 2428,
      "pâxã": 2429,
      "rosa": 2430,
      "sp": 2431,
      "sal": 2432,
      "síx": 2433,
      "sâx": 2434,
      "sòqk": 2435,
      "tás": 2436,
      "ula": 2437,
      "yör": 2438,
      "ñe": 2439,
      "ñũk": 2440,
      "ñâx": 2441,
      "úk": 2442,
      "##wòq": 2443,
      "##wâx": 2444,
      "##kí": 2445,
      "##kala": 2446,
      "##kule": 2447,
      "##ĩẽ": 2448,
      "##ek": 2449,
      "##ec": 2450,
      "##té": 2451,
      "##tre": 2452,
      "##sũ": 2453,
      "##olo": 2454,
      "##bé": 2455,
      "##ísh": 2456,
      "##én": 2457,
      "##nio": 2458,
      "##uu": 2459,
      "##lu": 2460,
      "##ló": 2461,
      "##ltë": 2462,
      "##ót": 2463,
      "##gio": 2464,
      "##cul": 2465,
      "##ânẽ": 2466,
      "##âwak": 2467,
      "##vico": 2468,
      "##fes": 2469,
      "tãĩ": 2470,
      "tsan": 2471,
      "tsèqr": 2472,
      "##öròq": 2473,
      "##èxnã": 2474,
      "##alê": 2475,
      "##áxbita": 2476,
      "##tsé": 2477,
      "##tsèke": 2478,
      "##tsule": 2479,
      "##éqrkẽ": 2480,
      "##ìxnẽ": 2481,
      "káxmìx": 2482,
      "alò": 2483,
      "alòq": 2484,
      "alák": 2485,
      "##awa": 2486,
      "##awẽ": 2487,
      "kĩka": 2488,
      "sháxbö": 2489,
      "wòqt": 2490,
      "wòqã": 2491,
      "wòqo": 2492,
      "wòqnĩ": 2493,
      "wòqpp": 2494,
      "par": 2495,
      "wéxle": 2496,
      "tkã": 2497,
      "tkö": 2498,
      "tkõ": 2499,
      "tkèwã": 2500,
      "##kir": 2501,
      "mìxtsẽ": 2502,
      "kàtsi": 2503,
      "kàpi": 2504,
      "yawòq": 2505,
      "kué": 2506,
      "kuè": 2507,
      "siõ": 2508,
      "yéqnõ": 2509,
      "wèxkẽ": 2510,
      "ujtòqke": 2511,
      "sulúsi": 2512,
      "sãwîx": 2513,
      "shké": 2514,
      "kalè": 2515,
      "mĩch": 2516,
      "mĩàx": 2517,
      "ajké": 2518,
      "ajkèxn": 2519,
      "dap": 2520,
      "ulàrke": 2521,
      "ãmúx": 2522,
      "éqmẽ": 2523,
      "balè": 2524,
      "wàp": 2525,
      "bula": 2526,
      "sĩéx": 2527,
      "wóqul": 2528,
      "kapòqk": 2529,
      "##bale": 2530,
      "##balë": 2531,
      "apàke": 2532,
      "katá": 2533,
      "katóqk": 2534,
      "katéwa": 2535,
      "bukë": 2536,
      "kòqwö": 2537,
      "chèmĩ": 2538,
      "##sis": 2539,
      "##sión": 2540,
      "pelí": 2541,
      "stsèqnẽ": 2542,
      "míxãtke": 2543,
      "étkue": 2544,
      "ĩnáxbita": 2545,
      "tsáxtke": 2546,
      "kuátkë": 2547,
      "dùri": 2548,
      "chké": 2549,
      "chkóqk": 2550,
      "tulú": 2551,
      "wös": 2552,
      "mèxke": 2553,
      "##aciones": 2554,
      "shtá": 2555,
      "shtè": 2556,
      "shtök": 2557,
      "shtát": 2558,
      "èxnẽ": 2559,
      "klòqũk": 2560,
      "##ado": 2561,
      "##ador": 2562,
      "bikli": 2563,
      "mâxwõ": 2564,
      "##000": 2565,
      "tsóxkã": 2566,
      "tabèla": 2567,
      "sãwèxmĩ": 2568,
      "bùl": 2569,
      "bùlikal": 2570,
      "##raã": 2571,
      "bitsòqke": 2572,
      "ajà": 2573,
      "cole": 2574,
      "pámĩk": 2575,
      "kéũ": 2576,
      "àxritsẽ": 2577,
      "skéxyök": 2578,
      "wóqkirpa": 2579,
      "skànẽ": 2580,
      "ajkóqnẽ": 2581,
      "tkéqyök": 2582,
      "téwã": 2583,
      "shkòqèqmẽ": 2584,
      "mãñàxtökicha": 2585,
      "tsée": 2586,
      "tsékicha": 2587,
      "ppè": 2588,
      "##resa": 2589,
      "kãñíxka": 2590,
      "élkê": 2591,
      "##ndak": 2592,
      "katànẽ": 2593,
      "pàkèke": 2594,
      "kèbisã": 2595,
      "ttèkèwã": 2596,
      "bóqlka": 2597,
      "bóqltë": 2598,
      "mãñáxltë": 2599,
      "##sãwõ": 2600,
      "##pàkök": 2601,
      "ãmèxnã": 2602,
      "yétsã": 2603,
      "wamblèqnã": 2604,
      "bitùxke": 2605,
      "kùkur": 2606,
      "ãlòx": 2607,
      "aísh": 2608,
      "aíshẽt": 2609,
      "nãùxyö": 2610,
      "tséxãt": 2611,
      "klóqm": 2612,
      "piz": 2613,
      "díwö": 2614,
      "sìkuapa": 2615,
      "##böt": 2616,
      "##ööö": 2617,
      "tsikirîrî": 2618,
      "tsipátsipa": 2619,
      "kuli": 2620,
      "làr": 2621,
      "shkãmẽ": 2622,
      "conse": 2623,
      "itòqkĩ": 2624,
      "ñîxköl": 2625,
      "##wáxn": 2626,
      "tkéqrkã": 2627,
      "campus": 2628,
      "profes": 2629,
      "chówa": 2630,
      "kukùn": 2631,
      "oficina": 2632,
      "étkèq": 2633,
      "televi": 2634,
      "ĩâxchki": 2635,
      "universidad": 2636,
      "tsawì": 2637,
      "iõiòxtã": 2638,
      "organización": 2639,
      "wáxwáxn": 2640,
      "kãmîx": 2641,
      "wakdël": 2642,
      "empresa": 2643,
      "pâxãlĩ": 2644,
      "tsaníx": 2645,
      "película": 2646,
      "colegio": 2647,
      "profesion": 2648,
      "televisión": 2649,
      "25": 2650,
      "80": 2651,
      "at": 2652,
      "as": 2653,
      "aî": 2654,
      "apa": 2655,
      "abè": 2656,
      "aso": 2657,
      "bò": 2658,
      "bala": 2659,
      "böròq": 2660,
      "cí": 2661,
      "dî": 2662,
      "dèmĩ": 2663,
      "jur": 2664,
      "kt": 2665,
      "kú": 2666,
      "koló": 2667,
      "kkóq": 2668,
      "lè": 2669,
      "löl": 2670,
      "pò": 2671,
      "pè": 2672,
      "pô": 2673,
      "pòq": 2674,
      "pues": 2675,
      "ru": 2676,
      "sur": 2677,
      "ste": 2678,
      "sìnã": 2679,
      "tèq": 2680,
      "tcha": 2681,
      "uk": 2682,
      "uka": 2683,
      "wĩ": 2684,
      "wèqnã": 2685,
      "yêq": 2686,
      "yéwa": 2687,
      "zo": 2688,
      "ëmẽ": 2689,
      "ök": 2690,
      "##wo": 2691,
      "##ápolis": 2692,
      "##pu": 2693,
      "##pak": 2694,
      "##òl": 2695,
      "##kî": 2696,
      "##kòqko": 2697,
      "##ré": 2698,
      "##rkua": 2699,
      "##ial": 2700,
      "##ëkã": 2701,
      "##tka": 2702,
      "##tere": 2703,
      "##oper": 2704,
      "##máx": 2705,
      "##mpa": 2706,
      "##bà": 2707,
      "##bák": 2708,
      "##un": 2709,
      "##ujkuö": 2710,
      "##lè": 2711,
      "##lök": 2712,
      "##lala": 2713,
      "##ìk": 2714,
      "##ñĩ": 2715,
      "##yèkẽ": 2716,
      "##õl": 2717,
      "##cal": 2718,
      "##̃nèx": 2719,
      "##jp": 2720,
      "##dos": 2721,
      "##dic": 2722,
      "##òquaa": 2723,
      "tãũk": 2724,
      "tsùx": 2725,
      "tsóqk": 2726,
      "tsóqköl": 2727,
      "tsáwak": 2728,
      "##kela": 2729,
      "##èxnẽ": 2730,
      "##chor": 2731,
      "##éqrke": 2732,
      "chök": 2733,
      "káxn": 2734,
      "káxwak": 2735,
      "##kamĩ": 2736,
      "alóq": 2737,
      "alèkẽ": 2738,
      "##riki": 2739,
      "kĩla": 2740,
      "kĩmèxke": 2741,
      "buaála": 2742,
      "sar": 2743,
      "sabák": 2744,
      "shur": 2745,
      "dijka": 2746,
      "dipà": 2747,
      "##àxnẽ": 2748,
      "ichòq": 2749,
      "kũãki": 2750,
      "wòqka": 2751,
      "wòqike": 2752,
      "wòqbu": 2753,
      "wòqyaw": 2754,
      "kata": 2755,
      "pas": 2756,
      "tkèxr": 2757,
      "##arra": 2758,
      "##wöta": 2759,
      "##shã": 2760,
      "bióqk": 2761,
      "bikö": 2762,
      "##kie": 2763,
      "yawo": 2764,
      "yawèq": 2765,
      "yawòqkẽ": 2766,
      "míxtsẽ": 2767,
      "míxyal": 2768,
      "kuâ": 2769,
      "kutá": 2770,
      "éxr": 2771,
      "séxr": 2772,
      "séxs": 2773,
      "wèxk": 2774,
      "##kuè": 2775,
      "kàlwóq": 2776,
      "kũéxwã": 2777,
      "shkâk": 2778,
      "kalò": 2779,
      "##iel": 2780,
      "pài": 2781,
      "ajkö": 2782,
      "dapá": 2783,
      "dalèqr": 2784,
      "dalâlâ": 2785,
      "déwã": 2786,
      "ulàwẽ": 2787,
      "##wẽwa": 2788,
      "##batà": 2789,
      "##òqtkë": 2790,
      "yàli": 2791,
      "dòqpa": 2792,
      "balà": 2793,
      "wàñẽ": 2794,
      "##nad": 2795,
      "##tsãk": 2796,
      "yòqrke": 2797,
      "wóquk": 2798,
      "kapá": 2799,
      "kapë": 2800,
      "kapó": 2801,
      "sulûnã": 2802,
      "apàkö": 2803,
      "##tola": 2804,
      "daku": 2805,
      "ttóqk": 2806,
      "tkërkĩ": 2807,
      "stsè": 2808,
      "shùxbal": 2809,
      "##anápolis": 2810,
      "kóxpà": 2811,
      "kóxbata": 2812,
      "síwèx": 2813,
      "tsáxñã": 2814,
      "kuáble": 2815,
      "##icio": 2816,
      "chakòq": 2817,
      "##nõkè": 2818,
      "##lolo": 2819,
      "mèxkè": 2820,
      "shtó": 2821,
      "shtóqk": 2822,
      "shtâwõ": 2823,
      "wìxẽ": 2824,
      "èxr": 2825,
      "ujchéx": 2826,
      "mâxmâx": 2827,
      "wóqulâwõ": 2828,
      "bóqiki": 2829,
      "durkã": 2830,
      "como": 2831,
      "cooper": 2832,
      "pátke": 2833,
      "kanèxbalök": 2834,
      "túxr": 2835,
      "túxnéx": 2836,
      "duk": 2837,
      "úxnẽ": 2838,
      "sulùnẽ": 2839,
      "tée": 2840,
      "ajkáyë": 2841,
      "yèwa": 2842,
      "##pital": 2843,
      "ãwíxshẽt": 2844,
      "kóqyök": 2845,
      "kéqchke": 2846,
      "kéqsik": 2847,
      "tkòqũk": 2848,
      "sut": 2849,
      "kíxmõ": 2850,
      "ppèkẽ": 2851,
      "batsóqk": 2852,
      "ãméxrke": 2853,
      "tkabèqköl": 2854,
      "mãnèxtẽ": 2855,
      "##kalö": 2856,
      "##cito": 2857,
      "tsãlîx": 2858,
      "bùsipa": 2859,
      "ajkáche": 2860,
      "déqkã": 2861,
      "##mbre": 2862,
      "ñèxẽs": 2863,
      "èkkë": 2864,
      "##tiv": 2865,
      "bikeitsèmĩ": 2866,
      "tsãnèx": 2867,
      "yèqnũk": 2868,
      "kukóqk": 2869,
      "bitùxtsẽ": 2870,
      "kùnẽ": 2871,
      "indianápolis": 2872,
      "tsiríũk": 2873,
      "kabék": 2874,
      "##inario": 2875,
      "bikéits": 2876,
      "kòu": 2877,
      "nãùxyöm": 2878,
      "tóttò": 2879,
      "téxn": 2880,
      "##tërule": 2881,
      "seminario": 2882,
      "ábionpa": 2883,
      "mõwèx": 2884,
      "tsirìwẽ": 2885,
      "kúxwã": 2886,
      "may": 2887,
      "daléqrkẽ": 2888,
      "ùshikalök": 2889,
      "káxmîxë": 2890,
      "millas": 2891,
      "íxski": 2892,
      "tsikirí": 2893,
      "wôqkepa": 2894,
      "##lsĩẽ": 2895,
      "tsúxkãt": 2896,
      "kulùùù": 2897,
      "duwòq": 2898,
      "kóqtwã": 2899,
      "##ológ": 2900,
      "vez": 2901,
      "wòqtkërke": 2902,
      "ãmùxbali": 2903,
      "apéite": 2904,
      "dakír": 2905,
      "ujchẽnã": 2906,
      "sáxũk": 2907,
      "saku": 2908,
      "ãjáx": 2909,
      "estados": 2910,
      "cliente": 2911,
      "âxmĩk": 2912,
      "##ratuaa": 2913,
      "kòqkokòqko": 2914,
      "##mũlẽ": 2915,
      "bakòxs": 2916,
      "sĩòxrë": 2917,
      "kirèqrmã": 2918,
      "shkãláx": 2919,
      "swóqulâũk": 2920,
      "teléfono": 2921,
      "dental": 2922,
      "wàpie": 2923,
      "sĩéxlsĩẽ": 2924,
      "pizarra": 2925,
      "aîkö": 2926,
      "abèbulu": 2927,
      "asoci": 2928,
      "cívico": 2929,
      "kkóqujkuö": 2930,
      "lölölö": 2931,
      "tchabèq": 2932,
      "zoológ": 2933,
      "kàlwóqlö": 2934,
      "cooperati": 2935,
      "sĩéxlsĩẽl": 2936,
      "85": 2937,
      "añ": 2938,
      "aù": 2939,
      "anã": 2940,
      "awa": 2941,
      "bro": 2942,
      "bèqr": 2943,
      "ce": 2944,
      "dú": 2945,
      "emba": 2946,
      "fu": 2947,
      "fes": 2948,
      "fis": 2949,
      "go": 2950,
      "hos": 2951,
      "io": 2952,
      "ig": 2953,
      "ièqnẽ": 2954,
      "iêqtẽn": 2955,
      "jt": 2956,
      "jch": 2957,
      "jka": 2958,
      "jku": 2959,
      "jkuòq": 2960,
      "kì": 2961,
      "kìx": 2962,
      "kìnẽ": 2963,
      "kúk": 2964,
      "lor": 2965,
      "mùx": 2966,
      "man": 2967,
      "nũ": 2968,
      "náx": 2969,
      "pã": 2970,
      "pu": 2971,
      "pèke": 2972,
      "péi": 2973,
      "pis": 2974,
      "rè": 2975,
      "ss": 2976,
      "sé": 2977,
      "sù": 2978,
      "sna": 2979,
      "tò": 2980,
      "th": 2981,
      "tòqk": 2982,
      "uy": 2983,
      "vie": 2984,
      "vid": 2985,
      "vale": 2986,
      "wî": 2987,
      "wõ": 2988,
      "wóx": 2989,
      "wòx": 2990,
      "yula": 2991,
      "ènẽ": 2992,
      "èwa": 2993,
      "ìe": 2994,
      "ìx": 2995,
      "íe": 2996,
      "ñóx": 2997,
      "ĩa": 2998,
      "ĩúx": 2999,
      "ĩnèx": 3000,
      "##wé": 3001,
      "##árkẽ": 3002,
      "##põ": 3003,
      "##por": 3004,
      "##kkë": 3005,
      "##rá": 3006,
      "##rl": 3007,
      "##rka": 3008,
      "##rmã": 3009,
      "##ii": 3010,
      "##ië": 3011,
      "##ee": 3012,
      "##tr": 3013,
      "##tè": 3014,
      "##ty": 3015,
      "##tra": 3016,
      "##sa": 3017,
      "##sula": 3018,
      "##sĩã": 3019,
      "##míx": 3020,
      "##mũk": 3021,
      "##men": 3022,
      "##bê": 3023,
      "##bâ": 3024,
      "##bolo": 3025,
      "##írkẽ": 3026,
      "##ér": 3027,
      "##nìx": 3028,
      "##nte": 3029,
      "##uwak": 3030,
      "##léx": 3031,
      "##líx": 3032,
      "##lêq": 3033,
      "##löm": 3034,
      "##llo": 3035,
      "##lón": 3036,
      "##ìnũk": 3037,
      "##hli": 3038,
      "##àë": 3039,
      "##ônẽ": 3040,
      "##ôbal": 3041,
      "##gala": 3042,
      "##gali": 3043,
      "##ce": 3044,
      "##âwö": 3045,
      "##jke": 3046,
      "##jkã": 3047,
      "##jtö": 3048,
      "##jador": 3049,
      "##do": 3050,
      "##dö": 3051,
      "##dol": 3052,
      "tãwóx": 3053,
      "tsõ": 3054,
      "tséqr": 3055,
      "##èqka": 3056,
      "##alà": 3057,
      "##chí": 3058,
      "##nẽkã": 3059,
      "##ulù": 3060,
      "##tso": 3061,
      "##tsũk": 3062,
      "##tsẽn": 3063,
      "##tskuö": 3064,
      "beck": 3065,
      "##éqla": 3066,
      "chô": 3067,
      "char": 3068,
      "chàk": 3069,
      "chico": 3070,
      "seba": 3071,
      "##nãkã": 3072,
      "##nãwa": 3073,
      "káxñìx": 3074,
      "káxuk": 3075,
      "káxsẽ": 3076,
      "káxpak": 3077,
      "alar": 3078,
      "##ris": 3079,
      "kĩmẽ": 3080,
      "##íxshẽt": 3081,
      "kió": 3082,
      "kiár": 3083,
      "kirì": 3084,
      "sarù": 3085,
      "shki": 3086,
      "dis": 3087,
      "##îxã": 3088,
      "ichö": 3089,
      "wòqó": 3090,
      "wòqkĩ": 3091,
      "wòqñã": 3092,
      "wòqet": 3093,
      "kaèq": 3094,
      "##lapa": 3095,
      "##lares": 3096,
      "wéxr": 3097,
      "tkêq": 3098,
      "tkèqnẽ": 3099,
      "tkèqnã": 3100,
      "tkéwã": 3101,
      "tkéxk": 3102,
      "##nèxnẽ": 3103,
      "##nèxnèx": 3104,
      "##arro": 3105,
      "irirdak": 3106,
      "##êqka": 3107,
      "##êqlêq": 3108,
      "dawéq": 3109,
      "dawòqkẽ": 3110,
      "yawa": 3111,
      "##blô": 3112,
      "míxyar": 3113,
      "míxtsẽn": 3114,
      "kut": 3115,
      "##óxmóxköl": 3116,
      "##óxpõ": 3117,
      "sãwóx": 3118,
      "sãnâx": 3119,
      "kãnèxũ": 3120,
      "batse": 3121,
      "kala": 3122,
      "éxnsir": 3123,
      "##ies": 3124,
      "##ura": 3125,
      "ajkue": 3126,
      "dan": 3127,
      "dapòq": 3128,
      "##roz": 3129,
      "aká": 3130,
      "##irìnẽ": 3131,
      "##èkẽwã": 3132,
      "déka": 3133,
      "ulàt": 3134,
      "éqwe": 3135,
      "àxã": 3136,
      "##lit": 3137,
      "##litar": 3138,
      "skèx": 3139,
      "skíx": 3140,
      "skóxmóxköl": 3141,
      "##chivo": 3142,
      "baléqrule": 3143,
      "balôbal": 3144,
      "##tsãnã": 3145,
      "##tsãmĩ": 3146,
      "##erak": 3147,
      "sĩã": 3148,
      "sĩâx": 3149,
      "sĩwâx": 3150,
      "wóqlöm": 3151,
      "kapówã": 3152,
      "kapòqwã": 3153,
      "##balö": 3154,
      "sulûrke": 3155,
      "kate": 3156,
      "awísh": 3157,
      "awíxshẽt": 3158,
      "bue": 3159,
      "buku": 3160,
      "##ikök": 3161,
      "wébl": 3162,
      "éqlpa": 3163,
      "kòqu": 3164,
      "inter": 3165,
      "inìxr": 3166,
      "stséqr": 3167,
      "batàla": 3168,
      "kóxwö": 3169,
      "mìxkalè": 3170,
      "ĩnìxnẽ": 3171,
      "talì": 3172,
      "yulö": 3173,
      "yawèmĩ": 3174,
      "tërkĩ": 3175,
      "tulù": 3176,
      "arroz": 3177,
      "archivo": 3178,
      "dàts": 3179,
      "yóqtsã": 3180,
      "##log": 3181,
      "mèxkã": 3182,
      "mèxtsã": 3183,
      "köla": 3184,
      "köldi": 3185,
      "òxtẽ": 3186,
      "klòqwèxwã": 3187,
      "ujchèxnã": 3188,
      "diké": 3189,
      "dikîxã": 3190,
      "biké": 3191,
      "wáñẽ": 3192,
      "juana": 3193,
      "##reet": 3194,
      "mãñáxyök": 3195,
      "alár": 3196,
      "wóqulânã": 3197,
      "##bitu": 3198,
      "kínúx": 3199,
      "bitsòqkẽ": 3200,
      "##diòq": 3201,
      "ñãléx": 3202,
      "dukà": 3203,
      "mòxkĩ": 3204,
      "chénẽ": 3205,
      "úxk": 3206,
      "úxrke": 3207,
      "wámblë": 3208,
      "wámblè": 3209,
      "yètsã": 3210,
      "yètsãnẽ": 3211,
      "sawèq": 3212,
      "klö": 3213,
      "bulékal": 3214,
      "tséwã": 3215,
      "kíxmũ": 3216,
      "kebè": 3217,
      "chkòqkẽ": 3218,
      "méxrkã": 3219,
      "ĩùxte": 3220,
      "áxmĩk": 3221,
      "élka": 3222,
      "éltë": 3223,
      "##ndî": 3224,
      "mãnèxt": 3225,
      "cia": 3226,
      "laug": 3227,
      "latas": 3228,
      "wôqike": 3229,
      "yèqnẽtsã": 3230,
      "sũwéx": 3231,
      "dólares": 3232,
      "tsãk": 3233,
      "kuátkè": 3234,
      "bétka": 3235,
      "tòqkĩ": 3236,
      "##ffalo": 3237,
      "tkînũk": 3238,
      "tkèqtökicha": 3239,
      "batá": 3240,
      "dòqmĩnẽ": 3241,
      "dâtse": 3242,
      "àshali": 3243,
      "wamblèqnẽ": 3244,
      "béqrër": 3245,
      "ahor": 3246,
      "##óqlit": 3247,
      "199": 3248,
      "196": 3249,
      "197": 3250,
      "akuòqk": 3251,
      "kúlyök": 3252,
      "ièqt": 3253,
      "kũèxmĩ": 3254,
      "tsìdala": 3255,
      "pàtkèmĩ": 3256,
      "ffft": 3257,
      "òqkö": 3258,
      "buàmbuáala": 3259,
      "iròq": 3260,
      "tséxr": 3261,
      "kãnèxblökẽ": 3262,
      "indianapolis": 3263,
      "##dalala": 3264,
      "##chkepa": 3265,
      "ajkuòqlit": 3266,
      "dalóie": 3267,
      "ishtirìnẽ": 3268,
      "abog": 3269,
      "millón": 3270,
      "káxjkêxë": 3271,
      "siòxrë": 3272,
      "íxskĩ": 3273,
      "10000": 3274,
      "iskà": 3275,
      "kákmẽ": 3276,
      "ãñèx": 3277,
      "mãnéxrke": 3278,
      "kàchè": 3279,
      "bulùbulu": 3280,
      "love": 3281,
      "unidos": 3282,
      "chéqwa": 3283,
      "sũwèxppa": 3284,
      "tióqk": 3285,
      "wéqsawa": 3286,
      "talárkẽ": 3287,
      "béqrbër": 3288,
      "tarèq": 3289,
      "tèqnãnẽ": 3290,
      "ulâtska": 3291,
      "wôqikèkẽ": 3292,
      "dèqkã": 3293,
      "pàxnãwã": 3294,
      "river": 3295,
      "street": 3296,
      "veg": 3297,
      "wêqñẽ": 3298,
      "ũkwa": 3299,
      "##lesia": 3300,
      "ikuáxkĩ": 3301,
      "##tura": 3302,
      "bachâba": 3303,
      "skáxwöta": 3304,
      "mòxsopa": 3305,
      "bèqriebulu": 3306,
      "corpor": 3307,
      "militar": 3308,
      "##rdâ": 3309,
      "tsíxjkẽ": 3310,
      "kalíũk": 3311,
      "##stiana": 3312,
      "alóqkã": 3313,
      "wàtũ": 3314,
      "bukula": 3315,
      "ããã": 3316,
      "pàryök": 3317,
      "pájto": 3318,
      "spóxpõ": 3319,
      "##culo": 3320,
      "sháxböts": 3321,
      "kalèri": 3322,
      "dùriñãk": 3323,
      "kèbisãwẽ": 3324,
      "profesional": 3325,
      "rudol": 3326,
      "yêqar": 3327,
      "dipàkicha": 3328,
      "##shãũsh": 3329,
      "kuârö": 3330,
      "##nador": 3331,
      "mâxmâxrkua": 3332,
      "tsãlîxlîx": 3333,
      "##tival": 3334,
      "embajador": 3335,
      "festival": 3336,
      "fiscal": 3337,
      "hospital": 3338,
      "iglesia": 3339,
      "jtòq": 3340,
      "pistola": 3341,
      "snake": 3342,
      "valeria": 3343,
      "##hlin": 3344,
      "becky": 3345,
      "sebastiana": 3346,
      "sarùrù": 3347,
      "laughlin": 3348,
      "bachâbacha": 3349,
      "rudolph": 3350,
      "00": 3351,
      "am": 3352,
      "ac": 3353,
      "aèq": 3354,
      "akë": 3355,
      "air": 3356,
      "aer": 3357,
      "anto": 3358,
      "bë": 3359,
      "bla": 3360,
      "brí": 3361,
      "bâba": 3362,
      "bâwẽ": 3363,
      "cue": 3364,
      "cre": 3365,
      "cés": 3366,
      "ciento": 3367,
      "dor": 3368,
      "dèqnẽ": 3369,
      "dula": 3370,
      "dènẽ": 3371,
      "er": 3372,
      "ev": 3373,
      "ese": 3374,
      "fa": 3375,
      "fi": 3376,
      "for": 3377,
      "flo": 3378,
      "fann": 3379,
      "fiel": 3380,
      "gen": 3381,
      "gol": 3382,
      "hec": 3383,
      "iéq": 3384,
      "iùx": 3385,
      "iyök": 3386,
      "ióqköl": 3387,
      "irì": 3388,
      "ja": 3389,
      "ko": 3390,
      "kâ": 3391,
      "kóqk": 3392,
      "lá": 3393,
      "lòq": 3394,
      "lìnẽ": 3395,
      "léköl": 3396,
      "má": 3397,
      "mc": 3398,
      "mal": 3399,
      "múxk": 3400,
      "mat": 3401,
      "mis": 3402,
      "nòx": 3403,
      "nue": 3404,
      "nat": 3405,
      "oro": 3406,
      "olô": 3407,
      "pin": 3408,
      "pies": 3409,
      "sala": 3410,
      "tx": 3411,
      "tro": 3412,
      "tár": 3413,
      "tòxnẽ": 3414,
      "um": 3415,
      "uuu": 3416,
      "wê": 3417,
      "wâx": 3418,
      "wöla": 3419,
      "yí": 3420,
      "yó": 3421,
      "yòqke": 3422,
      "yor": 3423,
      "ágali": 3424,
      "ãúx": 3425,
      "èyök": 3426,
      "éköl": 3427,
      "êq": 3428,
      "ñé": 3429,
      "ñõl": 3430,
      "ùkö": 3431,
      "úriki": 3432,
      "ĩũ": 3433,
      "ĩèx": 3434,
      "ĩnĩ": 3435,
      "ẽna": 3436,
      "##pé": 3437,
      "##pen": 3438,
      "##aña": 3439,
      "##kman": 3440,
      "##ĩë": 3441,
      "##rm": 3442,
      "##rul": 3443,
      "##rlor": 3444,
      "##rva": 3445,
      "##itö": 3446,
      "##itãmĩ": 3447,
      "##ëmẽ": 3448,
      "##tèq": 3449,
      "##tes": 3450,
      "##tule": 3451,
      "##tor": 3452,
      "##tali": 3453,
      "##tóqkicha": 3454,
      "##tkuak": 3455,
      "##tnam": 3456,
      "##sĩ": 3457,
      "##sar": 3458,
      "##sala": 3459,
      "##om": 3460,
      "##on": 3461,
      "##múx": 3462,
      "##mbi": 3463,
      "##min": 3464,
      "##bá": 3465,
      "##bù": 3466,
      "##byök": 3467,
      "##ín": 3468,
      "##íyök": 3469,
      "##ée": 3470,
      "##èkè": 3471,
      "##nes": 3472,
      "##uda": 3473,
      "##lë": 3474,
      "##ly": 3475,
      "##léq": 3476,
      "##lóx": 3477,
      "##lâx": 3478,
      "##ñe": 3479,
      "##ñũk": 3480,
      "##ñéxwe": 3481,
      "##ñía": 3482,
      "##hy": 3483,
      "##za": 3484,
      "##yi": 3485,
      "##ytãmĩ": 3486,
      "##àwak": 3487,
      "##àbulu": 3488,
      "##óie": 3489,
      "##óbi": 3490,
      "##ôblô": 3491,
      "##ga": 3492,
      "##gra": 3493,
      "##car": 3494,
      "##cno": 3495,
      "##cus": 3496,
      "##jo": 3497,
      "##jts": 3498,
      "##dà": 3499,
      "##dâ": 3500,
      "##vas": 3501,
      "##ûr": 3502,
      "##ûrû": 3503,
      "##̱k": 3504,
      "##òqwö": 3505,
      "tãmĩ": 3506,
      "tsĩ": 3507,
      "tsal": 3508,
      "tsèxkẽ": 3509,
      "##èxk": 3510,
      "##èxmĩ": 3511,
      "##èxmũ": 3512,
      "##alö": 3513,
      "kèqr": 3514,
      "##áxwã": 3515,
      "##ché": 3516,
      "##chóqk": 3517,
      "##ulk": 3518,
      "##ulor": 3519,
      "berm": 3520,
      "chu": 3521,
      "chör": 3522,
      "chóq": 3523,
      "chica": 3524,
      "##ìxnã": 3525,
      "káxk": 3526,
      "káxköl": 3527,
      "káxkö": 3528,
      "káxska": 3529,
      "káxjkue": 3530,
      "káxñĩ": 3531,
      "káxbatà": 3532,
      "##kat": 3533,
      "##kã": 3534,
      "alô": 3535,
      "alôq": 3536,
      "alìnã": 3537,
      "##kẽwã": 3538,
      "kĩnùx": 3539,
      "buambuáala": 3540,
      "kióq": 3541,
      "kiòqk": 3542,
      "kipà": 3543,
      "santo": 3544,
      "saté": 3545,
      "shal": 3546,
      "shũl": 3547,
      "dipòq": 3548,
      "##óqkwã": 3549,
      "##öli": 3550,
      "##àxnã": 3551,
      "ichó": 3552,
      "icherak": 3553,
      "##wãr": 3554,
      "wòqñ": 3555,
      "wòqar": 3556,
      "wòqli": 3557,
      "wòqsi": 3558,
      "wòqchka": 3559,
      "wòqsãwõ": 3560,
      "##lard": 3561,
      "##lanõkè": 3562,
      "tkà": 3563,
      "##arr": 3564,
      "##sht": 3565,
      "irik": 3566,
      "bio": 3567,
      "mìxnã": 3568,
      "mìxmĩ": 3569,
      "mìxne": 3570,
      "dawé": 3571,
      "dawóq": 3572,
      "dawés": 3573,
      "dawòqkewã": 3574,
      "kànẽ": 3575,
      "ulù": 3576,
      "ulû": 3577,
      "yawi": 3578,
      "kue": 3579,
      "kũ": 3580,
      "kukòq": 3581,
      "sich": 3582,
      "sikua": 3583,
      "éxts": 3584,
      "éxòx": 3585,
      "séxẽ": 3586,
      "séxrmĩ": 3587,
      "séxsẽ": 3588,
      "séxrkũ": 3589,
      "séxjkã": 3590,
      "yéqrke": 3591,
      "wèxnẽ": 3592,
      "nãwîx": 3593,
      "nãméx": 3594,
      "sãũ": 3595,
      "##rkewã": 3596,
      "kãnèxúx": 3597,
      "kãnèxwẽ": 3598,
      "kãnèxwèxkẽ": 3599,
      "èqka": 3600,
      "shkák": 3601,
      "kalö": 3602,
      "kalâ": 3603,
      "kalöt": 3604,
      "kalóm": 3605,
      "pàie": 3606,
      "##rërë": 3607,
      "##rëbèq": 3608,
      "alàköl": 3609,
      "##tkènẽ": 3610,
      "##roma": 3611,
      "akál": 3612,
      "champ": 3613,
      "ulàttö": 3614,
      "éqla": 3615,
      "sibì": 3616,
      "apéq": 3617,
      "wéqr": 3618,
      "wéqrke": 3619,
      "##lite": 3620,
      "skóq": 3621,
      "skli": 3622,
      "íxwĩ": 3623,
      "##ban": 3624,
      "##bagra": 3625,
      "##òqte": 3626,
      "yàa": 3627,
      "yànõk": 3628,
      "yàbolo": 3629,
      "##chika": 3630,
      "balök": 3631,
      "balèke": 3632,
      "wài": 3633,
      "wàtak": 3634,
      "##eral": 3635,
      "##erto": 3636,
      "bular": 3637,
      "bulàmĩ": 3638,
      "yòqnũk": 3639,
      "yòqrmĩ": 3640,
      "wóqtsè": 3641,
      "kíxte": 3642,
      "kapè": 3643,
      "kapà": 3644,
      "kapóq": 3645,
      "kapòqkẽ": 3646,
      "dawáska": 3647,
      "apàs": 3648,
      "apàbak": 3649,
      "##tokicha": 3650,
      "##torio": 3651,
      "kãnèxblo": 3652,
      "kãnèxblër": 3653,
      "kathy": 3654,
      "bákshka": 3655,
      "dakóq": 3656,
      "dakúr": 3657,
      "dakòl": 3658,
      "##ömwak": 3659,
      "ttòqk": 3660,
      "mãñã": 3661,
      "wéike": 3662,
      "sèxnã": 3663,
      "inúx": 3664,
      "inúxk": 3665,
      "böt": 3666,
      "stsé": 3667,
      "stsâwak": 3668,
      "shùxki": 3669,
      "dìratuaa": 3670,
      "##teles": 3671,
      "kièmĩ": 3672,
      "kóxbala": 3673,
      "kóxchö": 3674,
      "míxãnẽ": 3675,
      "tsirû": 3676,
      "aìsh": 3677,
      "sùxë": 3678,
      "ñèxes": 3679,
      "étkuak": 3680,
      "áksula": 3681,
      "talâr": 3682,
      "yulök": 3683,
      "yulòqk": 3684,
      "tsáxtk": 3685,
      "tsáxtko": 3686,
      "dakaròla": 3687,
      "yawèĩã": 3688,
      "dabòbyök": 3689,
      "darkman": 3690,
      "chaka": 3691,
      "este": 3692,
      "tërkã": 3693,
      "arte": 3694,
      "armas": 3695,
      "nãñéx": 3696,
      "yóqr": 3697,
      "yóqrkẽ": 3698,
      "yóqnũk": 3699,
      "diàwa": 3700,
      "tecno": 3701,
      "kölòq": 3702,
      "költë": 3703,
      "blôblô": 3704,
      "ukòqie": 3705,
      "klòqũ": 3706,
      "klòqõ": 3707,
      "bikèq": 3708,
      "bikóqk": 3709,
      "wám": 3710,
      "wábalök": 3711,
      "mâxwèxke": 3712,
      "##rec": 3713,
      "alárpa": 3714,
      "alátsítsi": 3715,
      "wóqulâõ": 3716,
      "wóqulânẽ": 3717,
      "ujtèmĩ": 3718,
      "bùtsãnã": 3719,
      "kínèx": 3720,
      "ùxk": 3721,
      "yawóqkka": 3722,
      "bitsĩ": 3723,
      "nẽĩã": 3724,
      "compa": 3725,
      "coroma": 3726,
      "alírkẽ": 3727,
      "kalòqtë": 3728,
      "kalòqtòq": 3729,
      "pánũk": 3730,
      "tsîrala": 3731,
      "àxritse": 3732,
      "shkèxwèx": 3733,
      "úxnũk": 3734,
      "wòqbatsẽ": 3735,
      "ajkóqnõ": 3736,
      "##kètsã": 3737,
      "##kèlur": 3738,
      "skuóqk": 3739,
      "tér": 3740,
      "bob": 3741,
      "ichàko": 3742,
      "ichàkè": 3743,
      "ichàkak": 3744,
      "ichàkêke": 3745,
      "##tty": 3746,
      "tulurkĩ": 3747,
      "##alista": 3748,
      "kibì": 3749,
      "báũ": 3750,
      "báũk": 3751,
      "sawânẽ": 3752,
      "sawíyök": 3753,
      "shkòqkã": 3754,
      "mãñàxyök": 3755,
      "ujchẽnõ": 3756,
      "kéqköl": 3757,
      "tkòqpa": 3758,
      "ãwìxẽ": 3759,
      "nãùxpa": 3760,
      "dáã": 3761,
      "##olônẽ": 3762,
      "##nels": 3763,
      "##resía": 3764,
      "batsè": 3765,
      "áxrkẽ": 3766,
      "élkë": 3767,
      "##nda": 3768,
      "mãnèxnã": 3769,
      "mãnèxtã": 3770,
      "sũlìxtöm": 3771,
      "alàrala": 3772,
      "ĩâxchi": 3773,
      "diòqya": 3774,
      "##cilia": 3775,
      "##rìrì": 3776,
      "##mbresía": 3777,
      "tòqtko": 3778,
      "kabèqpa": 3779,
      "mũlûx": 3780,
      "dâtske": 3781,
      "##nêxnẽ": 3782,
      "ãmèxãt": 3783,
      "bís": 3784,
      "porche": 3785,
      "dékãtke": 3786,
      "teatre": 3787,
      "tèryök": 3788,
      "pàkekẽ": 3789,
      "ajkuö": 3790,
      "kùk": 3791,
      "ãlèxmũ": 3792,
      "sopa": 3793,
      "solo": 3794,
      "##mael": 3795,
      "kímèx": 3796,
      "pàlè": 3797,
      "pàlóq": 3798,
      "bulânẽ": 3799,
      "iét": 3800,
      "ièqk": 3801,
      "kòtere": 3802,
      "skéie": 3803,
      "wèi": 3804,
      "ĩùxtè": 3805,
      "tkèkèwã": 3806,
      "dawàs": 3807,
      "dulù": 3808,
      "dulytãmĩ": 3809,
      "óxrkẽ": 3810,
      "óxjkêx": 3811,
      "##dalër": 3812,
      "tsirìwèx": 3813,
      "akuòqwèx": 3814,
      "díndî": 3815,
      "kúxrmĩ": 3816,
      "maenne": 3817,
      "##nàxnẽ": 3818,
      "tskìnã": 3819,
      "tskírkẽ": 3820,
      "tsèqũ": 3821,
      "chòqmĩ": 3822,
      "chòqãt": 3823,
      "ũjùx": 3824,
      "kirèq": 3825,
      "sulèqwö": 3826,
      "wàtãwẽ": 3827,
      "ùshikalòq": 3828,
      "joann": 3829,
      "sĩàxë": 3830,
      "sĩàxrë": 3831,
      "dàmĩkã": 3832,
      "wôqkela": 3833,
      "ismael": 3834,
      "ãñĩ": 3835,
      "##bërë": 3836,
      "tsúxbitũ": 3837,
      "mãnéxrmĩ": 3838,
      "ĩnùxke": 3839,
      "batörè": 3840,
      "cutty": 3841,
      "##ped": 3842,
      "##coy": 3843,
      "chalòq": 3844,
      "chalâlâ": 3845,
      "wòqsìnã": 3846,
      "tkésẽ": 3847,
      "entre": 3848,
      "ensala": 3849,
      "iòxiòx": 3850,
      "tùxr": 3851,
      "juicio": 3852,
      "namùx": 3853,
      "nañéxwe": 3854,
      "tóxrke": 3855,
      "urban": 3856,
      "pàkarke": 3857,
      "apàkóq": 3858,
      "apàkök": 3859,
      "mũlùxsik": 3860,
      "ãmèxnẽãt": 3861,
      "béqrb": 3862,
      "béqrbë": 3863,
      "##mèxmĩ": 3864,
      "##nâxnã": 3865,
      "##óqknãmẽpa": 3866,
      "bitũtsẽ": 3867,
      "wôqiko": 3868,
      "tátsi": 3869,
      "##rôrô": 3870,
      "tsèxmĩ": 3871,
      "tsèxãt": 3872,
      "pàtãwèxke": 3873,
      "akákmẽ": 3874,
      "shùxshã": 3875,
      "bàtsulur": 3876,
      "ajkáchökbla": 3877,
      "ajkáchökblapa": 3878,
      "ikuwòq": 3879,
      "pópp": 3880,
      "tũwéx": 3881,
      "##bert": 3882,
      "##berculo": 3883,
      "ejér": 3884,
      "ièqnãkã": 3885,
      "sáxũ": 3886,
      "tuberculo": 3887,
      "táxĩë": 3888,
      "ãjã": 3889,
      "éẽrö": 3890,
      "estado": 3891,
      "kanèxbalö": 3892,
      "wòqklòqnẽ": 3893,
      "búffalo": 3894,
      "centro": 3895,
      "dóqkka": 3896,
      "óqk": 3897,
      "##quina": 3898,
      "##nîxnîx": 3899,
      "wòqtsak": 3900,
      "kerö": 3901,
      "luis": 3902,
      "##skuök": 3903,
      "pàtõ": 3904,
      "ulàbatse": 3905,
      "##namiento": 3906,
      "sĩnàxs": 3907,
      "wóqblar": 3908,
      "butsolônẽ": 3909,
      "àksipa": 3910,
      "188": 3911,
      "922": 3912,
      "hill": 3913,
      "lasaña": 3914,
      "placa": 3915,
      "aláki": 3916,
      "wòqnĩèxkẽ": 3917,
      "wòqppèke": 3918,
      "wóqular": 3919,
      "kapòqkwã": 3920,
      "shtáúx": 3921,
      "bùlikalòq": 3922,
      "conserva": 3923,
      "bòto": 3924,
      "jurados": 3925,
      "pòqkã": 3926,
      "##uṉk": 3927,
      "tsùxãt": 3928,
      "tsóqkölpa": 3929,
      "wòqkachi": 3930,
      "pasteles": 3931,
      "kutápa": 3932,
      "séxssẽ": 3933,
      "dakuòq": 3934,
      "kóxpàkòq": 3935,
      "ajkáyërke": 3936,
      "apéitepa": 3937,
      "dakírkî": 3938,
      "asociación": 3939,
      "cooperativa": 3940,
      "broad": 3941,
      "cecilia": 3942,
      "fund": 3943,
      "loren": 3944,
      "náxũ": 3945,
      "the": 3946,
      "vietnam": 3947,
      "wòxyök": 3948,
      "alarma": 3949,
      "tkêqnĩk": 3950,
      "sãnâxnâx": 3951,
      "dannels": 3952,
      "skèxtöm": 3953,
      "buey": 3954,
      "bukuë": 3955,
      "interés": 3956,
      "##logía": 3957,
      "kebèrke": 3958,
      "lovell": 3959,
      "vegas": 3960,
      "corporación": 3961,
      "kalèritkè": 3962,
      "aeróbi": 3963,
      "antonio": 3964,
      "bríbri": 3965,
      "creek": 3966,
      "césped": 3967,
      "evan": 3968,
      "faulk": 3969,
      "fila": 3970,
      "force": 3971,
      "floro": 3972,
      "fannie": 3973,
      "field": 3974,
      "general": 3975,
      "léköli": 3976,
      "máquina": 3977,
      "mccoy": 3978,
      "mallard": 3979,
      "nueva": 3980,
      "tropa": 3981,
      "york": 3982,
      "ãúxshãũsh": 3983,
      "ñõlòx": 3984,
      "##pend": 3985,
      "##mingo": 3986,
      "##lóxts": 3987,
      "bermuda": 3988,
      "satélite": 3989,
      "dawéswö": 3990,
      "champán": 3991,
      "wóqtsèla": 3992,
      "tecnología": 3993,
      "compañía": 3994,
      "##alistas": 3995,
      "kòtereööö": 3996,
      "maennechor": 3997,
      "entrenamiento": 3998,
      "ensalada": 3999,
      "ejército": 4000,
      "tuberculosis": 4001,
      "conservatorio": 4002,
      "12": 4003,
      "16": 4004,
      "15": 4005,
      "27": 4006,
      "200": 4007,
      "2000": 4008,
      "40": 4009,
      "45": 4010,
      "ai": 4011,
      "aka": 4012,
      "akã": 4013,
      "anéx": 4014,
      "akuö": 4015,
      "aaa": 4016,
      "bs": 4017,
      "cri": 4018,
      "cla": 4019,
      "cré": 4020,
      "dò": 4021,
      "dök": 4022,
      "dro": 4023,
      "ex": 4024,
      "ẽ": 4025,
      "emã": 4026,
      "fr": 4027,
      "fir": 4028,
      "fil": 4029,
      "fres": 4030,
      "fina": 4031,
      "gu": 4032,
      "gua": 4033,
      "gat": 4034,
      "gas": 4035,
      "gre": 4036,
      "ho": 4037,
      "iẽ": 4038,
      "iu": 4039,
      "ióq": 4040,
      "iéqr": 4041,
      "ièmĩ": 4042,
      "idi": 4043,
      "iéwã": 4044,
      "jkòq": 4045,
      "jaa": 4046,
      "kû": 4047,
      "kèx": 4048,
      "kök": 4049,
      "kòqt": 4050,
      "kkö": 4051,
      "kók": 4052,
      "krö": 4053,
      "kròq": 4054,
      "lök": 4055,
      "lla": 4056,
      "lòx": 4057,
      "let": 4058,
      "mé": 4059,
      "nõ": 4060,
      "nùx": 4061,
      "nũk": 4062,
      "ou": 4063,
      "oak": 4064,
      "oper": 4065,
      "pri": 4066,
      "pala": 4067,
      "pere": 4068,
      "rr": 4069,
      "rör": 4070,
      "rke": 4071,
      "rla": 4072,
      "së": 4073,
      "sy": 4074,
      "stsã": 4075,
      "tà": 4076,
      "tulu": 4077,
      "tèqnẽ": 4078,
      "tòqtkë": 4079,
      "ud": 4080,
      "uf": 4081,
      "upàkök": 4082,
      "v6": 4083,
      "wök": 4084,
      "wöl": 4085,
      "wil": 4086,
      "yar": 4087,
      "yèwãmĩ": 4088,
      "ànẽ": 4089,
      "áki": 4090,
      "èke": 4091,
      "ék": 4092,
      "ékëpa": 4093,
      "étkö": 4094,
      "ël": 4095,
      "ëkã": 4096,
      "ìèq": 4097,
      "ìse": 4098,
      "íkë": 4099,
      "ña": 4100,
      "ñi": 4101,
      "ñúxk": 4102,
      "ùk": 4103,
      "ùtẽ": 4104,
      "ùru": 4105,
      "úrikĩ": 4106,
      "ĩñẽ": 4107,
      "ĩnũk": 4108,
      "ẽrö": 4109,
      "ẽnàx": 4110,
      "##wíx": 4111,
      "##wala": 4112,
      "##wil": 4113,
      "##áwö": 4114,
      "##árke": 4115,
      "##pía": 4116,
      "##pres": 4117,
      "##paka": 4118,
      "##ã": 4119,
      "##agan": 4120,
      "##òlolo": 4121,
      "##kéq": 4122,
      "##kîx": 4123,
      "##kchi": 4124,
      "##kêx": 4125,
      "##kkuö": 4126,
      "##rê": 4127,
      "##rök": 4128,
      "##rbulu": 4129,
      "##rkö": 4130,
      "##rulur": 4131,
      "##inã": 4132,
      "##iök": 4133,
      "##ièkẽ": 4134,
      "##itse": 4135,
      "##itãnẽ": 4136,
      "##ela": 4137,
      "##eog": 4138,
      "##ërke": 4139,
      "##tó": 4140,
      "##tóq": 4141,
      "##tla": 4142,
      "##tèke": 4143,
      "##trak": 4144,
      "##sas": 4145,
      "##stsök": 4146,
      "##ãn": 4147,
      "##ãnẽ": 4148,
      "##od": 4149,
      "##oka": 4150,
      "##mòx": 4151,
      "##bök": 4152,
      "##böl": 4153,
      "##bie": 4154,
      "##bôq": 4155,
      "##bet": 4156,
      "##bulù": 4157,
      "##ís": 4158,
      "##ío": 4159,
      "##íd": 4160,
      "##íũk": 4161,
      "##élor": 4162,
      "##èk": 4163,
      "##nu": 4164,
      "##ng": 4165,
      "##nar": 4166,
      "##nòx": 4167,
      "##ut": 4168,
      "##uta": 4169,
      "##lù": 4170,
      "##là": 4171,
      "##lka": 4172,
      "##law": 4173,
      "##ñèxke": 4174,
      "##zana": 4175,
      "##úyök": 4176,
      "##öà": 4177,
      "##ùà": 4178,
      "##ùnã": 4179,
      "##yo": 4180,
      "##yè": 4181,
      "##yan": 4182,
      "##àke": 4183,
      "##àköl": 4184,
      "##ànũk": 4185,
      "##õnõ": 4186,
      "##ge": 4187,
      "##gen": 4188,
      "##gura": 4189,
      "##cu": 4190,
      "##cio": 4191,
      "##cos": 4192,
      "##cía": 4193,
      "##ciones": 4194,
      "##âõ": 4195,
      "##ânã": 4196,
      "##âkũ": 4197,
      "##âböt": 4198,
      "##ja": 4199,
      "##je": 4200,
      "##jùx": 4201,
      "##jtsã": 4202,
      "##dr": 4203,
      "##ds": 4204,
      "##dul": 4205,
      "##dora": 4206,
      "##vil": 4207,
      "##̀ã": 4208,
      "##10": 4209,
      "##̩̈": 4210,
      "tãla": 4211,
      "tse": 4212,
      "tsèqnã": 4213,
      "tsèmĩ": 4214,
      "tsèxke": 4215,
      "##èqrke": 4216,
      "##éxwã": 4217,
      "##èxkã": 4218,
      "##óqr": 4219,
      "##óqö": 4220,
      "##alë": 4221,
      "##alé": 4222,
      "kèqti": 4223,
      "##áxts": 4224,
      "##áxtke": 4225,
      "##chá": 4226,
      "##chòq": 4227,
      "##chál": 4228,
      "##chóqknãmẽ": 4229,
      "##nẽwã": 4230,
      "##ulú": 4231,
      "##éqk": 4232,
      "chèkẽ": 4233,
      "chik": 4234,
      "chòqkẽ": 4235,
      "chál": 4236,
      "chicos": 4237,
      "chàke": 4238,
      "segura": 4239,
      "##akã": 4240,
      "##akẽ": 4241,
      "##nãr": 4242,
      "káxche": 4243,
      "káxchök": 4244,
      "##kanẽ": 4245,
      "alòqke": 4246,
      "alékã": 4247,
      "alònẽ": 4248,
      "##pan": 4249,
      "##rica": 4250,
      "kiök": 4251,
      "kióqk": 4252,
      "kichö": 4253,
      "kiàxnã": 4254,
      "saco": 4255,
      "shũ": 4256,
      "shul": 4257,
      "shir": 4258,
      "shâx": 4259,
      "shôë": 4260,
      "shléq": 4261,
      "shòlolo": 4262,
      "##ùxk": 4263,
      "dika": 4264,
      "dicie": 4265,
      "##óqktër": 4266,
      "ichak": 4267,
      "kũkã": 4268,
      "kũòx": 4269,
      "wòqr": 4270,
      "wòqë": 4271,
      "wòqb": 4272,
      "wòqnã": 4273,
      "wòqkẽ": 4274,
      "wòqie": 4275,
      "wòqwa": 4276,
      "wòqik": 4277,
      "wòqte": 4278,
      "wòqwõ": 4279,
      "wòqchaka": 4280,
      "wòqmèx": 4281,
      "wòqóqknãmẽpa": 4282,
      "kadi": 4283,
      "kashùxã": 4284,
      "karôrô": 4285,
      "##laba": 4286,
      "wéxnẽ": 4287,
      "wéxël": 4288,
      "wéxlè": 4289,
      "tki": 4290,
      "tkó": 4291,
      "tkêqr": 4292,
      "tkìnẽ": 4293,
      "tkèqr": 4294,
      "tkàwã": 4295,
      "##ũkka": 4296,
      "##ũkwa": 4297,
      "##kãnẽ": 4298,
      "##kãtke": 4299,
      "##jkéx": 4300,
      "##nèxkẽ": 4301,
      "##nèxkã": 4302,
      "kãk": 4303,
      "kãñìx": 4304,
      "##shwö": 4305,
      "##shba": 4306,
      "##shkö": 4307,
      "##shkal": 4308,
      "##ákwã": 4309,
      "irirla": 4310,
      "uju": 4311,
      "ujarr": 4312,
      "bita": 4313,
      "biro": 4314,
      "bill": 4315,
      "mìxt": 4316,
      "dawôq": 4317,
      "kàr": 4318,
      "kàbisã": 4319,
      "kàkchi": 4320,
      "uléq": 4321,
      "ulitãnẽ": 4322,
      "yawì": 4323,
      "yawö": 4324,
      "##wèxwa": 4325,
      "míxrule": 4326,
      "míxppa": 4327,
      "míxyan": 4328,
      "siáköl": 4329,
      "sinĩ": 4330,
      "éxjkèx": 4331,
      "##óxk": 4332,
      "##óxwã": 4333,
      "##óxie": 4334,
      "séxra": 4335,
      "yéqtsã": 4336,
      "yéqchke": 4337,
      "ujto": 4338,
      "ujtö": 4339,
      "##òxka": 4340,
      "sulé": 4341,
      "nãka": 4342,
      "nãúx": 4343,
      "sãùx": 4344,
      "kàlw": 4345,
      "kàlkua": 4346,
      "kàlkuö": 4347,
      "kàltak": 4348,
      "kàlbli": 4349,
      "èql": 4350,
      "èqkã": 4351,
      "èqkal": 4352,
      "kũéxĩ": 4353,
      "shko": 4354,
      "shkí": 4355,
      "shkö": 4356,
      "shkànẽ": 4357,
      "shkówã": 4358,
      "shkít": 4359,
      "bata": 4360,
      "kalì": 4361,
      "wèxse": 4362,
      "éxnùxke": 4363,
      "##uralistas": 4364,
      "mĩka": 4365,
      "mĩáxtke": 4366,
      "pàa": 4367,
      "pàs": 4368,
      "pànẽ": 4369,
      "pàtke": 4370,
      "pàkòq": 4371,
      "pàik": 4372,
      "pàkö": 4373,
      "pàter": 4374,
      "##mãwak": 4375,
      "ajkàyë": 4376,
      "dapâ": 4377,
      "daché": 4378,
      "##òqkewa": 4379,
      "##tkla": 4380,
      "##tkèke": 4381,
      "##tkèkẽ": 4382,
      "##irö": 4383,
      "dala": 4384,
      "dalè": 4385,
      "dalër": 4386,
      "dalèqnẽ": 4387,
      "dalàbulu": 4388,
      "déwa": 4389,
      "détsa": 4390,
      "ulànẽ": 4391,
      "ulàte": 4392,
      "ulàkicha": 4393,
      "ulàwáx": 4394,
      "##âxkĩ": 4395,
      "##âxũk": 4396,
      "##wẽwã": 4397,
      "##wẽkètke": 4398,
      "##tsiki": 4399,
      "apóq": 4400,
      "àxàx": 4401,
      "àxna": 4402,
      "àxshwö": 4403,
      "wéqla": 4404,
      "wéqrkẽ": 4405,
      "sibòqlala": 4406,
      "skè": 4407,
      "baka": 4408,
      "bakè": 4409,
      "bakö": 4410,
      "bakèkẽ": 4411,
      "##badora": 4412,
      "##òqtak": 4413,
      "##òqtër": 4414,
      "yàk": 4415,
      "balò": 4416,
      "balòq": 4417,
      "balóq": 4418,
      "baléqrke": 4419,
      "balèkẽwã": 4420,
      "##nauta": 4421,
      "##era": 4422,
      "bulâr": 4423,
      "sĩẽn": 4424,
      "wóqnĩk": 4425,
      "kíxtsök": 4426,
      "##wéxwã": 4427,
      "##wéxkã": 4428,
      "kapòqke": 4429,
      "kapôq": 4430,
      "kapali": 4431,
      "kapákwã": 4432,
      "kapòqtër": 4433,
      "##balòqkẽ": 4434,
      "sulûnẽ": 4435,
      "sulûòxka": 4436,
      "apàkẽ": 4437,
      "apàto": 4438,
      "apàtök": 4439,
      "kãnèxbló": 4440,
      "kãnèxblóq": 4441,
      "kãnèxblòqkẽ": 4442,
      "katẽ": 4443,
      "katök": 4444,
      "katar": 4445,
      "katòqk": 4446,
      "katèwã": 4447,
      "ãñìxjp": 4448,
      "mĩkalè": 4449,
      "tóqraã": 4450,
      "buë": 4451,
      "ttók": 4452,
      "yìr": 4453,
      "wéìk": 4454,
      "sèxrkẽ": 4455,
      "##èqnẽwã": 4456,
      "##ulat": 4457,
      "kòqkã": 4458,
      "tasas": 4459,
      "chènẽ": 4460,
      "chèkũ": 4461,
      "inde": 4462,
      "insti": 4463,
      "##siles": 4464,
      "pei": 4465,
      "##yèqnã": 4466,
      "##nĩmẽ": 4467,
      "stsêqka": 4468,
      "súxule": 4469,
      "##and": 4470,
      "##anci": 4471,
      "##ôqã": 4472,
      "##tel": 4473,
      "##uente": 4474,
      "kièrak": 4475,
      "batàie": 4476,
      "kóxli": 4477,
      "kóxkö": 4478,
      "kóxbla": 4479,
      "kóxttö": 4480,
      "aìwa": 4481,
      "síúx": 4482,
      "síũk": 4483,
      "síwö": 4484,
      "bòqtkë": 4485,
      "bòqtóqkicha": 4486,
      "bòqtom": 4487,
      "mìxkalê": 4488,
      "ákwö": 4489,
      "ákchka": 4490,
      "##atuaa": 4491,
      "talànã": 4492,
      "yàmĩpala": 4493,
      "yulòq": 4494,
      "yulèkẽ": 4495,
      "kuátke": 4496,
      "##ick": 4497,
      "##icia": 4498,
      "yawènẽ": 4499,
      "yawèka": 4500,
      "yawèlur": 4501,
      "dùsĩã": 4502,
      "dùtrak": 4503,
      "daro": 4504,
      "daréq": 4505,
      "darèqr": 4506,
      "chaké": 4507,
      "espa": 4508,
      "tulóqk": 4509,
      "arkã": 4510,
      "##tsẽr": 4511,
      "dàa": 4512,
      "dàã": 4513,
      "dàtsi": 4514,
      "móxũ": 4515,
      "nãñêx": 4516,
      "##èwãtke": 4517,
      "mèxtër": 4518,
      "shté": 4519,
      "shtóq": 4520,
      "shtir": 4521,
      "wìxk": 4522,
      "bitẽ": 4523,
      "bitèx": 4524,
      "èxẽ": 4525,
      "èxnã": 4526,
      "èxwèxwã": 4527,
      "èxnèxwã": 4528,
      "klòqnã": 4529,
      "klòqwèxke": 4530,
      "klòqwèxmĩ": 4531,
      "##rmĩnẽ": 4532,
      "##rea": 4533,
      "tsóxwe": 4534,
      "tsóxppök": 4535,
      "tèk": 4536,
      "mãñáxtöm": 4537,
      "sãwèxkẽ": 4538,
      "bùnẽ": 4539,
      "kínũk": 4540,
      "ùxte": 4541,
      "##rabadora": 4542,
      "bitsòq": 4543,
      "bitsóq": 4544,
      "bitsíx": 4545,
      "bóqwö": 4546,
      "bóqjkö": 4547,
      "ãmìxwöla": 4548,
      "nĩk": 4549,
      "alíie": 4550,
      "kalòqtèqnẽ": 4551,
      "ikũáx": 4552,
      "ikũâxkĩ": 4553,
      "páiki": 4554,
      "##dia": 4555,
      "kanèxwèxke": 4556,
      "##wõk": 4557,
      "duè": 4558,
      "mòxwö": 4559,
      "tsikì": 4560,
      "tkáka": 4561,
      "kòqchiwe": 4562,
      "ajkóqnèxke": 4563,
      "ajkóqnar": 4564,
      "télor": 4565,
      "bols": 4566,
      "botel": 4567,
      "ichàkũ": 4568,
      "ichàkóq": 4569,
      "ajkátë": 4570,
      "cabagra": 4571,
      "kál": 4572,
      "##piz": 4573,
      "##pids": 4574,
      "ãwíxẽ": 4575,
      "këpa": 4576,
      "kibìnã": 4577,
      "bámb": 4578,
      "bátsule": 4579,
      "sawi": 4580,
      "sawák": 4581,
      "sawànã": 4582,
      "##nco": 4583,
      "##ncie": 4584,
      "shkòqmĩ": 4585,
      "klör": 4586,
      "tkòqõ": 4587,
      "iklòqõ": 4588,
      "iklòqnẽ": 4589,
      "suk": 4590,
      "##ilì": 4591,
      "tsétsè": 4592,
      "kíxme": 4593,
      "kíxmèxmĩ": 4594,
      "dáde": 4595,
      "tãwèxkẽ": 4596,
      "tãwèxmĩ": 4597,
      "méxr": 4598,
      "méxrke": 4599,
      "batséi": 4600,
      "bànèxwã": 4601,
      "bàrkö": 4602,
      "áxtke": 4603,
      "##ndres": 4604,
      "mãnèxnẽ": 4605,
      "mãnèxũk": 4606,
      "mãnèxwẽ": 4607,
      "mãnèxwèxmĩ": 4608,
      "tàyëla": 4609,
      "##int": 4610,
      "kibíie": 4611,
      "béqsul": 4612,
      "laba": 4613,
      "ñáxnũk": 4614,
      "ñáxnõ": 4615,
      "yêqsyêqsë": 4616,
      "núxrwã": 4617,
      "yèqnẽtsa": 4618,
      "##ppèe": 4619,
      "pàktöm": 4620,
      "##rícula": 4621,
      "dótkenẽ": 4622,
      "ùshñã": 4623,
      "##cia": 4624,
      "ajkáchóqk": 4625,
      "carmen": 4626,
      "##úlsar": 4627,
      "tsìxka": 4628,
      "wìxkepa": 4629,
      "déqnẽ": 4630,
      "déqka": 4631,
      "ikiè": 4632,
      "ikièke": 4633,
      "##mõköl": 4634,
      "tòqraã": 4635,
      "kabèqla": 4636,
      "tkîwẽ": 4637,
      "tkîwéx": 4638,
      "tkîuṉk": 4639,
      "tkèqtẽn": 4640,
      "kíxmẽrke": 4641,
      "kíxmẽrmĩ": 4642,
      "tkéqlka": 4643,
      "èköla": 4644,
      "##ántro": 4645,
      "##sãũk": 4646,
      "dâmĩ": 4647,
      "bikeitsö": 4648,
      "bikeitsule": 4649,
      "bòql": 4650,
      "bòqwö": 4651,
      "ñéxwa": 4652,
      "ñìxpp": 4653,
      "ñìxppök": 4654,
      "ñìxwẽkètke": 4655,
      "chip": 4656,
      "chika": 4657,
      "kakmũ": 4658,
      "yéulur": 4659,
      "yéstsã": 4660,
      "kukõ": 4661,
      "kukèkẽ": 4662,
      "ajkuóqlit": 4663,
      "bitùxrkã": 4664,
      "béqrëbërë": 4665,
      "ahh": 4666,
      "kùbulu": 4667,
      "ãlàx": 4668,
      "tsiríwèxkẽ": 4669,
      "bèqkuö": 4670,
      "wóqsts": 4671,
      "1900": 4672,
      "sìtla": 4673,
      "shkèkêx": 4674,
      "akàñãk": 4675,
      "kòk": 4676,
      "rapids": 4677,
      "íẽrö": 4678,
      "dàtsĩke": 4679,
      "tóqkblapa": 4680,
      "àkbal": 4681,
      "tsìdalala": 4682,
      "tkòqkemĩ": 4683,
      "ujtóqkwã": 4684,
      "bribriwak": 4685,
      "##wóqsãwõ": 4686,
      "tsaki": 4687,
      "dalòqtsẽ": 4688,
      "apánũk": 4689,
      "apáin": 4690,
      "buàrmĩnẽ": 4691,
      "tóttôë": 4692,
      "téxr": 4693,
      "##éqrulewã": 4694,
      "klóqwẽ": 4695,
      "klóqwõ": 4696,
      "kúxrke": 4697,
      "maria": 4698,
      "tsàxmõ": 4699,
      "chòqwa": 4700,
      "abeli": 4701,
      "kirìnã": 4702,
      "daléqnã": 4703,
      "wàtãwèx": 4704,
      "wàtãwéx": 4705,
      "wàtãwèxkẽ": 4706,
      "bikéitsekẽ": 4707,
      "köppèe": 4708,
      "shakö": 4709,
      "siòxdala": 4710,
      "dàmĩtke": 4711,
      "yës": 4712,
      "##éstsã": 4713,
      "kàchök": 4714,
      "shkóqr": 4715,
      "ãmíxpa": 4716,
      "páxlĩnẽ": 4717,
      "londres": 4718,
      "téqrkẽ": 4719,
      "ñàxnã": 4720,
      "##denador": 4721,
      "chaléx": 4722,
      "akèqchake": 4723,
      "démĩnẽ": 4724,
      "tsikírmĩ": 4725,
      "##tárea": 4726,
      "##tronauta": 4727,
      "##löaa": 4728,
      "kapéyèkẽ": 4729,
      "kóqtulur": 4730,
      "tsítsipa": 4731,
      "tsítsipala": 4732,
      "dot": 4733,
      "domingo": 4734,
      "junio": 4735,
      "leg": 4736,
      "point": 4737,
      "tóxule": 4738,
      "urrì": 4739,
      "tsúxkmĩ": 4740,
      "shkamẽ": 4741,
      "bêqrër": 4742,
      "kéxkraë": 4743,
      "mũlùxtak": 4744,
      "wíköla": 4745,
      "iajk": 4746,
      "tarë": 4747,
      "##busi": 4748,
      "kãnèxõnõ": 4749,
      "mâxtkle": 4750,
      "contra": 4751,
      "baróqr": 4752,
      "dèqbitũ": 4753,
      "ordenador": 4754,
      "táa": 4755,
      "tĩèxkã": 4756,
      "yuw": 4757,
      "ñîxë": 4758,
      "##ttsãk": 4759,
      "kãnéxwẽ": 4760,
      "kãnéxwèxkẽ": 4761,
      "##baliwak": 4762,
      "síkuapa": 4763,
      "darêqrêqëmẽ": 4764,
      "campo": 4765,
      "mãlíxtsule": 4766,
      "kós": 4767,
      "reagan": 4768,
      "wíxẽ": 4769,
      "tséqule": 4770,
      "ichérak": 4771,
      "kũlùx": 4772,
      "bachànẽ": 4773,
      "skáxmóxköl": 4774,
      "skáxmõköl": 4775,
      "dakítkök": 4776,
      "ujchẽnẽ": 4777,
      "kakmẽrke": 4778,
      "kukùie": 4779,
      "bèqrieblu": 4780,
      "oficial": 4781,
      "ejer": 4782,
      "jtsâwak": 4783,
      "misiles": 4784,
      "medic": 4785,
      "membresía": 4786,
      "##mĩ": 4787,
      "tsíxnẽt": 4788,
      "ĩâxchkí": 4789,
      "wòqklòqũk": 4790,
      "cubana": 4791,
      "dalôqlôqë": 4792,
      "centa": 4793,
      "kirírkẽ": 4794,
      "shuy": 4795,
      "shúxl": 4796,
      "ujtèkẽwã": 4797,
      "kalôqwẽ": 4798,
      "bukulú": 4799,
      "sũlìxtul": 4800,
      "sũlìxtúyök": 4801,
      "wîxwîxë": 4802,
      "ãñìx": 4803,
      "téqruwak": 4804,
      "téqrömwak": 4805,
      "ôxs": 4806,
      "##ómica": 4807,
      "shap": 4808,
      "shatar": 4809,
      "kachúk": 4810,
      "kabèkir": 4811,
      "mìxchòë": 4812,
      "pàtóx": 4813,
      "dòqkẽtke": 4814,
      "nãñèxwe": 4815,
      "pájtök": 4816,
      "grand": 4817,
      "hilbert": 4818,
      "sòqkkö": 4819,
      "alòqbuk": 4820,
      "wòqppèkẽ": 4821,
      "mĩchô": 4822,
      "katárule": 4823,
      "tulúrkã": 4824,
      "shtáwõk": 4825,
      "èxnẽwa": 4826,
      "kãmîxë": 4827,
      "atómica": 4828,
      "astronauta": 4829,
      "kúkur": 4830,
      "kolómãwak": 4831,
      "ukâböt": 4832,
      "##pui": 4833,
      "tsóqkol": 4834,
      "sarúlsar": 4835,
      "shurú": 4836,
      "shurù": 4837,
      "wòqbuts": 4838,
      "wòqyawe": 4839,
      "kalòk": 4840,
      "balàtök": 4841,
      "shùxbalékã": 4842,
      "mèxkèãt": 4843,
      "dukúr": 4844,
      "yèwadà": 4845,
      "sutát": 4846,
      "ppèkẽrak": 4847,
      "bikéitsèkẽ": 4848,
      "tsikirís": 4849,
      "kirèqrmãpa": 4850,
      "zoológico": 4851,
      "zoológicos": 4852,
      "años": 4853,
      "good": 4854,
      "puerto": 4855,
      "péite": 4856,
      "videog": 4857,
      "ĩúxrke": 4858,
      "chàkè": 4859,
      "wòqkĩla": 4860,
      "wéxrtse": 4861,
      "ulàttã": 4862,
      "balôbalô": 4863,
      "kóxwötã": 4864,
      "mãnèxtkã": 4865,
      "batámĩk": 4866,
      "ahorro": 4867,
      "1968": 4868,
      "1973": 4869,
      "abogados": 4870,
      "tarèqie": 4871,
      "dèqkãtkenẽ": 4872,
      "tsíxjkẽn": 4873,
      "bachâbachaë": 4874,
      "black": 4875,
      "cuenta": 4876,
      "hectárea": 4877,
      "kâblë": 4878,
      "lápiz": 4879,
      "matrícula": 4880,
      "naturalistas": 4881,
      "pintura": 4882,
      "uuuf": 4883,
      "éköltë": 4884,
      "êqk": 4885,
      "ñéẽ": 4886,
      "##bùsi": 4887,
      "tsalá": 4888,
      "chukuè": 4889,
      "chicago": 4890,
      "káxköltö": 4891,
      "káxñĩk": 4892,
      "shũléx": 4893,
      "biomas": 4894,
      "dawóqchkepa": 4895,
      "ulûk": 4896,
      "kũéxk": 4897,
      "éxòxwã": 4898,
      "akáluk": 4899,
      "ulàttöũk": 4900,
      "sibìkũ": 4901,
      "kíxteka": 4902,
      "aìshkẽ": 4903,
      "nãñéxë": 4904,
      "kibìie": 4905,
      "báũnẽ": 4906,
      "ãlèxmũs": 4907,
      "béqrbéqr": 4908,
      "wòqtsakoka": 4909,
      "pàtõrke": 4910,
      "fundación": 4911,
      "aeróbico": 4912,
      "bríbriwak": 4913,
      "evans": 4914,
      "tropas": 4915,
      "##pendiente": 4916,
      "anéxũ": 4917,
      "bséx": 4918,
      "crisis": 4919,
      "crédi": 4920,
      "franci": 4921,
      "filántro": 4922,
      "fresno": 4923,
      "financie": 4924,
      "gates": 4925,
      "iupui": 4926,
      "idióqköl": 4927,
      "kókó": 4928,
      "leticia": 4929,
      "nùxnãwã": 4930,
      "oaklaw": 4931,
      "operaciones": 4932,
      "syàmĩ": 4933,
      "tòqtkërke": 4934,
      "wills": 4935,
      "ìsela": 4936,
      "##will": 4937,
      "##presión": 4938,
      "shléqwöla": 4939,
      "shòlololo": 4940,
      "diciembre": 4941,
      "kũòxkĩ": 4942,
      "kãñìxru": 4943,
      "ujarrás": 4944,
      "séxraë": 4945,
      "ulàwáxk": 4946,
      "àxnas": 4947,
      "independiente": 4948,
      "institu": 4949,
      "darèqrèq": 4950,
      "béqsulula": 4951,
      "shkèkêxkã": 4952,
      "abelino": 4953,
      "contrapresión": 4954,
      "medicina": 4955,
      "kabèkirwak": 4956,
      "sarúlsarul": 4957,
      "goodwill": 4958,
      "videograbadora": 4959,
      "francis": 4960,
      "filántropo": 4961,
      "oaklawn": 4962,
      "02": 4963,
      "21": 4964,
      "48": 4965,
      "50": 4966,
      "55": 4967,
      "5000": 4968,
      "aa": 4969,
      "ae": 4970,
      "az": 4971,
      "af": 4972,
      "aba": 4973,
      "amùx": 4974,
      "abèq": 4975,
      "aff": 4976,
      "ami": 4977,
      "by": 4978,
      "bók": 4979,
      "bâr": 4980,
      "bru": 4981,
      "brù": 4982,
      "bûr": 4983,
      "bèk": 4984,
      "cá": 4985,
      "có": 4986,
      "cos": 4987,
      "dr": 4988,
      "dl": 4989,
      "döl": 4990,
      "des": 4991,
      "der": 4992,
      "día": 4993,
      "dló": 4994,
      "dûr": 4995,
      "em": 4996,
      "ed": 4997,
      "eur": 4998,
      "ewa": 4999,
      "ele": 5000,
      "epà": 5001,
      "eye": 5002,
      "equ": 5003,
      "fan": 5004,
      "fly": 5005,
      "frec": 5006,
      "ga": 5007,
      "gar": 5008,
      "grie": 5009,
      "heno": 5010,
      "iö": 5011,
      "iy": 5012,
      "iâx": 5013,
      "ijkë": 5014,
      "inũk": 5015,
      "isã": 5016,
      "iéqrulewã": 5017,
      "jke": 5018,
      "jkẽ": 5019,
      "jtse": 5020,
      "jue": 5021,
      "jkua": 5022,
      "kèkẽ": 5023,
      "kúxk": 5024,
      "kèmĩ": 5025,
      "kol": 5026,
      "kânẽ": 5027,
      "kkuè": 5028,
      "ll": 5029,
      "ló": 5030,
      "lóq": 5031,
      "law": 5032,
      "lám": 5033,
      "mò": 5034,
      "mo": 5035,
      "mí": 5036,
      "ml": 5037,
      "mì": 5038,
      "mor": 5039,
      "múxköl": 5040,
      "món": 5041,
      "min": 5042,
      "mík": 5043,
      "ni": 5044,
      "nèx": 5045,
      "nàx": 5046,
      "nûx": 5047,
      "nèxnẽ": 5048,
      "os": 5049,
      "ol": 5050,
      "oli": 5051,
      "opòq": 5052,
      "oló": 5053,
      "otra": 5054,
      "onu": 5055,
      "póqk": 5056,
      "póx": 5057,
      "pók": 5058,
      "pík": 5059,
      "qu": 5060,
      "rá": 5061,
      "ròq": 5062,
      "rch": 5063,
      "réq": 5064,
      "rkã": 5065,
      "rala": 5066,
      "rica": 5067,
      "rèe": 5068,
      "rmĩnẽ": 5069,
      "rick": 5070,
      "sèq": 5071,
      "ske": 5072,
      "sũk": 5073,
      "ski": 5074,
      "stse": 5075,
      "srû": 5076,
      "sol": 5077,
      "súr": 5078,
      "sẽr": 5079,
      "sòquaa": 5080,
      "span": 5081,
      "tr": 5082,
      "tẽ": 5083,
      "tl": 5084,
      "tú": 5085,
      "tâ": 5086,
      "tû": 5087,
      "tíx": 5088,
      "têq": 5089,
      "tie": 5090,
      "tòqke": 5091,
      "ter": 5092,
      "tày": 5093,
      "tĩã": 5094,
      "tók": 5095,
      "tâũk": 5096,
      "tâwẽ": 5097,
      "un": 5098,
      "wi": 5099,
      "wèq": 5100,
      "wàx": 5101,
      "wèqr": 5102,
      "yá": 5103,
      "yo": 5104,
      "yër": 5105,
      "yôq": 5106,
      "yók": 5107,
      "yèqr": 5108,
      "yár": 5109,
      "àt": 5110,
      "àts": 5111,
      "àtsẽ": 5112,
      "àtsĩ": 5113,
      "àsir": 5114,
      "ár": 5115,
      "áf": 5116,
      "ánĩk": 5117,
      "ãñã": 5118,
      "ãñíx": 5119,
      "èbale": 5120,
      "éjk": 5121,
      "éki": 5122,
      "érul": 5123,
      "êse": 5124,
      "êtökicha": 5125,
      "ëk": 5126,
      "ëtk": 5127,
      "ëltë": 5128,
      "ìke": 5129,
      "ìes": 5130,
      "ík": 5131,
      "ítẽ": 5132,
      "ítkẽ": 5133,
      "òj": 5134,
      "ótk": 5135,
      "õdal": 5136,
      "ööö": 5137,
      "öööö": 5138,
      "örëbèq": 5139,
      "ùnẽ": 5140,
      "ùnã": 5141,
      "ùjkö": 5142,
      "ùùù": 5143,
      "ùsul": 5144,
      "ùyöm": 5145,
      "úa": 5146,
      "ún": 5147,
      "úpake": 5148,
      "ûyèkẽ": 5149,
      "ĩs": 5150,
      "ĩmĩ": 5151,
      "ĩòx": 5152,
      "ĩúxk": 5153,
      "ẽẽ": 5154,
      "##wi": 5155,
      "##wì": 5156,
      "##w̱": 5157,
      "##wöli": 5158,
      "##áwã": 5159,
      "##átse": 5160,
      "##átsèke": 5161,
      "##áitö": 5162,
      "##áchá": 5163,
      "##pũ": 5164,
      "##pö": 5165,
      "##pón": 5166,
      "##am": 5167,
      "##anã": 5168,
      "##ari": 5169,
      "##amĩ": 5170,
      "##aqu": 5171,
      "##ame": 5172,
      "##avil": 5173,
      "##òkẽ": 5174,
      "##òwa": 5175,
      "##òli": 5176,
      "##òtë": 5177,
      "##ké": 5178,
      "##kù": 5179,
      "##kó": 5180,
      "##kéx": 5181,
      "##kak": 5182,
      "##kpa": 5183,
      "##kmĩ": 5184,
      "##kwö": 5185,
      "##kòqke": 5186,
      "##kwa": 5187,
      "##klo": 5188,
      "##kkëpa": 5189,
      "##k̀ã": 5190,
      "##ĩõ": 5191,
      "##ĩòx": 5192,
      "##ĩôx": 5193,
      "##êt": 5194,
      "##rú": 5195,
      "##réq": 5196,
      "##rtã": 5197,
      "##ryök": 5198,
      "##rkè": 5199,
      "##rlur": 5200,
      "##rèqk": 5201,
      "##rkètke": 5202,
      "##ràwã": 5203,
      "##rales": 5204,
      "##rtsèke": 5205,
      "##rwala": 5206,
      "##ió": 5207,
      "##ita": 5208,
      "##ibitũ": 5209,
      "##ista": 5210,
      "##ipo": 5211,
      "##igala": 5212,
      "##ichóqk": 5213,
      "##ẽ": 5214,
      "##eas": 5215,
      "##ët": 5216,
      "##ës": 5217,
      "##ënã": 5218,
      "##ëtk": 5219,
      "##tí": 5220,
      "##tul": 5221,
      "##tkĩ": 5222,
      "##tóx": 5223,
      "##tán": 5224,
      "##ting": 5225,
      "##së": 5226,
      "##sö": 5227,
      "##sù": 5228,
      "##sd": 5229,
      "##smã": 5230,
      "##sule": 5231,
      "##sulu": 5232,
      "##ãmĩ": 5233,
      "##ãie": 5234,
      "##ãlîx": 5235,
      "##oë": 5236,
      "##opa": 5237,
      "##oli": 5238,
      "##ẽs": 5239,
      "##más": 5240,
      "##mbla": 5241,
      "##mis": 5242,
      "##bò": 5243,
      "##bú": 5244,
      "##bule": 5245,
      "##bio": 5246,
      "##bêqr": 5247,
      "##bre": 5248,
      "##böla": 5249,
      "##búsi": 5250,
      "##bölö": 5251,
      "##bela": 5252,
      "##ír": 5253,
      "##épa": 5254,
      "##émĩ": 5255,
      "##éli": 5256,
      "##éulur": 5257,
      "##éwöla": 5258,
      "##ènã": 5259,
      "##èir": 5260,
      "##èuaa": 5261,
      "##nn": 5262,
      "##náx": 5263,
      "##ntu": 5264,
      "##nwĩ": 5265,
      "##nwâx": 5266,
      "##ntr": 5267,
      "##uã": 5268,
      "##uc": 5269,
      "##uri": 5270,
      "##ukö": 5271,
      "##uis": 5272,
      "##uid": 5273,
      "##ũã": 5274,
      "##ũkẽ": 5275,
      "##ũwã": 5276,
      "##ũũk": 5277,
      "##ũtu": 5278,
      "##lör": 5279,
      "##lwak": 5280,
      "##lyök": 5281,
      "##lêx": 5282,
      "##lûx": 5283,
      "##leno": 5284,
      "##lchika": 5285,
      "##ìta": 5286,
      "##ìwèxwã": 5287,
      "##ìrìrì": 5288,
      "##ñak": 5289,
      "##ñol": 5290,
      "##hid": 5291,
      "##îë": 5292,
      "##úi": 5293,
      "##úú": 5294,
      "##únẽ": 5295,
      "##úköl": 5296,
      "##úrkã": 5297,
      "##úcar": 5298,
      "##öbita": 5299,
      "##ùbulu": 5300,
      "##ùso": 5301,
      "##ùrù": 5302,
      "##yà": 5303,
      "##yör": 5304,
      "##yèqnẽ": 5305,
      "##yuwak": 5306,
      "##àli": 5307,
      "##àchà": 5308,
      "##àtska": 5309,
      "##óka": 5310,
      "##óköl": 5311,
      "##õr": 5312,
      "##õs": 5313,
      "##ôũk": 5314,
      "##gar": 5315,
      "##gor": 5316,
      "##glo": 5317,
      "##gad": 5318,
      "##cto": 5319,
      "##ctá": 5320,
      "##ctor": 5321,
      "##âch": 5322,
      "##âëmẽ": 5323,
      "##̃k": 5324,
      "##̃iòx": 5325,
      "##du": 5326,
      "##dì": 5327,
      "##daw": 5328,
      "##dio": 5329,
      "##dik": 5330,
      "##duk": 5331,
      "##dicos": 5332,
      "##ves": 5333,
      "##vos": 5334,
      "##vado": 5335,
      "##ûkicha": 5336,
      "##ft": 5337,
      "##39": 5338,
      "##30": 5339,
      "##71": 5340,
      "tãùx": 5341,
      "tãwèxke": 5342,
      "ienẽ": 5343,
      "tsẽ": 5344,
      "tsû": 5345,
      "tsör": 5346,
      "tsul": 5347,
      "tsök": 5348,
      "tsòx": 5349,
      "tsule": 5350,
      "tséqrule": 5351,
      "tsòò": 5352,
      "##èqë": 5353,
      "##èqtã": 5354,
      "##èqule": 5355,
      "##ketke": 5356,
      "##ketkö": 5357,
      "##éxka": 5358,
      "##éxkĩ": 5359,
      "##éxlor": 5360,
      "##èxs": 5361,
      "##èxwã": 5362,
      "##èxrmĩ": 5363,
      "tök": 5364,
      "töla": 5365,
      "##óqyök": 5366,
      "##alòq": 5367,
      "##alök": 5368,
      "##alóqknãmẽ": 5369,
      "kèqke": 5370,
      "kèqla": 5371,
      "##áxk": 5372,
      "##áxnĩ": 5373,
      "##chô": 5374,
      "##chak": 5375,
      "##cher": 5376,
      "##nẽwa": 5377,
      "##tsêx": 5378,
      "##tsèxwã": 5379,
      "bei": 5380,
      "ben": 5381,
      "beló": 5382,
      "##éqt": 5383,
      "##éql": 5384,
      "##éqũk": 5385,
      "##éqwö": 5386,
      "##éqjkuö": 5387,
      "chĩ": 5388,
      "cho": 5389,
      "chî": 5390,
      "chèq": 5391,
      "chaw": 5392,
      "chòx": 5393,
      "chéqr": 5394,
      "cháchá": 5395,
      "chòwa": 5396,
      "sete": 5397,
      "sello": 5398,
      "##nãnũk": 5399,
      "##nãmũ": 5400,
      "káxmĩ": 5401,
      "káxjku": 5402,
      "káxñíx": 5403,
      "káxtu": 5404,
      "káxshùx": 5405,
      "káxsht": 5406,
      "káxsãũk": 5407,
      "##kapë": 5408,
      "##uadr": 5409,
      "alë": 5410,
      "alo": 5411,
      "alì": 5412,
      "alir": 5413,
      "alòqk": 5414,
      "alum": 5415,
      "almen": 5416,
      "##para": 5417,
      "##awé": 5418,
      "##awö": 5419,
      "##awak": 5420,
      "##awèxke": 5421,
      "##awèxkẽ": 5422,
      "##rik": 5423,
      "##rit": 5424,
      "##ric": 5425,
      "##riwẽ": 5426,
      "##riwak": 5427,
      "##rino": 5428,
      "##kẽmĩ": 5429,
      "##kẽúx": 5430,
      "##kẽrak": 5431,
      "kĩáx": 5432,
      "kĩrak": 5433,
      "kĩmèxmĩ": 5434,
      "kĩk̀ã": 5435,
      "##ökwã": 5436,
      "wam": 5437,
      "##íxrule": 5438,
      "##mĩã": 5439,
      "##mĩkã": 5440,
      "##mĩtke": 5441,
      "buaë": 5442,
      "kit": 5443,
      "kiri": 5444,
      "kibi": 5445,
      "kiàxnẽ": 5446,
      "sabi": 5447,
      "shi": 5448,
      "shì": 5449,
      "shóx": 5450,
      "shtã": 5451,
      "shte": 5452,
      "shũsh": 5453,
      "shkẽúx": 5454,
      "dia": 5455,
      "diö": 5456,
      "diri": 5457,
      "dióqk": 5458,
      "dikĩ": 5459,
      "diki": 5460,
      "diec": 5461,
      "direc": 5462,
      "dilù": 5463,
      "##óqkör": 5464,
      "##óqkka": 5465,
      "##këe": 5466,
      "##àxrke": 5467,
      "##àxlà": 5468,
      "##úxwã": 5469,
      "##úxkã": 5470,
      "##îxnũk": 5471,
      "##îxpe": 5472,
      "ichòqkewa": 5473,
      "kũk": 5474,
      "kũek": 5475,
      "kũóxwã": 5476,
      "wòqu": 5477,
      "wòqak": 5478,
      "wòqbal": 5479,
      "wòqtse": 5480,
      "wòqèmĩ": 5481,
      "wòqdi": 5482,
      "wòqkũ": 5483,
      "wòquk": 5484,
      "wòqkal": 5485,
      "wòqti": 5486,
      "wòqche": 5487,
      "wòqtkër": 5488,
      "wòqwóx": 5489,
      "wòqtërule": 5490,
      "wòqchika": 5491,
      "wòqyèqnã": 5492,
      "kar": 5493,
      "kaè": 5494,
      "kacha": 5495,
      "kabi": 5496,
      "kaís": 5497,
      "##lada": 5498,
      "##lanta": 5499,
      "##lado": 5500,
      "##kĩã": 5501,
      "pau": 5502,
      "pad": 5503,
      "wéxrö": 5504,
      "wéxalê": 5505,
      "tko": 5506,
      "tkí": 5507,
      "tkéx": 5508,
      "tkök": 5509,
      "tkôq": 5510,
      "tkue": 5511,
      "tkle": 5512,
      "tkékã": 5513,
      "tkàmĩ": 5514,
      "tkìnũk": 5515,
      "tkèxk": 5516,
      "tkìwèxwã": 5517,
      "##kãmĩ": 5518,
      "##kãmã": 5519,
      "##kãnéx": 5520,
      "##nèxmĩ": 5521,
      "##nèxtsã": 5522,
      "##nèxtsẽ": 5523,
      "mãnẽt": 5524,
      "kãl": 5525,
      "kãnẽ": 5526,
      "kãmĩ": 5527,
      "##arës": 5528,
      "##shkã": 5529,
      "##shtë": 5530,
      "##shte": 5531,
      "##shtá": 5532,
      "bis": 5533,
      "bich": 5534,
      "bika": 5535,
      "bità": 5536,
      "bikòq": 5537,
      "bichà": 5538,
      "##kĩ": 5539,
      "##kipa": 5540,
      "##kibi": 5541,
      "##kichà": 5542,
      "##kichö": 5543,
      "##êqk": 5544,
      "##êqwẽ": 5545,
      "mìxtke": 5546,
      "mìxchi": 5547,
      "mìxnéx": 5548,
      "mìxyal": 5549,
      "mìxtkè": 5550,
      "mìxtkẽ": 5551,
      "mìxnèxnẽ": 5552,
      "mìxtsèxwã": 5553,
      "mìxnèxtsẽ": 5554,
      "dawòqke": 5555,
      "dawòqk": 5556,
      "kàcho": 5557,
      "kàtèke": 5558,
      "kàbalòqkẽ": 5559,
      "ulî": 5560,
      "ulur": 5561,
      "ulis": 5562,
      "ulùnẽ": 5563,
      "uláitö": 5564,
      "ulèuaa": 5565,
      "ulìta": 5566,
      "ulúrkã": 5567,
      "yawak": 5568,
      "yawák": 5569,
      "##wèxkã": 5570,
      "##blo": 5571,
      "##blè": 5572,
      "yötul": 5573,
      "míxnẽ": 5574,
      "míxka": 5575,
      "míxrwã": 5576,
      "míxchô": 5577,
      "kuka": 5578,
      "kuku": 5579,
      "kuèkẽ": 5580,
      "kuòqk": 5581,
      "kukè": 5582,
      "kuóqwã": 5583,
      "sir": 5584,
      "sie": 5585,
      "sipa": 5586,
      "siwö": 5587,
      "siwõ": 5588,
      "sipà": 5589,
      "sipòq": 5590,
      "siglo": 5591,
      "siúxwã": 5592,
      "éxjkêx": 5593,
      "éxrwa": 5594,
      "##óxrulur": 5595,
      "séxnũk": 5596,
      "séxndak": 5597,
      "yéqrule": 5598,
      "yéqbalök": 5599,
      "yéqwöla": 5600,
      "yéqdak": 5601,
      "wèxla": 5602,
      "ujtóq": 5603,
      "##òxrule": 5604,
      "##òxkule": 5605,
      "sulú": 5606,
      "nãnẽ": 5607,
      "nãkã": 5608,
      "nãmã": 5609,
      "nãmẽ": 5610,
      "nãwáx": 5611,
      "nãwíx": 5612,
      "nãîxpe": 5613,
      "sãwõ": 5614,
      "##kuo": 5615,
      "##kuòqk": 5616,
      "##taria": 5617,
      "##tatal": 5618,
      "##tante": 5619,
      "kàlwe": 5620,
      "kàlkicha": 5621,
      "kàlukö": 5622,
      "èqtöm": 5623,
      "kũéxn": 5624,
      "shkà": 5625,
      "shkòqk": 5626,
      "shkôq": 5627,
      "bachi": 5628,
      "bacha": 5629,
      "bane": 5630,
      "basù": 5631,
      "bahid": 5632,
      "kalóqk": 5633,
      "éxnõ": 5634,
      "##tãnã": 5635,
      "##tãwẽ": 5636,
      "##ieël": 5637,
      "##urèq": 5638,
      "mĩnẽ": 5639,
      "mĩkẽ": 5640,
      "mĩrak": 5641,
      "mĩnéx": 5642,
      "mĩnêx": 5643,
      "mĩtsẽr": 5644,
      "pàtse": 5645,
      "pàsi": 5646,
      "pàbit": 5647,
      "pàtu": 5648,
      "pàkuòqk": 5649,
      "##estre": 5650,
      "##mãúxk": 5651,
      "##mãnéx": 5652,
      "##mãnc": 5653,
      "##mãlã": 5654,
      "##mãléx": 5655,
      "ajkêx": 5656,
      "ajkàk": 5657,
      "ajkêqk": 5658,
      "alàbulu": 5659,
      "alàbusi": 5660,
      "alàbùsi": 5661,
      "day": 5662,
      "datà": 5663,
      "dachà": 5664,
      "##köla": 5665,
      "##tké": 5666,
      "##tkòq": 5667,
      "##tkèqnẽ": 5668,
      "##tkèqnã": 5669,
      "##tkéwã": 5670,
      "##tàwẽ": 5671,
      "##rona": 5672,
      "##roame": 5673,
      "##ira": 5674,
      "##irkẽ": 5675,
      "##irmĩ": 5676,
      "##irîrî": 5677,
      "dalé": 5678,
      "chake": 5679,
      "dée": 5680,
      "dére": 5681,
      "démãlẽ": 5682,
      "démĩ": 5683,
      "ulàka": 5684,
      "ulàũk": 5685,
      "ulàwa": 5686,
      "ulànũk": 5687,
      "ulàbi": 5688,
      "ulàtök": 5689,
      "ulàtsĩ": 5690,
      "##âxs": 5691,
      "##âxlâx": 5692,
      "##wẽwãmĩ": 5693,
      "##rkẽwã": 5694,
      "apì": 5695,
      "apakẽ": 5696,
      "àxrí": 5697,
      "àxnãwã": 5698,
      "kiàna": 5699,
      "kiàrmĩ": 5700,
      "wéqnẽ": 5701,
      "wéqtse": 5702,
      "wéqbi": 5703,
      "wéqbalök": 5704,
      "##lila": 5705,
      "##licía": 5706,
      "sibòqla": 5707,
      "sibòqchök": 5708,
      "skó": 5709,
      "skòq": 5710,
      "skóqk": 5711,
      "baktër": 5712,
      "bakãlîx": 5713,
      "bakùbulu": 5714,
      "íxã": 5715,
      "##mẽr": 5716,
      "yàrke": 5717,
      "yànõ": 5718,
      "##ñìxnẽ": 5719,
      "##ulewã": 5720,
      "##chike": 5721,
      "##chicha": 5722,
      "dòqta": 5723,
      "dòqtsa": 5724,
      "balé": 5725,
      "balö": 5726,
      "balèq": 5727,
      "baléq": 5728,
      "baléqr": 5729,
      "balèwã": 5730,
      "wàbal": 5731,
      "wàbalök": 5732,
      "wàbalö": 5733,
      "wàkãnéx": 5734,
      "##namã": 5735,
      "##tsãka": 5736,
      "##tsãrâ": 5737,
      "wakla": 5738,
      "##erlur": 5739,
      "bulèq": 5740,
      "bulèqr": 5741,
      "bulár": 5742,
      "bulànẽ": 5743,
      "ĩàxtã": 5744,
      "sĩèx": 5745,
      "sĩúxk": 5746,
      "sĩwõ": 5747,
      "##ást": 5748,
      "##iocho": 5749,
      "yòqk": 5750,
      "yòql": 5751,
      "yòqrpa": 5752,
      "yòqlu": 5753,
      "yòqtsãmĩ": 5754,
      "##ortante": 5755,
      "ujtére": 5756,
      "ujtéche": 5757,
      "ujtéchök": 5758,
      "wóqö": 5759,
      "wóqke": 5760,
      "wóqli": 5761,
      "kíxkã": 5762,
      "kíxtërule": 5763,
      "tkënẽ": 5764,
      "tkëtẽn": 5765,
      "kapö": 5766,
      "kapóqk": 5767,
      "kapóqwã": 5768,
      "kapóqkwã": 5769,
      "kapöli": 5770,
      "kapalë": 5771,
      "kapèqule": 5772,
      "ikèq": 5773,
      "ikalè": 5774,
      "ikéqla": 5775,
      "##balòq": 5776,
      "##balèkẽ": 5777,
      "sulûwẽwãmĩ": 5778,
      "apàb": 5779,
      "apàbi": 5780,
      "apàskuök": 5781,
      "apàío": 5782,
      "apàtóx": 5783,
      "kãnèxblé": 5784,
      "kãnèxblèqnẽ": 5785,
      "katòqt": 5786,
      "katúr": 5787,
      "katùnã": 5788,
      "ãñìxj": 5789,
      "ãñìxta": 5790,
      "ãñìxköl": 5791,
      "ãñìxjkë": 5792,
      "awí": 5793,
      "awà": 5794,
      "awènẽ": 5795,
      "dakòqkẽ": 5796,
      "dakêt": 5797,
      "##biöla": 5798,
      "##bilado": 5799,
      "mĩk̀": 5800,
      "tóqö": 5801,
      "bus": 5802,
      "butur": 5803,
      "bunúx": 5804,
      "buâũk": 5805,
      "bunàxnẽ": 5806,
      "buâëmẽ": 5807,
      "buèqë": 5808,
      "ttö": 5809,
      "ttóq": 5810,
      "ñẽrmã": 5811,
      "##ikö": 5812,
      "##iklök": 5813,
      "##lĩã": 5814,
      "mãñál": 5815,
      "mãñèxk": 5816,
      "##wèxkewa": 5817,
      "##wèxketke": 5818,
      "wéle": 5819,
      "wéblö": 5820,
      "wéibitũ": 5821,
      "sèxrkũ": 5822,
      "kòqpp": 5823,
      "kòqnàx": 5824,
      "kòqchö": 5825,
      "alákölala": 5826,
      "kéxwö": 5827,
      "kéxwa": 5828,
      "taîx": 5829,
      "tabèq": 5830,
      "tambi": 5831,
      "inũ": 5832,
      "indy": 5833,
      "inúköl": 5834,
      "##köt": 5835,
      "##köpa": 5836,
      "##könàxnẽ": 5837,
      "pea": 5838,
      "yéqsyêqs": 5839,
      "awáie": 5840,
      "kalòqnẽ": 5841,
      "kalòqkicha": 5842,
      "kalòqñãk": 5843,
      "kalòqjkue": 5844,
      "kalòqũwã": 5845,
      "stsë": 5846,
      "stsí": 5847,
      "stsóq": 5848,
      "stséq": 5849,
      "stsök": 5850,
      "stsèkẽ": 5851,
      "stsèqnã": 5852,
      "stsòqkẽ": 5853,
      "stséqrkẽ": 5854,
      "##êxk": 5855,
      "dìla": 5856,
      "dìwóqsãwõ": 5857,
      "súxr": 5858,
      "súxwã": 5859,
      "##àkmã": 5860,
      "##àkkuo": 5861,
      "##anto": 5862,
      "##ôqtk": 5863,
      "ichóqkale": 5864,
      "kièrö": 5865,
      "##úxknẽ": 5866,
      "##úxknãmẽ": 5867,
      "kóxtt": 5868,
      "kóxrëbèq": 5869,
      "kóxpö": 5870,
      "kóxshtá": 5871,
      "míxãpa": 5872,
      "ãwí": 5873,
      "ãwī": 5874,
      "aìëkã": 5875,
      "aìèqka": 5876,
      "síwèxkẽ": 5877,
      "sùxnã": 5878,
      "ñèxmĩ": 5879,
      "ñèxse": 5880,
      "ñèxrmã": 5881,
      "ñèxjke": 5882,
      "ñèxkkëpa": 5883,
      "bòqtkue": 5884,
      "étkie": 5885,
      "mìxkle": 5886,
      "mìxkale": 5887,
      "áktö": 5888,
      "ákbö": 5889,
      "ákchaka": 5890,
      "ĩnóx": 5891,
      "ĩnìxnã": 5892,
      "ĩníxrule": 5893,
      "dabè": 5894,
      "talar": 5895,
      "talár": 5896,
      "talòqwö": 5897,
      "yulòqkẽ": 5898,
      "tsáxkã": 5899,
      "tsáxwe": 5900,
      "míxkalè": 5901,
      "dakaròwe": 5902,
      "dakaròyë": 5903,
      "yawèãt": 5904,
      "wâke": 5905,
      "wânamã": 5906,
      "chkóq": 5907,
      "chkök": 5908,
      "chkòqk": 5909,
      "chkóqköl": 5910,
      "chakal": 5911,
      "espe": 5912,
      "tëröà": 5913,
      "tulè": 5914,
      "tuléstsã": 5915,
      "##enõ": 5916,
      "##enci": 5917,
      "kutàie": 5918,
      "wött": 5919,
      "wömãúxk": 5920,
      "dàde": 5921,
      "móxũk": 5922,
      "yóqtsãnẽ": 5923,
      "diàla": 5924,
      "teleno": 5925,
      "##lote": 5926,
      "##lones": 5927,
      "mèxnã": 5928,
      "mèxkẽ": 5929,
      "mèxat": 5930,
      "mèxsẽ": 5931,
      "blé": 5932,
      "blu": 5933,
      "shtö": 5934,
      "shtri": 5935,
      "shtéka": 5936,
      "òxs": 5937,
      "kũẽwã": 5938,
      "bité": 5939,
      "bitàx": 5940,
      "kòxm": 5941,
      "skapë": 5942,
      "èxnãwã": 5943,
      "èxnãwa": 5944,
      "èxwẽwã": 5945,
      "klòqrl": 5946,
      "wákpala": 5947,
      "##ada": 5948,
      "dikíx": 5949,
      "bikí": 5950,
      "bikè": 5951,
      "bikék": 5952,
      "wátãwẽ": 5953,
      "mâxk": 5954,
      "mâxnã": 5955,
      "mâxwèxmĩ": 5956,
      "wóqkie": 5957,
      "##0000": 5958,
      "tsóxwã": 5959,
      "tsóxli": 5960,
      "tsóxkönàxnẽ": 5961,
      "mẽsa": 5962,
      "tèe": 5963,
      "tèkèlur": 5964,
      "tèrik": 5965,
      "mãñáxtökicha": 5966,
      "tabèchaka": 5967,
      "alála": 5968,
      "wóqulâr": 5969,
      "wóqulâã": 5970,
      "##bitale": 5971,
      "juanita": 5972,
      "sãwèxpa": 5973,
      "sãwèxrâ": 5974,
      "sãwèxkũ": 5975,
      "bùkà": 5976,
      "kítke": 5977,
      "ùxnẽ": 5978,
      "ùxrkã": 5979,
      "yawóqkmĩ": 5980,
      "yawóqkbla": 5981,
      "bitsìx": 5982,
      "bóqwo": 5983,
      "nẽiã": 5984,
      "ãmìxpa": 5985,
      "cola": 5986,
      "nĩmáx": 5987,
      "alírule": 5988,
      "kalòqtö": 5989,
      "pájkuö": 5990,
      "pátkë": 5991,
      "páryök": 5992,
      "kéka": 5993,
      "kérwa": 5994,
      "kérwala": 5995,
      "ditséwöla": 5996,
      "ìsie": 5997,
      "##lekã": 5998,
      "shkèxũk": 5999,
      "skéxtökicha": 6000,
      "skéxiki": 6001,
      "##òratuaa": 6002,
      "marcus": 6003,
      "maravil": 6004,
      "túxnèxtsã": 6005,
      "duà": 6006,
      "mòxë": 6007,
      "mòxki": 6008,
      "tsikìnũk": 6009,
      "tkáshkal": 6010,
      "úxr": 6011,
      "úxn": 6012,
      "úxjùx": 6013,
      "##souri": 6014,
      "ajkóqnèxkẽ": 6015,
      "dòqkamĩ": 6016,
      "wámble": 6017,
      "wámbléqr": 6018,
      "nĩmàxichóqk": 6019,
      "##kènẽ": 6020,
      "##kèkamĩ": 6021,
      "tkéqtökicha": 6022,
      "tkéqtokicha": 6023,
      "kùxrke": 6024,
      "kùxnũ": 6025,
      "kùxrkètke": 6026,
      "tékãnẽ": 6027,
      "tsirë": 6028,
      "ajkáyèqnẽ": 6029,
      "cam": 6030,
      "casi": 6031,
      "cachor": 6032,
      "caja": 6033,
      "kám": 6034,
      "káië": 6035,
      "ãwíxsh": 6036,
      "kët": 6037,
      "këkë": 6038,
      "kàxjtö": 6039,
      "báshba": 6040,
      "kóqnòx": 6041,
      "sawök": 6042,
      "sawànẽ": 6043,
      "sawânã": 6044,
      "##tkërule": 6045,
      "##ncer": 6046,
      "shkòqnã": 6047,
      "shkòqwèxmĩ": 6048,
      "mãñàxtk": 6049,
      "escuadr": 6050,
      "klò": 6051,
      "klòqte": 6052,
      "klóqktër": 6053,
      "klépa": 6054,
      "kéqak": 6055,
      "kéqwö": 6056,
      "kéqtali": 6057,
      "##ókolo": 6058,
      "tkòqtsã": 6059,
      "ajkòqië": 6060,
      "buléñak": 6061,
      "iklòqũk": 6062,
      "ãwìxëkã": 6063,
      "àxritsé": 6064,
      "sub": 6065,
      "suà": 6066,
      "##ily": 6067,
      "tsét": 6068,
      "tsémĩ": 6069,
      "mãláxts": 6070,
      "mîxk": 6071,
      "mîxke": 6072,
      "##tunîxnîx": 6073,
      "wéxshkètke": 6074,
      "dáa": 6075,
      "dáre": 6076,
      "keka": 6077,
      "keshka": 6078,
      "kebé": 6079,
      "##olc": 6080,
      "##nẽ": 6081,
      "##nelada": 6082,
      "skéxlka": 6083,
      "méxtsã": 6084,
      "méxat": 6085,
      "méxrmĩ": 6086,
      "ppòq": 6087,
      "ppóq": 6088,
      "ĩùxtë": 6089,
      "ĩùxtök": 6090,
      "ĩùxche": 6091,
      "sarûru": 6092,
      "dióqẽ": 6093,
      "ichàkö": 6094,
      "kãñíxkã": 6095,
      "batsule": 6096,
      "batsékã": 6097,
      "batséka": 6098,
      "íxmãla": 6099,
      "tkabèqdu": 6100,
      "bàn": 6101,
      "bàũk": 6102,
      "bàwèxke": 6103,
      "##nde": 6104,
      "##ndâ": 6105,
      "tsídala": 6106,
      "tsídalala": 6107,
      "mãnèxte": 6108,
      "mãnèxratuaa": 6109,
      "kàxlĩë": 6110,
      "tàyëpa": 6111,
      "tàyëbúsi": 6112,
      "##inio": 6113,
      "chãnéx": 6114,
      "katànã": 6115,
      "katàie": 6116,
      "katàno": 6117,
      "kéxwek": 6118,
      "kéxweie": 6119,
      "béqwak": 6120,
      "cinco": 6121,
      "ñáxa": 6122,
      "##dëkã": 6123,
      "shkóqkmĩ": 6124,
      "núxbalö": 6125,
      "##ppakã": 6126,
      "alinã": 6127,
      "pàko": 6128,
      "pàkak": 6129,
      "pàktökicha": 6130,
      "pàkêke": 6131,
      "bìl": 6132,
      "sũr": 6133,
      "sũlĩ": 6134,
      "sũwèxkẽ": 6135,
      "##ukùnẽ": 6136,
      "biyà": 6137,
      "mìxkela": 6138,
      "mìxketke": 6139,
      "sèxnẽrak": 6140,
      "dikìxñèxke": 6141,
      "dónẽ": 6142,
      "ùshkal": 6143,
      "bùsila": 6144,
      "ajkáchö": 6145,
      "kèbi": 6146,
      "kèrwa": 6147,
      "déqkala": 6148,
      "déqũtu": 6149,
      "déqdëkã": 6150,
      "wìwö": 6151,
      "##mõlóxts": 6152,
      "dichàchà": 6153,
      "ttèlur": 6154,
      "éqltëpa": 6155,
      "ishch": 6156,
      "ishkòq": 6157,
      "ishtök": 6158,
      "ishtàwẽ": 6159,
      "tòqtke": 6160,
      "tòqtkö": 6161,
      "tkîk": 6162,
      "tkînã": 6163,
      "tkèqt": 6164,
      "tkèqnâxnã": 6165,
      "batéx": 6166,
      "batak": 6167,
      "batòx": 6168,
      "kíxmẽrule": 6169,
      "mãñáxlka": 6170,
      "chãmùxla": 6171,
      "biyòqchóqknãmẽ": 6172,
      "mũlũ": 6173,
      "mũlúx": 6174,
      "##sãwẽ": 6175,
      "ajkàche": 6176,
      "dâũk": 6177,
      "dâre": 6178,
      "dâãie": 6179,
      "tórkẽ": 6180,
      "##tiàli": 6181,
      "ãmèxmĩ": 6182,
      "##erewã": 6183,
      "bík": 6184,
      "bít": 6185,
      "bítkuak": 6186,
      "múxka": 6187,
      "múxkã": 6188,
      "ñéxe": 6189,
      "ñìxw": 6190,
      "ñìxë": 6191,
      "ñìxkéq": 6192,
      "ñìxẽs": 6193,
      "ñìxmĩkã": 6194,
      "ñìxkëe": 6195,
      "ñìxwèxketke": 6196,
      "ñìxúxknẽ": 6197,
      "tsaí": 6198,
      "tsabà": 6199,
      "dékãnẽ": 6200,
      "kakö": 6201,
      "kakmèx": 6202,
      "kakmũk": 6203,
      "yèqwö": 6204,
      "wamblërke": 6205,
      "kukùnẽ": 6206,
      "pàkemĩ": 6207,
      "sùxnẽĩã": 6208,
      "béqrërë": 6209,
      "kùnã": 6210,
      "kùmbi": 6211,
      "kùlyök": 6212,
      "##pàkẽ": 6213,
      "káxmũl": 6214,
      "tsirík": 6215,
      "tsiríwèx": 6216,
      "bèqkwö": 6217,
      "britán": 6218,
      "socio": 6219,
      "##mã": 6220,
      "##mapa": 6221,
      "##mania": 6222,
      "wóqstsũk": 6223,
      "kímúx": 6224,
      "kápiwö": 6225,
      "dalôlôë": 6226,
      "1910": 6227,
      "1930": 6228,
      "akuôq": 6229,
      "kúlka": 6230,
      "talamãnc": 6231,
      "yawémĩ": 6232,
      "##ientes": 6233,
      "akàñã": 6234,
      "bulâũk": 6235,
      "bulâbë": 6236,
      "bulâme": 6237,
      "iékã": 6238,
      "iéltë": 6239,
      "ièqkã": 6240,
      "ièqtöm": 6241,
      "kũèxkẽ": 6242,
      "kũèxkĩ": 6243,
      "mãñàxtkue": 6244,
      "mãñàxtóqkicha": 6245,
      "ichàkekẽ": 6246,
      "aíẽ": 6247,
      "itôq": 6248,
      "itárkẽ": 6249,
      "tóqkã": 6250,
      "tóqkök": 6251,
      "wès": 6252,
      "wèik": 6253,
      "wèike": 6254,
      "ètka": 6255,
      "tkòqkeyal": 6256,
      "pàtkéwã": 6257,
      "pàtkòqwã": 6258,
      "pàtkökwã": 6259,
      "##ikalë": 6260,
      "chakàie": 6261,
      "ĩùxté": 6262,
      "dóqnẽ": 6263,
      "dóqchaka": 6264,
      "fffu": 6265,
      "ióqkka": 6266,
      "ióqkwã": 6267,
      "pulí": 6268,
      "pulì": 6269,
      "tawìnã": 6270,
      "weike": 6271,
      "òqke": 6272,
      "tsakèkẽ": 6273,
      "tsakèe": 6274,
      "tsèqnẽka": 6275,
      "tkèsẽ": 6276,
      "tkèkèlur": 6277,
      "dalòqie": 6278,
      "dalòqiök": 6279,
      "apánẽ": 6280,
      "ĩâxĩâxë": 6281,
      "páxrlor": 6282,
      "téxrkã": 6283,
      "wẽwã": 6284,
      "wẽlè": 6285,
      "wíñãk": 6286,
      "semestre": 6287,
      "bitéxshka": 6288,
      "bitéxãnẽ": 6289,
      "bêqrbër": 6290,
      "bêqrbêqr": 6291,
      "dulèq": 6292,
      "mõlóxts": 6293,
      "óxn": 6294,
      "óxnẽ": 6295,
      "óxjkéx": 6296,
      "óxrtsèke": 6297,
      "##vela": 6298,
      "kãnèxwèxketsã": 6299,
      "àxnãre": 6300,
      "chakìkî": 6301,
      "ajkuòqbi": 6302,
      "díjka": 6303,
      "kúxrkẽ": 6304,
      "mama": 6305,
      "màxt": 6306,
      "màxtk": 6307,
      "sóköl": 6308,
      "sórbulu": 6309,
      "sólchika": 6310,
      "tsèqũk": 6311,
      "tsàxwö": 6312,
      "tsàxbata": 6313,
      "tsàxkkuö": 6314,
      "chòqtke": 6315,
      "chòqkãt": 6316,
      "shòxböt": 6317,
      "wòqklóq": 6318,
      "wòqklör": 6319,
      "ikiànãwã": 6320,
      "ishtè": 6321,
      "ishtó": 6322,
      "ishtóq": 6323,
      "ishtàx": 6324,
      "abel": 6325,
      "abáwö": 6326,
      "iès": 6327,
      "ièkã": 6328,
      "iètã": 6329,
      "ièse": 6330,
      "ièppakã": 6331,
      "##loso": 6332,
      "tsòqr": 6333,
      "alèla": 6334,
      "kirìnẽ": 6335,
      "joaqu": 6336,
      "máxt": 6337,
      "máxla": 6338,
      "millones": 6339,
      "yèkewa": 6340,
      "##iaa": 6341,
      "##ôxwak": 6342,
      "tãíxkpa": 6343,
      "shakã": 6344,
      "shakòq": 6345,
      "shakóq": 6346,
      "siòxwöla": 6347,
      "sĩàxr": 6348,
      "bitséitsẽ": 6349,
      "tsikirìrì": 6350,
      "isla": 6351,
      "istèq": 6352,
      "tôto": 6353,
      "ãñì": 6354,
      "ãñéx": 6355,
      "ãñóxie": 6356,
      "##takla": 6357,
      "##bëla": 6358,
      "##nũnã": 6359,
      "tsúxkat": 6360,
      "mãnéxt": 6361,
      "mãnéxwõ": 6362,
      "shkóqbitũ": 6363,
      "dòqkãmĩ": 6364,
      "bulùsã": 6365,
      "bulùbulù": 6366,
      "bulùmĩã": 6367,
      "ĩnùxmĩ": 6368,
      "ĩnùxrâ": 6369,
      "batöròqk": 6370,
      "batöróqö": 6371,
      "bílwe": 6372,
      "locus": 6373,
      "locu": 6374,
      "louis": 6375,
      "mũ": 6376,
      "téqrke": 6377,
      "ñàxlĩ": 6378,
      "##pez": 6379,
      "chéqulur": 6380,
      "wòqsko": 6381,
      "wòqsèxrmĩ": 6382,
      "wòqskèkamĩ": 6383,
      "wòqblaõ": 6384,
      "séxrkerak": 6385,
      "akèqnũ": 6386,
      "balíwã": 6387,
      "kapòqrâ": 6388,
      "bitséitsè": 6389,
      "bitséitsök": 6390,
      "bitséitsèke": 6391,
      "kulë": 6392,
      "làs": 6393,
      "làla": 6394,
      "tió": 6395,
      "tiúxkã": 6396,
      "toro": 6397,
      "tomás": 6398,
      "tonelada": 6399,
      "##tropía": 6400,
      "##löwẽ": 6401,
      "kichàtè": 6402,
      "tkóqö": 6403,
      "tkóqwẽ": 6404,
      "tkóqtsã": 6405,
      "tkóqrö": 6406,
      "tkóqùxke": 6407,
      "sulàr": 6408,
      "sulàre": 6409,
      "sulàmèxke": 6410,
      "sulàbitale": 6411,
      "nãmàxitãmĩ": 6412,
      "stsòqmĩ": 6413,
      "yóqruletke": 6414,
      "bitsîxë": 6415,
      "duwör": 6416,
      "duwàwak": 6417,
      "domĩ": 6418,
      "junta": 6419,
      "judic": 6420,
      "jubilado": 6421,
      "lea": 6422,
      "mũèx": 6423,
      "mũerlur": 6424,
      "naĩ": 6425,
      "policía": 6426,
      "séqbaliwak": 6427,
      "urén": 6428,
      "urrèqk": 6429,
      "##rwãmĩ": 6430,
      "##mũẽ": 6431,
      "wòqtkeka": 6432,
      "pàkanẽ": 6433,
      "apàkèkẽ": 6434,
      "síktakla": 6435,
      "talànẽkã": 6436,
      "chkàla": 6437,
      "chkàieël": 6438,
      "iã": 6439,
      "iapàkẽ": 6440,
      "alólô": 6441,
      "ulâs": 6442,
      "ulâtskuö": 6443,
      "kãnèxõnẽ": 6444,
      "sĩêxë": 6445,
      "chakèkã": 6446,
      "itòqièkẽ": 6447,
      "piloto": 6448,
      "barátsèke": 6449,
      "mũkka": 6450,
      "púpu": 6451,
      "púúú": 6452,
      "púlekã": 6453,
      "pàxnã": 6454,
      "rila": 6455,
      "stèq": 6456,
      "táwã": 6457,
      "táie": 6458,
      "tĩwéx": 6459,
      "tákla": 6460,
      "wêqñe": 6461,
      "##rôs": 6462,
      "wòqtkënẽ": 6463,
      "tkéqrwã": 6464,
      "mãnêxũk": 6465,
      "kãnéxwèxmĩ": 6466,
      "pàtãũk": 6467,
      "pàtãwèx": 6468,
      "pàtãwẽ": 6469,
      "talàwẽ": 6470,
      "talàũkka": 6471,
      "tulúrsẽ": 6472,
      "kíxmũkbla": 6473,
      "presidenci": 6474,
      "andre": 6475,
      "proye": 6476,
      "tũr": 6477,
      "tũnéx": 6478,
      "wíxes": 6479,
      "##ell": 6480,
      "##mâxs": 6481,
      "##berto": 6482,
      "tséqnã": 6483,
      "ichéndak": 6484,
      "kũlèx": 6485,
      "kũlũk": 6486,
      "sulàyöbita": 6487,
      "shkótke": 6488,
      "bachá": 6489,
      "akéqke": 6490,
      "akéqköl": 6491,
      "ãmùxkö": 6492,
      "apéitö": 6493,
      "ikalòqk": 6494,
      "ikalêqlêq": 6495,
      "kãnèxblòqmĩ": 6496,
      "kóxjkèxë": 6497,
      "tsítsirpa": 6498,
      "wamblërdâ": 6499,
      "kímũkdak": 6500,
      "tsìrtsir": 6501,
      "ièqnãwã": 6502,
      "importante": 6503,
      "jtsâwö": 6504,
      "péũ": 6505,
      "tuwóq": 6506,
      "éyökie": 6507,
      "alemania": 6508,
      "wòqish": 6509,
      "wòqtkóqk": 6510,
      "wòqtkèqnẽ": 6511,
      "wòqtkèqnã": 6512,
      "kalíúxk": 6513,
      "##anny": 6514,
      "mâxmãwö": 6515,
      "mâxmãduk": 6516,
      "kanèxbalë": 6517,
      "tsãnèxnèxnèx": 6518,
      "ãlìxnẽ": 6519,
      "society": 6520,
      "wòqklòqwẽ": 6521,
      "wéqstëla": 6522,
      "university": 6523,
      "burîrî": 6524,
      "dèbitũ": 6525,
      "##ítule": 6526,
      "##vidad": 6527,
      "kiénẽ": 6528,
      "shutunîxnîx": 6529,
      "ichèkerak": 6530,
      "tkóqkmĩ": 6531,
      "tkóqkdö": 6532,
      "míxtkemũlẽ": 6533,
      "kalôqwèxkẽ": 6534,
      "pàtkèkekã": 6535,
      "pàtkèketkenẽ": 6536,
      "duládulapa": 6537,
      "organizaciones": 6538,
      "êköltë": 6539,
      "ôxka": 6540,
      "ôxdalër": 6541,
      "ĩáxn": 6542,
      "##buko": 6543,
      "##nùxnã": 6544,
      "shãmõ": 6545,
      "shãlâx": 6546,
      "shatèwã": 6547,
      "kachèkè": 6548,
      "kachòqtak": 6549,
      "kabèũk": 6550,
      "mìxchô": 6551,
      "mìxchònẽ": 6552,
      "dalèqnãĩã": 6553,
      "ulàbatsé": 6554,
      "kãnèxblekẽ": 6555,
      "butsurèq": 6556,
      "kítule": 6557,
      "alabó": 6558,
      "alabur": 6559,
      "ñáxktke": 6560,
      "ñéxẽrö": 6561,
      "shkãlâxlâx": 6562,
      "924": 6563,
      "granny": 6564,
      "ijtsé": 6565,
      "ièkeka": 6566,
      "plano": 6567,
      "salà": 6568,
      "ñẽ": 6569,
      "ñâxwẽwa": 6570,
      "##bét": 6571,
      "alònã": 6572,
      "sháxbös": 6573,
      "wòqtĩ": 6574,
      "wòqtèqnã": 6575,
      "wòqnĩrkẽ": 6576,
      "mĩchò": 6577,
      "mĩchòë": 6578,
      "dapé": 6579,
      "dapóqk": 6580,
      "kapòqkũ": 6581,
      "katánõ": 6582,
      "chkénãwã": 6583,
      "tulúãt": 6584,
      "bùlñã": 6585,
      "bùlikalök": 6586,
      "kéũn": 6587,
      "élkêë": 6588,
      "kèbisãwéx": 6589,
      "kùkurkù": 6590,
      "ãlòxchka": 6591,
      "consejo": 6592,
      "profesionales": 6593,
      "atlanta": 6594,
      "asp": 6595,
      "dîla": 6596,
      "dèmĩnẽ": 6597,
      "juríd": 6598,
      "któqk": 6599,
      "kúiki": 6600,
      "kolóm": 6601,
      "pòoë": 6602,
      "pôp": 6603,
      "pôóxrulur": 6604,
      "surûrû": 6605,
      "surùrù": 6606,
      "stela": 6607,
      "##rét": 6608,
      "##tkabë": 6609,
      "##tereùùù": 6610,
      "##ìkũk": 6611,
      "##õlà": 6612,
      "káxnkuö": 6613,
      "sargen": 6614,
      "wòqyawök": 6615,
      "pastor": 6616,
      "wèxkèqka": 6617,
      "kalòie": 6618,
      "ajkönèxmĩ": 6619,
      "dapáũk": 6620,
      "dapárke": 6621,
      "ttóqkulur": 6622,
      "mèxkènẽ": 6623,
      "ujchéxn": 6624,
      "ujchéxnĩã": 6625,
      "pátkemĩ": 6626,
      "duké": 6627,
      "sutâ": 6628,
      "èkkëpë": 6629,
      "mõwèxnẽ": 6630,
      "mayo": 6631,
      "tsikirírí": 6632,
      "dakírkipa": 6633,
      "cooperativas": 6634,
      "anãstasia": 6635,
      "away": 6636,
      "bèqrbër": 6637,
      "dúwã": 6638,
      "iõiòx": 6639,
      "jchèkẽ": 6640,
      "jkué": 6641,
      "kìxkã": 6642,
      "kúkúr": 6643,
      "kúkúnẽ": 6644,
      "mango": 6645,
      "manzana": 6646,
      "nũwéxkã": 6647,
      "sùla": 6648,
      "tòtó": 6649,
      "tònãr": 6650,
      "uyéqjkuö": 6651,
      "vidrio": 6652,
      "wóxyök": 6653,
      "èwamĩ": 6654,
      "ìxnwĩ": 6655,
      "ĩúxn": 6656,
      "##eee": 6657,
      "##míxk": 6658,
      "##nìxñãk": 6659,
      "tséqrũã": 6660,
      "charé": 6661,
      "charlote": 6662,
      "káxñìxnẽ": 6663,
      "káxñìxnã": 6664,
      "káxpakök": 6665,
      "kĩmẽrâ": 6666,
      "kirìbulu": 6667,
      "wòqñãrkẽ": 6668,
      "wòqetpa": 6669,
      "wéxrtsök": 6670,
      "tkèqnẽtsã": 6671,
      "##arrollo": 6672,
      "míxyartke": 6673,
      "kutùnẽ": 6674,
      "kalaèq": 6675,
      "skíxmõ": 6676,
      "skíxmèxke": 6677,
      "balôbalo": 6678,
      "wéblo": 6679,
      "wéblèke": 6680,
      "talìri": 6681,
      "tulùnãwã": 6682,
      "ahorros": 6683,
      "1999": 6684,
      "1992": 6685,
      "1970": 6686,
      "tèqnãnẽmĩ": 6687,
      "militares": 6688,
      "wàtũẽ": 6689,
      "ãããã": 6690,
      "embajadores": 6691,
      "acres": 6692,
      "eréq": 6693,
      "golf": 6694,
      "iéqtökicha": 6695,
      "irìria": 6696,
      "irìuaa": 6697,
      "japón": 6698,
      "kotereùùù": 6699,
      "múxkka": 6700,
      "mismo": 6701,
      "missouri": 6702,
      "olôya": 6703,
      "salas": 6704,
      "salabê": 6705,
      "tárbela": 6706,
      "wêikök": 6707,
      "wâxyök": 6708,
      "wâxnwâx": 6709,
      "yótsã": 6710,
      "yòqkelur": 6711,
      "##èkèkãtke": 6712,
      "tsĩnìx": 6713,
      "chörà": 6714,
      "chöràë": 6715,
      "káxkök": 6716,
      "alôqũk": 6717,
      "kióqrak": 6718,
      "kipàmõ": 6719,
      "shalít": 6720,
      "wòqñàxrke": 6721,
      "wòqarke": 6722,
      "wòqarkũ": 6723,
      "wòqsirke": 6724,
      "mìxneshka": 6725,
      "mìxneyal": 6726,
      "sichóq": 6727,
      "kalâts": 6728,
      "kalâtskuö": 6729,
      "kalötòqmĩ": 6730,
      "pàieketkö": 6731,
      "skóqtsãnẽ": 6732,
      "íxwĩwak": 6733,
      "kapàgala": 6734,
      "apàbako": 6735,
      "dakòlum": 6736,
      "ttòqkwã": 6737,
      "mãñãltë": 6738,
      "tsirûwö": 6739,
      "tsáxtkòqmĩ": 6740,
      "kölòqwèxwa": 6741,
      "blôblôwö": 6742,
      "bikèqsi": 6743,
      "nẽĩãnẽ": 6744,
      "##kètsãtke": 6745,
      "térriki": 6746,
      "ichàkêkenẽ": 6747,
      "mãnèxnãtsã": 6748,
      "ĩâxchiki": 6749,
      "mũlûxlûx": 6750,
      "kùktöm": 6751,
      "wèirke": 6752,
      "tátsikö": 6753,
      "tátsiköla": 6754,
      "póppô": 6755,
      "dakírkîë": 6756,
      "náxũpa": 6757,
      "sãnâxnâxë": 6758,
      "filantr": 6759,
      "filatropía": 6760,
      "akuöúx": 6761,
      "clavo": 6762,
      "dòã": 6763,
      "dökukùnẽ": 6764,
      "firm": 6765,
      "gasoli": 6766,
      "grecia": 6767,
      "hombre": 6768,
      "iéqrwã": 6769,
      "kòqtẽ": 6770,
      "llama": 6771,
      "médicos": 6772,
      "nõmòx": 6773,
      "privado": 6774,
      "pereira": 6775,
      "tàta": 6776,
      "tuluãt": 6777,
      "ẽnàxë": 6778,
      "##kîxë": 6779,
      "shulàkmã": 6780,
      "shirìrìrì": 6781,
      "wòqbts": 6782,
      "wòqiewã": 6783,
      "wòqikèkẽ": 6784,
      "wòqtekẽwã": 6785,
      "wòqmèxkètsãtke": 6786,
      "kadije": 6787,
      "wéxëltë": 6788,
      "tkêqrkã": 6789,
      "kãkèxs": 6790,
      "dawôqchke": 6791,
      "kàrbli": 6792,
      "kàbisãũ": 6793,
      "míxyandak": 6794,
      "nãúxyöm": 6795,
      "èqkalènã": 6796,
      "shkítkö": 6797,
      "pàskuö": 6798,
      "pàkòqrke": 6799,
      "pàiklé": 6800,
      "pàterèwã": 6801,
      "dalèwa": 6802,
      "##tsikiris": 6803,
      "bakabiöla": 6804,
      "kapôqwe": 6805,
      "yulèkẽnẽ": 6806,
      "daréqsd": 6807,
      "español": 6808,
      "dàtsike": 6809,
      "nãñêxë": 6810,
      "shtóqka": 6811,
      "shtirí": 6812,
      "ikũáxtkĩ": 6813,
      "ajkóqnarke": 6814,
      "bolsa": 6815,
      "botella": 6816,
      "suktkër": 6817,
      "tsétsèë": 6818,
      "kíxmerke": 6819,
      "ñáxnũkwak": 6820,
      "chipòtë": 6821,
      "ahhh": 6822,
      "ãlàxchka": 6823,
      "àkbalóqknãmẽ": 6824,
      "apáinũũk": 6825,
      "téxrsẽ": 6826,
      "kàchökbla": 6827,
      "iajkà": 6828,
      "tarëwèxkẽ": 6829,
      "yuwè": 6830,
      "ejercito": 6831,
      "centavos": 6832,
      "shuyéq": 6833,
      "ôxsõs": 6834,
      "shapóq": 6835,
      "shatarô": 6836,
      "pàtóxrke": 6837,
      "wòqbutsaka": 6838,
      "mèxkèãttke": 6839,
      "tsikirístsikiris": 6840,
      "chukuèbulu": 6841,
      "crédito": 6842,
      "financieros": 6843,
      "syàmĩpa": 6844,
      "instituciones": 6845,
      "francisco": 6846,
      "485": 6847,
      "5539": 6848,
      "aerona": 6849,
      "azúcar": 6850,
      "afroame": 6851,
      "affc": 6852,
      "bókli": 6853,
      "brun": 6854,
      "cáncer": 6855,
      "cómo": 6856,
      "costa": 6857,
      "dölòquaa": 6858,
      "desarrollo": 6859,
      "derêqrêq": 6860,
      "díaz": 6861,
      "emily": 6862,
      "edgar": 6863,
      "eyed": 6864,
      "equipo": 6865,
      "frecuente": 6866,
      "griego": 6867,
      "iâxwẽ": 6868,
      "isãúx": 6869,
      "kolókolo": 6870,
      "lópez": 6871,
      "lawèir": 6872,
      "lámpara": 6873,
      "míshka": 6874,
      "morales": 6875,
      "mónica": 6876,
      "oscar": 6877,
      "olivo": 6878,
      "opòqp": 6879,
      "póxlĩ": 6880,
      "rchàkkuo": 6881,
      "réqkã": 6882,
      "sũköt": 6883,
      "srûrû": 6884,
      "soldad": 6885,
      "súrwak": 6886,
      "spaniel": 6887,
      "tókàiö": 6888,
      "wèqñẽ": 6889,
      "yókòli": 6890,
      "áfrica": 6891,
      "ãñãwéx": 6892,
      "ùsulë": 6893,
      "úapàkök": 6894,
      "##arios": 6895,
      "##smãs": 6896,
      "tsòxtkö": 6897,
      "##áxnĩñã": 6898,
      "belório": 6899,
      "chawë": 6900,
      "setenta": 6901,
      "káxñíxka": 6902,
      "káxshùxa": 6903,
      "káxshtâxũk": 6904,
      "aluminio": 6905,
      "almengor": 6906,
      "sabino": 6907,
      "dióqköla": 6908,
      "dieciocho": 6909,
      "dilùbio": 6910,
      "wòqtiẽ": 6911,
      "mìxyaltke": 6912,
      "mìxtkèrak": 6913,
      "dawòqkèwãtke": 6914,
      "kàchok": 6915,
      "ulúrkãmĩ": 6916,
      "yötuligala": 6917,
      "nãwáxki": 6918,
      "banet": 6919,
      "mĩnéxã": 6920,
      "mĩnêxã": 6921,
      "pàbiterewã": 6922,
      "pàkuòqknẽ": 6923,
      "##mãlãts": 6924,
      "ulàtsĩnĩ": 6925,
      "àxríts": 6926,
      "bakãlîxk": 6927,
      "baléqrmĩ": 6928,
      "wàkãnéxũk": 6929,
      "yòqlukö": 6930,
      "bunúxrkẽ": 6931,
      "kòqppèkèkãtke": 6932,
      "también": 6933,
      "kóxtté": 6934,
      "kóxshtáúx": 6935,
      "espectá": 6936,
      "wöttè": 6937,
      "telenovela": 6938,
      "klòqrlùnẽ": 6939,
      "bikékla": 6940,
      "bùkàmĩ": 6941,
      "nẽiãnẽ": 6942,
      "maravilloso": 6943,
      "kùxnũpa": 6944,
      "cachorros": 6945,
      "báshbash": 6946,
      "kóqnòxie": 6947,
      "escuadrón": 6948,
      "mãláxtsmãlãts": 6949,
      "kebérke": 6950,
      "sarûrü": 6951,
      "katànõk": 6952,
      "ñìxkéqë": 6953,
      "tsabàbâ": 6954,
      "kùmbia": 6955,
      "británicos": 6956,
      "talamãnca": 6957,
      "páxrlornẽ": 6958,
      "mõlóxtsmõlóxts": 6959,
      "wòqklóqr": 6960,
      "joaquín": 6961,
      "locust": 6962,
      "locuts": 6963,
      "judicial": 6964,
      "presidencial": 6965,
      "proyecto": 6966,
      "jtsâwöwe": 6967,
      "mâxmãdukà": 6968,
      "kachèkènẽ": 6969,
      "kùkurkùkur": 6970,
      "sargento": 6971,
      "tòtóla": 6972,
      "wâxnwâxn": 6973,
      "gasolina": 6974,
      "daréqsdarës": 6975,
      "aeronave": 6976,
      "afroameric": 6977,
      "''": 6978,
      ".]": 6979,
      "06": 6980,
      "01": 6981,
      "13": 6982,
      "17": 6983,
      "29": 6984,
      "22": 6985,
      "32": 6986,
      "33": 6987,
      "30000": 6988,
      "4ª": 6989,
      "400": 6990,
      "58": 6991,
      "54": 6992,
      "500": 6993,
      "60": 6994,
      "67": 6995,
      "70": 6996,
      "75": 6997,
      "82": 6998,
      "800": 6999,
      "99": 7000,
      "aê": 7001,
      "an": 7002,
      "au": 7003,
      "ay": 7004,
      "ag": 7005,
      "ari": 7006,
      "aũk": 7007,
      "awèx": 7008,
      "aie": 7009,
      "awéx": 7010,
      "ajkë": 7011,
      "ato": 7012,
      "ajka": 7013,
      "ate": 7014,
      "aèqnã": 7015,
      "aèqr": 7016,
      "aúk": 7017,
      "aia": 7018,
      "améx": 7019,
      "amũ": 7020,
      "aus": 7021,
      "aùnẽ": 7022,
      "aël": 7023,
      "amáx": 7024,
      "aii": 7025,
      "aura": 7026,
      "anu": 7027,
      "aut": 7028,
      "aéqk": 7029,
      "aéql": 7030,
      "br": 7031,
      "bó": 7032,
      "bts": 7033,
      "btà": 7034,
      "bule": 7035,
      "bor": 7036,
      "bôq": 7037,
      "bre": 7038,
      "bìnẽ": 7039,
      "búk": 7040,
      "búl": 7041,
      "búr": 7042,
      "bsẽ": 7043,
      "blas": 7044,
      "bâwö": 7045,
      "bawö": 7046,
      "cm": 7047,
      "c1": 7048,
      "cua": 7049,
      "can": 7050,
      "cat": 7051,
      "dc": 7052,
      "dêq": 7053,
      "dër": 7054,
      "dba": 7055,
      "dos": 7056,
      "dêqr": 7057,
      "dulâ": 7058,
      "dók": 7059,
      "dlô": 7060,
      "dòqkewã": 7061,
      "dèe": 7062,
      "dònẽ": 7063,
      "dléq": 7064,
      "dkó": 7065,
      "ea": 7066,
      "ek": 7067,
      "et": 7068,
      "ě": 7069,
      "ech": 7070,
      "eka": 7071,
      "ekë": 7072,
      "ewã": 7073,
      "ela": 7074,
      "ejkë": 7075,
      "eãt": 7076,
      "etöm": 7077,
      "era": 7078,
      "epi": 7079,
      "enc": 7080,
      "erö": 7081,
      "ene": 7082,
      "ema": 7083,
      "elé": 7084,
      "ejkéx": 7085,
      "fo": 7086,
      "fú": 7087,
      "fie": 7088,
      "fid": 7089,
      "flu": 7090,
      "folc": 7091,
      "gi": 7092,
      "gro": 7093,
      "gru": 7094,
      "grat": 7095,
      "hp": 7096,
      "ha": 7097,
      "he": 7098,
      "hu": 7099,
      "hka": 7100,
      "har": 7101,
      "hue": 7102,
      "here": 7103,
      "his": 7104,
      "hid": 7105,
      "hii": 7106,
      "harr": 7107,
      "hchál": 7108,
      "héli": 7109,
      "hell": 7110,
      "iw": 7111,
      "ip": 7112,
      "iê": 7113,
      "il": 7114,
      "ià": 7115,
      "iâ": 7116,
      "ĩ": 7117,
      "id": 7118,
      "iéx": 7119,
      "iáx": 7120,
      "inẽ": 7121,
      "iul": 7122,
      "its": 7123,
      "iàx": 7124,
      "ila": 7125,
      "iêq": 7126,
      "itã": 7127,
      "ièwã": 7128,
      "iñã": 7129,
      "iók": 7130,
      "ipë": 7131,
      "iúk": 7132,
      "iéwa": 7133,
      "iànã": 7134,
      "itö": 7135,
      "iànẽ": 7136,
      "ima": 7137,
      "iówã": 7138,
      "iòqkewã": 7139,
      "iál": 7140,
      "iám": 7141,
      "ibak": 7142,
      "iâũk": 7143,
      "iph": 7144,
      "iâwẽ": 7145,
      "iùxke": 7146,
      "iânẽ": 7147,
      "iéqrkẽ": 7148,
      "imáx": 7149,
      "iéqrke": 7150,
      "iwé": 7151,
      "iyi": 7152,
      "iàbulu": 7153,
      "idr": 7154,
      "ióka": 7155,
      "imíxk": 7156,
      "jul": 7157,
      "jes": 7158,
      "jcha": 7159,
      "jan": 7160,
      "jók": 7161,
      "jkuö": 7162,
      "jet": 7163,
      "jtsa": 7164,
      "jko": 7165,
      "jkóq": 7166,
      "jpé": 7167,
      "jkéx": 7168,
      "jáxk": 7169,
      "jâxs": 7170,
      "km": 7171,
      "kõ": 7172,
      "k̈": 7173,
      "kῖ": 7174,
      "kör": 7175,
      "kpa": 7176,
      "kwã": 7177,
      "kla": 7178,
      "kêq": 7179,
      "kor": 7180,
      "kòqk": 7181,
      "kbè": 7182,
      "krâ": 7183,
      "kìnã": 7184,
      "kâr": 7185,
      "kpá": 7186,
      "kâl": 7187,
      "kâba": 7188,
      "kèxn": 7189,
      "kèxnẽ": 7190,
      "krá": 7191,
      "krôrô": 7192,
      "kõnõ": 7193,
      "kèwãtke": 7194,
      "kîxnũk": 7195,
      "kkãmã": 7196,
      "kôqtk": 7197,
      "lò": 7198,
      "lí": 7199,
      "lé": 7200,
      "lì": 7201,
      "lö": 7202,
      "lù": 7203,
      "lô": 7204,
      "lùx": 7205,
      "lur": 7206,
      "lwak": 7207,
      "lás": 7208,
      "làk": 7209,
      "lan": 7210,
      "lac": 7211,
      "lòò": 7212,
      "lònẽ": 7213,
      "lòquaa": 7214,
      "lòratuaa": 7215,
      "mm": 7216,
      "mñ": 7217,
      "mö": 7218,
      "mó": 7219,
      "mâ": 7220,
      "mul": 7221,
      "mir": 7222,
      "mer": 7223,
      "mik": 7224,
      "mlĩ": 7225,
      "mbulu": 7226,
      "mas": 7227,
      "micha": 7228,
      "mia": 7229,
      "meli": 7230,
      "mùxke": 7231,
      "mon": 7232,
      "màwak": 7233,
      "mâõ": 7234,
      "ne": 7235,
      "nm": 7236,
      "ní": 7237,
      "nú": 7238,
      "nv": 7239,
      "níx": 7240,
      "nâx": 7241,
      "nati": 7242,
      "naciones": 7243,
      "nuc": 7244,
      "nada": 7245,
      "ok": 7246,
      "oë": 7247,
      "oñ": 7248,
      "oz": 7249,
      "oki": 7250,
      "our": 7251,
      "oööö": 7252,
      "pm": 7253,
      "pl": 7254,
      "pc": 7255,
      "pâ": 7256,
      "pèx": 7257,
      "póq": 7258,
      "pak": 7259,
      "pùx": 7260,
      "pòqke": 7261,
      "pèkẽ": 7262,
      "pâx": 7263,
      "për": 7264,
      "pule": 7265,
      "pás": 7266,
      "púxk": 7267,
      "plo": 7268,
      "pĩã": 7269,
      "pol": 7270,
      "puk": 7271,
      "pus": 7272,
      "pònẽ": 7273,
      "palo": 7274,
      "pura": 7275,
      "plù": 7276,
      "palé": 7277,
      "puente": 7278,
      "pĩòx": 7279,
      "péxlor": 7280,
      "pawèxke": 7281,
      "rã": 7282,
      "ro": 7283,
      "ró": 7284,
      "rd": 7285,
      "rpa": 7286,
      "rmĩ": 7287,
      "róqk": 7288,
      "rie": 7289,
      "res": 7290,
      "ran": 7291,
      "rac": 7292,
      "röla": 7293,
      "réwã": 7294,
      "rpá": 7295,
      "ràmĩ": 7296,
      "ràwã": 7297,
      "rré": 7298,
      "rrá": 7299,
      "rée": 7300,
      "río": 7301,
      "rbëla": 7302,
      "rrôs": 7303,
      "sá": 7304,
      "sò": 7305,
      "sr": 7306,
      "sl": 7307,
      "sú": 7308,
      "sô": 7309,
      "sc": 7310,
      "sd": 7311,
      "sû": 7312,
      "sė": 7313,
      "s̠": 7314,
      "sòq": 7315,
      "sìx": 7316,
      "sua": 7317,
      "söl": 7318,
      "sóx": 7319,
      "stk": 7320,
      "sër": 7321,
      "sás": 7322,
      "sbi": 7323,
      "séqr": 7324,
      "sôq": 7325,
      "sue": 7326,
      "sìnẽ": 7327,
      "súk": 7328,
      "súl": 7329,
      "sùnẽ": 7330,
      "soló": 7331,
      "salo": 7332,
      "sbá": 7333,
      "sìxnã": 7334,
      "swi": 7335,
      "tî": 7336,
      "tc": 7337,
      "tv": 7338,
      "tä": 7339,
      "tör": 7340,
      "tìx": 7341,
      "tkẽ": 7342,
      "tòx": 7343,
      "tur": 7344,
      "tes": 7345,
      "tòqt": 7346,
      "tor": 7347,
      "tbè": 7348,
      "tra": 7349,
      "tìnã": 7350,
      "tànã": 7351,
      "tâk": 7352,
      "téqrule": 7353,
      "tlí": 7354,
      "tèxnã": 7355,
      "tàxnẽ": 7356,
      "tilì": 7357,
      "téqrulewã": 7358,
      "tîxnũk": 7359,
      "tirîrî": 7360,
      "trét": 7361,
      "uà": 7362,
      "uc": 7363,
      "u̱": 7364,
      "uèkẽ": 7365,
      "una": 7366,
      "ujku": 7367,
      "uff": 7368,
      "ujkö": 7369,
      "umm": 7370,
      "uya": 7371,
      "uchí": 7372,
      "vo": 7373,
      "ví": 7374,
      "vc": 7375,
      "vir": 7376,
      "ver": 7377,
      "vic": 7378,
      "vina": 7379,
      "volc": 7380,
      "varios": 7381,
      "wo": 7382,
      "wü": 7383,
      "wal": 7384,
      "wöm": 7385,
      "wêqs": 7386,
      "wóie": 7387,
      "yr": 7388,
      "yã": 7389,
      "yù": 7390,
      "ỳ": 7391,
      "yal": 7392,
      "yak": 7393,
      "yulu": 7394,
      "yèwã": 7395,
      "yèmĩ": 7396,
      "yil": 7397,
      "yâr": 7398,
      "yéwã": 7399,
      "yalê": 7400,
      "yárkẽ": 7401,
      "yòqtak": 7402,
      "yilì": 7403,
      "yirîrî": 7404,
      "àw": 7405,
      "ài": 7406,
      "àb": 7407,
      "àà": 7408,
      "ànã": 7409,
      "àmĩ": 7410,
      "àki": 7411,
      "àta": 7412,
      "àba": 7413,
      "àmĩk": 7414,
      "àls": 7415,
      "àgali": 7416,
      "àlöaa": 7417,
      "át": 7418,
      "áj": 7419,
      "áka": 7420,
      "ámĩ": 7421,
      "áwö": 7422,
      "ásẽ": 7423,
      "álim": 7424,
      "ásule": 7425,
      "ânẽ": 7426,
      "âãt": 7427,
      "âtkö": 7428,
      "ãs": 7429,
      "ãn": 7430,
      "ãú": 7431,
      "ãla": 7432,
      "ãlĩ": 7433,
      "ãnĩ": 7434,
      "ãmãnéx": 7435,
      "ãtkéwã": 7436,
      "ãndâ": 7437,
      "èmĩ": 7438,
      "èkë": 7439,
      "èkã": 7440,
      "èki": 7441,
      "ètke": 7442,
      "èkal": 7443,
      "ètkö": 7444,
      "èble": 7445,
      "én": 7446,
      "édal": 7447,
      "éwë": 7448,
      "ékkë": 7449,
      "érl": 7450,
      "éjke": 7451,
      "ékapë": 7452,
      "êla": 7453,
      "êjkë": 7454,
      "êyök": 7455,
      "êkö": 7456,
      "êre": 7457,
      "êtkë": 7458,
      "êtokicha": 7459,
      "êréq": 7460,
      "êkapë": 7461,
      "ëköl": 7462,
      "ëtke": 7463,
      "ìri": 7464,
      "ìla": 7465,
      "ìtã": 7466,
      "ìie": 7467,
      "ìwak": 7468,
      "ìtsĩ": 7469,
      "ìalê": 7470,
      "ìkkë": 7471,
      "ìyi": 7472,
      "ìlanõkè": 7473,
      "ít": 7474,
      "íã": 7475,
      "íj": 7476,
      "ínẽ": 7477,
      "íla": 7478,
      "íjk": 7479,
      "íwa": 7480,
      "írkẽ": 7481,
      "íñã": 7482,
      "íjke": 7483,
      "ímã": 7484,
      "îèq": 7485,
      "îes": 7486,
      "îñẽ": 7487,
      "ñá": 7488,
      "ñè": 7489,
      "ñúx": 7490,
      "ñòx": 7491,
      "ñala": 7492,
      "ñâxã": 7493,
      "ñùxk": 7494,
      "ñõr": 7495,
      "òk": 7496,
      "òë": 7497,
      "òköl": 7498,
      "òlo": 7499,
      "òmĩk": 7500,
      "òkãmã": 7501,
      "ós": 7502,
      "ómĩ": 7503,
      "ówa": 7504,
      "ómĩk": 7505,
      "óköpa": 7506,
      "ôka": 7507,
      "ôbata": 7508,
      "ôyar": 7509,
      "õwa": 7510,
      "õmõ": 7511,
      "õmóx": 7512,
      "öl": 7513,
      "ökö": 7514,
      "ölök": 7515,
      "öbôq": 7516,
      "öréq": 7517,
      "ùi": 7518,
      "ùt": 7519,
      "ùù": 7520,
      "ùà": 7521,
      "ùts": 7522,
      "ùjk": 7523,
      "ùrkẽ": 7524,
      "ùte": 7525,
      "ùpá": 7526,
      "ùñãk": 7527,
      "ùjkẽ": 7528,
      "ùyaw": 7529,
      "ùrú": 7530,
      "úr": 7531,
      "út": 7532,
      "ús": 7533,
      "úú": 7534,
      "úyök": 7535,
      "úru": 7536,
      "úbali": 7537,
      "úpak": 7538,
      "únẽkã": 7539,
      "útule": 7540,
      "ûx": 7541,
      "ûyök": 7542,
      "ûru": 7543,
      "ĩĩ": 7544,
      "ĩe": 7545,
      "ĩè": 7546,
      "ĩñ": 7547,
      "ĩõ": 7548,
      "ĩnã": 7549,
      "ĩóx": 7550,
      "ĩèxke": 7551,
      "ĩmìx": 7552,
      "ĩwĩ": 7553,
      "ĩìxr": 7554,
      "ĩìxnẽ": 7555,
      "īyi": 7556,
      "ũrkẽ": 7557,
      "ũñẽ": 7558,
      "ũnéx": 7559,
      "ũéxk": 7560,
      "ũléx": 7561,
      "ũñũk": 7562,
      "ũwíx": 7563,
      "ũntu": 7564,
      "̀i": 7565,
      "̈̀": 7566,
      "ẽũ": 7567,
      "ẽnẽ": 7568,
      "ẽts": 7569,
      "ẽmẽ": 7570,
      "ẽpà": 7571,
      "##ws": 7572,
      "##wî": 7573,
      "##wèq": 7574,
      "##war": 7575,
      "##wák": 7576,
      "##wèke": 7577,
      "##wêq": 7578,
      "##wèkẽ": 7579,
      "##wër": 7580,
      "##wòqt": 7581,
      "##wêx": 7582,
      "##wèwã": 7583,
      "##wéwã": 7584,
      "##wékã": 7585,
      "##wóqkicha": 7586,
      "##wâxã": 7587,
      "##ásh": 7588,
      "##átk": 7589,
      "##áwẽ": 7590,
      "##áli": 7591,
      "##átke": 7592,
      "##átsã": 7593,
      "##ármĩ": 7594,
      "##áblök": 7595,
      "##ánd": 7596,
      "##áyë": 7597,
      "##áyöm": 7598,
      "##álog": 7599,
      "##ájts": 7600,
      "##áshkal": 7601,
      "##pã": 7602,
      "##pì": 7603,
      "##pèke": 7604,
      "##pòx": 7605,
      "##pro": 7606,
      "##pio": 7607,
      "##pos": 7608,
      "##ple": 7609,
      "##pár": 7610,
      "##pico": 7611,
      "##puesto": 7612,
      "##picio": 7613,
      "##póqkka": 7614,
      "##ab": 7615,
      "##anẽ": 7616,
      "##apa": 7617,
      "##aũk": 7618,
      "##aie": 7619,
      "##aria": 7620,
      "##apà": 7621,
      "##ael": 7622,
      "##òm": 7623,
      "##òmĩ": 7624,
      "##òwã": 7625,
      "##òla": 7626,
      "##òie": 7627,
      "##òrkẽ": 7628,
      "##òbita": 7629,
      "##òkẽwã": 7630,
      "##kk": 7631,
      "##kh": 7632,
      "##káx": 7633,
      "##kök": 7634,
      "##kwã": 7635,
      "##kũk": 7636,
      "##kula": 7637,
      "##kali": 7638,
      "##kèqr": 7639,
      "##kmõ": 7640,
      "##kkrâ": 7641,
      "##knãmẽ": 7642,
      "##kùxkẽ": 7643,
      "##kít": 7644,
      "##káwak": 7645,
      "##ksula": 7646,
      "##kly": 7647,
      "##klaba": 7648,
      "##kôqtk": 7649,
      "##ĩéx": 7650,
      "##ĩàx": 7651,
      "##ĩũk": 7652,
      "##ĩwẽ": 7653,
      "##ĩpe": 7654,
      "##ĩnìx": 7655,
      "##ĩóxk": 7656,
      "##ĩwéxwã": 7657,
      "##ĩõlà": 7658,
      "##êë": 7659,
      "##ês": 7660,
      "##êwã": 7661,
      "##êköl": 7662,
      "##êtke": 7663,
      "##êtöm": 7664,
      "##ênĩk": 7665,
      "##êrê": 7666,
      "##rb": 7667,
      "##rè": 7668,
      "##rî": 7669,
      "##ró": 7670,
      "##rèq": 7671,
      "##rar": 7672,
      "##rku": 7673,
      "##rta": 7674,
      "##rwak": 7675,
      "##rto": 7676,
      "##rsi": 7677,
      "##rtsẽ": 7678,
      "##rêqrêq": 7679,
      "##ras": 7680,
      "##rbit": 7681,
      "##rìnẽ": 7682,
      "##rkal": 7683,
      "##rlô": 7684,
      "##rànẽ": 7685,
      "##rno": 7686,
      "##rés": 7687,
      "##rvic": 7688,
      "##rlu": 7689,
      "##rbê": 7690,
      "##rdia": 7691,
      "##rbëla": 7692,
      "##iè": 7693,
      "##ĩ": 7694,
      "##its": 7695,
      "##iri": 7696,
      "##ikẽ": 7697,
      "##ikë": 7698,
      "##iwö": 7699,
      "##ish": 7700,
      "##ièke": 7701,
      "##iêq": 7702,
      "##ise": 7703,
      "##ili": 7704,
      "##ikòq": 7705,
      "##ibi": 7706,
      "##inĩ": 7707,
      "##ièmĩ": 7708,
      "##ini": 7709,
      "##ichà": 7710,
      "##ipe": 7711,
      "##iêqtẽn": 7712,
      "##ichök": 7713,
      "##itar": 7714,
      "##iales": 7715,
      "##itske": 7716,
      "##itre": 7717,
      "##iàxnẽ": 7718,
      "##itsũk": 7719,
      "##irërë": 7720,
      "##ea": 7721,
      "##eñ": 7722,
      "##e̜": 7723,
      "##emĩ": 7724,
      "##eki": 7725,
      "##ewe": 7726,
      "##eer": 7727,
      "##eico": 7728,
      "##eper": 7729,
      "##ë̩": 7730,
      "##etaria": 7731,
      "##ëtã": 7732,
      "##ërë": 7733,
      "##ëtso": 7734,
      "##ëga": 7735,
      "##ëeee": 7736,
      "##tb": 7737,
      "##tâ": 7738,
      "##t̀": 7739,
      "##tpa": 7740,
      "##tri": 7741,
      "##tki": 7742,
      "##tie": 7743,
      "##twa": 7744,
      "##tèkẽ": 7745,
      "##tala": 7746,
      "##tio": 7747,
      "##ttök": 7748,
      "##til": 7749,
      "##tin": 7750,
      "##tulur": 7751,
      "##túr": 7752,
      "##tlur": 7753,
      "##tora": 7754,
      "##téwö": 7755,
      "##tóqknãmẽ": 7756,
      "##tâũk": 7757,
      "##tâwõ": 7758,
      "##tawẽ": 7759,
      "##tkie": 7760,
      "##tulù": 7761,
      "##tlë": 7762,
      "##tĩõ": 7763,
      "##tùso": 7764,
      "##tawé": 7765,
      "##tást": 7766,
      "##tikö": 7767,
      "##trét": 7768,
      "##tòla": 7769,
      "##tĩéx": 7770,
      "##sé": 7771,
      "##só": 7772,
      "##sc": 7773,
      "##s̀": 7774,
      "##sf": 7775,
      "##ś": 7776,
      "##sóq": 7777,
      "##sak": 7778,
      "##sũk": 7779,
      "##sie": 7780,
      "##sur": 7781,
      "##ses": 7782,
      "##stke": 7783,
      "##stse": 7784,
      "##sêx": 7785,
      "##skua": 7786,
      "##sìnã": 7787,
      "##stö": 7788,
      "##suaa": 7789,
      "##stro": 7790,
      "##ster": 7791,
      "##sawẽ": 7792,
      "##stka": 7793,
      "##síũk": 7794,
      "##sawak": 7795,
      "##smâxs": 7796,
      "##swî": 7797,
      "##stikö": 7798,
      "##ãr": 7799,
      "##ãã": 7800,
      "##ãkĩ": 7801,
      "##ãkã": 7802,
      "##ãtke": 7803,
      "##ãkîxë": 7804,
      "##ãkùxkẽ": 7805,
      "##ov": 7806,
      "##o̹": 7807,
      "##ota": 7808,
      "##one": 7809,
      "##omo": 7810,
      "##ope": 7811,
      "##ẽã": 7812,
      "##mù": 7813,
      "##mó": 7814,
      "##mna": 7815,
      "##mer": 7816,
      "##mik": 7817,
      "##mbulu": 7818,
      "##mêx": 7819,
      "##mos": 7820,
      "##mán": 7821,
      "##met": 7822,
      "##mlẽ": 7823,
      "##mente": 7824,
      "##msũ": 7825,
      "##malé": 7826,
      "##msãwẽ": 7827,
      "##mtkabë": 7828,
      "##bã": 7829,
      "##bo": 7830,
      "##bô": 7831,
      "##bû": 7832,
      "##bul": 7833,
      "##béq": 7834,
      "##bua": 7835,
      "##bur": 7836,
      "##btà": 7837,
      "##bir": 7838,
      "##bón": 7839,
      "##búk": 7840,
      "##bròq": 7841,
      "##bble": 7842,
      "##bònẽ": 7843,
      "##bko": 7844,
      "##bòqtkë": 7845,
      "##barro": 7846,
      "##bòqte": 7847,
      "##bawèxkẽ": 7848,
      "##bell": 7849,
      "##bìkũk": 7850,
      "##írke": 7851,
      "##írë": 7852,
      "##íule": 7853,
      "##íchi": 7854,
      "##írule": 7855,
      "##íra": 7856,
      "##íwöla": 7857,
      "##íru": 7858,
      "##ílí": 7859,
      "##ílã": 7860,
      "##ítola": 7861,
      "##ítsêx": 7862,
      "##énẽ": 7863,
      "##éri": 7864,
      "##éla": 7865,
      "##ékĩ": 7866,
      "##étsi": 7867,
      "##éãt": 7868,
      "##ére": 7869,
      "##érak": 7870,
      "##ékal": 7871,
      "##été": 7872,
      "##éjtsã": 7873,
      "##érica": 7874,
      "##èpa": 7875,
      "##èla": 7876,
      "##èes": 7877,
      "##ètke": 7878,
      "##èra": 7879,
      "##èĩã": 7880,
      "##èkũ": 7881,
      "##èbita": 7882,
      "##ènèxwã": 7883,
      "##èkamĩ": 7884,
      "##èjke": 7885,
      "##èùà": 7886,
      "##èwèxkã": 7887,
      "##nò": 7888,
      "##ṉ": 7889,
      "##nal": 7890,
      "##nóx": 7891,
      "##ntã": 7892,
      "##nchi": 7893,
      "##nic": 7894,
      "##ndi": 7895,
      "##nso": 7896,
      "##nuk": 7897,
      "##ngo": 7898,
      "##nico": 7899,
      "##nawa": 7900,
      "##nerak": 7901,
      "##náxwã": 7902,
      "##nzana": 7903,
      "##nóxk": 7904,
      "##náwã": 7905,
      "##núxknãmẽ": 7906,
      "##ub": 7907,
      "##uâ": 7908,
      "##ũ": 7909,
      "##uj": 7910,
      "##uwa": 7911,
      "##una": 7912,
      "##uer": 7913,
      "##ute": 7914,
      "##uni": 7915,
      "##utos": 7916,
      "##utar": 7917,
      "##uñĩ": 7918,
      "##utiv": 7919,
      "##udo": 7920,
      "##upuesto": 7921,
      "##ũy": 7922,
      "##ũke": 7923,
      "##ũèx": 7924,
      "##ũka": 7925,
      "##ũshka": 7926,
      "##ũáxkĩ": 7927,
      "##ũshùx": 7928,
      "##ũwẽwa": 7929,
      "##ũñèxke": 7930,
      "##ũntu": 7931,
      "##lk": 7932,
      "##lê": 7933,
      "##lî": 7934,
      "##lâ": 7935,
      "##lèq": 7936,
      "##lèx": 7937,
      "##láx": 7938,
      "##lak": 7939,
      "##làx": 7940,
      "##lwö": 7941,
      "##lèke": 7942,
      "##lir": 7943,
      "##ler": 7944,
      "##lèmĩ": 7945,
      "##lle": 7946,
      "##lèqr": 7947,
      "##lmõ": 7948,
      "##laka": 7949,
      "##lés": 7950,
      "##lùnẽ": 7951,
      "##lárke": 7952,
      "##lkak": 7953,
      "##lòbita": 7954,
      "##ìẽ": 7955,
      "##ìì": 7956,
      "##ìwak": 7957,
      "##ìuaa": 7958,
      "##ìrka": 7959,
      "##ìtali": 7960,
      "##ìskuök": 7961,
      "##ìnèxkã": 7962,
      "##ìtulù": 7963,
      "##ìlkak": 7964,
      "##xista": 7965,
      "##ñõ": 7966,
      "##ñáx": 7967,
      "##ñóx": 7968,
      "##ñil": 7969,
      "##hök": 7970,
      "##hàx": 7971,
      "##her": 7972,
      "##hor": 7973,
      "##hpan": 7974,
      "##ham": 7975,
      "##îs": 7976,
      "##îã": 7977,
      "##îsh": 7978,
      "##îrë": 7979,
      "##îwẽ": 7980,
      "##îbi": 7981,
      "##înẽwa": 7982,
      "##îlila": 7983,
      "##îab": 7984,
      "##îlî": 7985,
      "##zo": 7986,
      "##zopa": 7987,
      "##ús": 7988,
      "##útsi": 7989,
      "##úrule": 7990,
      "##úshba": 7991,
      "##öpa": 7992,
      "##ömĩ": 7993,
      "##öwa": 7994,
      "##öñã": 7995,
      "##öbu": 7996,
      "##öaa": 7997,
      "##öbie": 7998,
      "##öwéxkã": 7999,
      "##ùkẽ": 8000,
      "##ùtã": 8001,
      "##ùjkuö": 8002,
      "##ùtu": 8003,
      "##ùlur": 8004,
      "##ùtkö": 8005,
      "##ùblu": 8006,
      "##ùdiòq": 8007,
      "##ùbaliwak": 8008,
      "##ùlwö": 8009,
      "##yé": 8010,
      "##yõ": 8011,
      "##yòq": 8012,
      "##yèke": 8013,
      "##yër": 8014,
      "##yer": 8015,
      "##yàwã": 8016,
      "##ywo": 8017,
      "##àt": 8018,
      "##àj": 8019,
      "##àũk": 8020,
      "##àwa": 8021,
      "##àtsã": 8022,
      "##àio": 8023,
      "##àtẽ": 8024,
      "##àrpa": 8025,
      "##àwã": 8026,
      "##àbolo": 8027,
      "##àrtã": 8028,
      "##àsuaa": 8029,
      "##óla": 8030,
      "##óũk": 8031,
      "##ókã": 8032,
      "##ókicha": 8033,
      "##óköt": 8034,
      "##ówêq": 8035,
      "##ópico": 8036,
      "##õë": 8037,
      "##õã": 8038,
      "##õõ": 8039,
      "##õla": 8040,
      "##õrmĩ": 8041,
      "##õkè": 8042,
      "##õlor": 8043,
      "##ôa": 8044,
      "##ôk": 8045,
      "##ôwẽ": 8046,
      "##ôda": 8047,
      "##ôyö": 8048,
      "##ôbô": 8049,
      "##gue": 8050,
      "##gre": 8051,
      "##gres": 8052,
      "##gina": 8053,
      "##get": 8054,
      "##göö": 8055,
      "##garro": 8056,
      "##galö": 8057,
      "##géli": 8058,
      "##guid": 8059,
      "##gini": 8060,
      "##guna": 8061,
      "##glés": 8062,
      "##cà": 8063,
      "##cke": 8064,
      "##cki": 8065,
      "##cur": 8066,
      "##ces": 8067,
      "##cac": 8068,
      "##cre": 8069,
      "##cien": 8070,
      "##cales": 8071,
      "##cara": 8072,
      "##cado": 8073,
      "##cador": 8074,
      "##cicio": 8075,
      "##ctr": 8076,
      "##cada": 8077,
      "##ctri": 8078,
      "##cnico": 8079,
      "##âë": 8080,
      "##âwã": 8081,
      "##ârke": 8082,
      "##ârë": 8083,
      "##âir": 8084,
      "##ârkẽ": 8085,
      "##âbitũ": 8086,
      "##âali": 8087,
      "##âkicha": 8088,
      "##ânãmẽ": 8089,
      "##âbâ": 8090,
      "##âtkabë": 8091,
      "##âstka": 8092,
      "##âbawèxkẽ": 8093,
      "##̃ke": 8094,
      "##̃la": 8095,
      "##̃ie": 8096,
      "##̃tke": 8097,
      "##̃wéx": 8098,
      "##̃ni": 8099,
      "##jáx": 8100,
      "##jch": 8101,
      "##júx": 8102,
      "##jtse": 8103,
      "##jtë": 8104,
      "##jte": 8105,
      "##jtsa": 8106,
      "##jbu": 8107,
      "##jchök": 8108,
      "##josé": 8109,
      "##jnùx": 8110,
      "##jtè": 8111,
      "##dd": 8112,
      "##dóq": 8113,
      "##dök": 8114,
      "##dur": 8115,
      "##dule": 8116,
      "##den": 8117,
      "##das": 8118,
      "##dali": 8119,
      "##déwa": 8120,
      "##dente": 8121,
      "##dàë": 8122,
      "##dge": 8123,
      "##vie": 8124,
      "##ven": 8125,
      "##vis": 8126,
      "##ûë": 8127,
      "##ûnã": 8128,
      "##ûũk": 8129,
      "##ûbl": 8130,
      "##ûyök": 8131,
      "##ûya": 8132,
      "##ûulat": 8133,
      "##ûaũk": 8134,
      "##ûbû": 8135,
      "##̀a": 8136,
      "##̀e": 8137,
      "##̀t": 8138,
      "##̀ak": 8139,
      "##̀kë": 8140,
      "##̀wẽ": 8141,
      "##̀blapa": 8142,
      "##̠k": 8143,
      "##̠e": 8144,
      "##̠s": 8145,
      "##̠m": 8146,
      "##̠wö": 8147,
      "##̠rkẽ": 8148,
      "##99": 8149,
      "##22": 8150,
      "##26": 8151,
      "##24": 8152,
      "##fic": 8153,
      "##fico": 8154,
      "##fael": 8155,
      "##03": 8156,
      "##̈k": 8157,
      "##̈̂": 8158,
      "##̈köl": 8159,
      "##̈wak": 8160,
      "##̈si": 8161,
      "##̈nãmã": 8162,
      "##̏kẽ": 8163,
      "##́k": 8164,
      "##́ta": 8165,
      "##́ria": 8166,
      "##̹wã": 8167,
      "##43": 8168,
      "##70": 8169,
      "##̂kela": 8170,
      "##̂rî": 8171,
      "##50": 8172,
      "##åki": 8173,
      "##̜l": 8174,
      "##òqpa": 8175,
      "##òqri": 8176,
      "##òqki": 8177,
      "##òqrpa": 8178,
      "##òqwã": 8179,
      "##òqtkèke": 8180,
      "##òqaria": 8181,
      "tãũ": 8182,
      "tãî": 8183,
      "tãie": 8184,
      "tãtke": 8185,
      "tãmàx": 8186,
      "tãwõ": 8187,
      "tãwé": 8188,
      "tãmíx": 8189,
      "tãmúx": 8190,
      "tãlárke": 8191,
      "iepa": 8192,
      "ietke": 8193,
      "ienãkã": 8194,
      "yeta": 8195,
      "yë̩": 8196,
      "tsò": 8197,
      "tsê": 8198,
      "tsũ": 8199,
      "tsö": 8200,
      "tsó": 8201,
      "tski": 8202,
      "tsèkẽ": 8203,
      "tsâx": 8204,
      "tsêx": 8205,
      "tsèwã": 8206,
      "tsúk": 8207,
      "tsuk": 8208,
      "tsîrë": 8209,
      "tsùdiòq": 8210,
      "##èqã": 8211,
      "##èqla": 8212,
      "##èqta": 8213,
      "##èqna": 8214,
      "##èqbal": 8215,
      "##èqnũk": 8216,
      "##èqtãnẽ": 8217,
      "##èqbitũ": 8218,
      "##èqne": 8219,
      "##èquaa": 8220,
      "##èqlöaa": 8221,
      "##èqlèq": 8222,
      "##örö": 8223,
      "##kenẽ": 8224,
      "##kewã": 8225,
      "##kerak": 8226,
      "##ketër": 8227,
      "##ketkè": 8228,
      "##éxũ": 8229,
      "##éxnẽ": 8230,
      "##éxnã": 8231,
      "##éxkã": 8232,
      "##éxtsã": 8233,
      "##éxjkuö": 8234,
      "##éxrmĩ": 8235,
      "##éxstsã": 8236,
      "##éxñũk": 8237,
      "##éxrök": 8238,
      "##éxkĩ": 8239,
      "##èxë": 8240,
      "##èxchi": 8241,
      "##èxikë": 8242,
      "##óqt": 8243,
      "##óqnẽ": 8244,
      "##óqkẽ": 8245,
      "##óqie": 8246,
      "##óqwa": 8247,
      "##óqñã": 8248,
      "##óqrie": 8249,
      "##óqnãmẽ": 8250,
      "##óqale": 8251,
      "##óqnũ": 8252,
      "##óqchök": 8253,
      "##óqjkã": 8254,
      "##óqlka": 8255,
      "##óqmbla": 8256,
      "##alẽ": 8257,
      "##alu": 8258,
      "##alì": 8259,
      "##alóq": 8260,
      "##aléq": 8261,
      "##alíx": 8262,
      "##alòqke": 8263,
      "##alir": 8264,
      "##alékã": 8265,
      "##alís": 8266,
      "##alájts": 8267,
      "##alĩwẽ": 8268,
      "##alâtkabë": 8269,
      "kèqpa": 8270,
      "kèqie": 8271,
      "kèqchkepa": 8272,
      "kèqeee": 8273,
      "kèqëeee": 8274,
      "##áxa": 8275,
      "##áxrkẽ": 8276,
      "##áxsã": 8277,
      "##áxméx": 8278,
      "##áxrwã": 8279,
      "##áxwã": 8280,
      "##chĩ": 8281,
      "##chu": 8282,
      "##chì": 8283,
      "##chóq": 8284,
      "##chöl": 8285,
      "##chki": 8286,
      "##chèkẽ": 8287,
      "##chòqk": 8288,
      "##chto": 8289,
      "##chôq": 8290,
      "##chos": 8291,
      "##chûx": 8292,
      "##chlẽ": 8293,
      "##chòò": 8294,
      "##chkà": 8295,
      "##chkí": 8296,
      "##chkala": 8297,
      "##charro": 8298,
      "##chòqwö": 8299,
      "##chôqã": 8300,
      "##chéqwö": 8301,
      "##chawak": 8302,
      "##châë": 8303,
      "##nẽnẽ": 8304,
      "##nẽwẽ": 8305,
      "##nẽbak": 8306,
      "##nẽtkla": 8307,
      "##ulê": 8308,
      "##ulèq": 8309,
      "##ulìx": 8310,
      "##ulis": 8311,
      "##ulãã": 8312,
      "##tsê": 8313,
      "##tsu": 8314,
      "##tsù": 8315,
      "##tsër": 8316,
      "##tsèmĩ": 8317,
      "##tséwã": 8318,
      "##tsùxkẽ": 8319,
      "##tswòq": 8320,
      "##tsàxnẽ": 8321,
      "##tsáxwã": 8322,
      "##tsbôq": 8323,
      "##tsáxk": 8324,
      "##tsáli": 8325,
      "##tsèqla": 8326,
      "bebè": 8327,
      "##éqpa": 8328,
      "##éqki": 8329,
      "##éqjkë": 8330,
      "##éqkö": 8331,
      "##éqrie": 8332,
      "##éqkal": 8333,
      "##éqtkër": 8334,
      "##éqbale": 8335,
      "##éqtokicha": 8336,
      "##éqlà": 8337,
      "##éqbalòqkẽ": 8338,
      "##éqshtë": 8339,
      "chë": 8340,
      "chù": 8341,
      "chîx": 8342,
      "chki": 8343,
      "chio": 8344,
      "chòqk": 8345,
      "chôq": 8346,
      "chin": 8347,
      "chéqrule": 8348,
      "chík": 8349,
      "chôë": 8350,
      "chale": 8351,
      "chöròq": 8352,
      "châkũ": 8353,
      "chôqã": 8354,
      "chilì": 8355,
      "chrit": 8356,
      "chíchi": 8357,
      "châbitũ": 8358,
      "seie": 8359,
      "sede": 8360,
      "secu": 8361,
      "sewèq": 8362,
      "servic": 8363,
      "##aki": 8364,
      "##akö": 8365,
      "##akak": 8366,
      "##akóqyök": 8367,
      "##akèqta": 8368,
      "##nãrke": 8369,
      "##nãtsã": 8370,
      "##nãrmĩ": 8371,
      "##nãwĩ": 8372,
      "##nãmũlẽ": 8373,
      "##ìxã": 8374,
      "##ìxñãk": 8375,
      "##ìxëkã": 8376,
      "##ìxdaw": 8377,
      "káxka": 8378,
      "káxũk": 8379,
      "káxsh": 8380,
      "káxwa": 8381,
      "káxkòq": 8382,
      "káxbi": 8383,
      "káxjkuö": 8384,
      "káxtök": 8385,
      "káxchka": 8386,
      "káxñãk": 8387,
      "káxjkèx": 8388,
      "káxchaka": 8389,
      "káxrkĩ": 8390,
      "káxko": 8391,
      "káxblë": 8392,
      "káxbalë": 8393,
      "káxpàkök": 8394,
      "káxchak": 8395,
      "káxapà": 8396,
      "káxikẽ": 8397,
      "káxjtè": 8398,
      "##kar": 8399,
      "##kabèq": 8400,
      "##karö": 8401,
      "alé": 8402,
      "alba": 8403,
      "alor": 8404,
      "alto": 8405,
      "aléi": 8406,
      "alìnẽ": 8407,
      "alòqkẽ": 8408,
      "alèqr": 8409,
      "aléka": 8410,
      "alùnã": 8411,
      "alberto": 8412,
      "alöbu": 8413,
      "alâir": 8414,
      "alåki": 8415,
      "##panẽ": 8416,
      "##pawã": 8417,
      "##paũk": 8418,
      "##paãt": 8419,
      "##pashka": 8420,
      "##paci": 8421,
      "##pache": 8422,
      "##awã": 8423,
      "##awök": 8424,
      "##awák": 8425,
      "##awèxmĩ": 8426,
      "##awéxwã": 8427,
      "##rich": 8428,
      "##rits": 8429,
      "##rila": 8430,
      "##ricula": 8431,
      "##ritas": 8432,
      "##rimĩnẽ": 8433,
      "##ripé": 8434,
      "##ring": 8435,
      "##riitske": 8436,
      "##kẽãt": 8437,
      "##kẽmãlẽ": 8438,
      "##kẽrlur": 8439,
      "kĩtë": 8440,
      "kĩte": 8441,
      "kĩmõ": 8442,
      "kĩèxkẽ": 8443,
      "kĩmèx": 8444,
      "kĩme": 8445,
      "kĩmũk": 8446,
      "kĩmúx": 8447,
      "kĩchicha": 8448,
      "kĩãkùxkẽ": 8449,
      "kĩmer": 8450,
      "##öki": 8451,
      "##ökkanẽ": 8452,
      "##ökèla": 8453,
      "wã": 8454,
      "watã": 8455,
      "watk": 8456,
      "watke": 8457,
      "watkök": 8458,
      "wänãmã": 8459,
      "##íxk": 8460,
      "##íxt": 8461,
      "##íxkë": 8462,
      "##íxũk": 8463,
      "##íxtsã": 8464,
      "##íxwéx": 8465,
      "##íxnĩ": 8466,
      "##íxlíx": 8467,
      "wãtke": 8468,
      "wãrak": 8469,
      "##mĩrak": 8470,
      "##mĩne": 8471,
      "##mĩyal": 8472,
      "##mĩmãlẽ": 8473,
      "buaũ": 8474,
      "buambu": 8475,
      "buaòxkule": 8476,
      "kĩ": 8477,
      "kita": 8478,
      "kità": 8479,
      "kipë": 8480,
      "kitö": 8481,
      "kipàk": 8482,
      "kiówã": 8483,
      "kiékã": 8484,
      "kitè": 8485,
      "kipé": 8486,
      "kiárke": 8487,
      "kitèke": 8488,
      "kichòq": 8489,
      "kiármĩ": 8490,
      "kichôq": 8491,
      "satèq": 8492,
      "sãwéx": 8493,
      "shõ": 8494,
      "shèq": 8495,
      "shóqk": 8496,
      "shkĩ": 8497,
      "sher": 8498,
      "shòqk": 8499,
      "shto": 8500,
      "shmàx": 8501,
      "shuk": 8502,
      "shmo": 8503,
      "shûx": 8504,
      "shawa": 8505,
      "shkir": 8506,
      "shalà": 8507,
      "shûulat": 8508,
      "sháxméx": 8509,
      "##ùxka": 8510,
      "##ùxmĩ": 8511,
      "##ùxùx": 8512,
      "##ùxwã": 8513,
      "##ùxyö": 8514,
      "diá": 8515,
      "dir": 8516,
      "dii": 8517,
      "dió": 8518,
      "dipa": 8519,
      "diba": 8520,
      "diòqt": 8521,
      "dina": 8522,
      "dicha": 8523,
      "diár": 8524,
      "dijkö": 8525,
      "dipâ": 8526,
      "diám": 8527,
      "diâũk": 8528,
      "disti": 8529,
      "dindî": 8530,
      "diga": 8531,
      "dibet": 8532,
      "diwóqsãwõ": 8533,
      "dinãmũ": 8534,
      "##óqkã": 8535,
      "##óqknẽ": 8536,
      "##óqkök": 8537,
      "##óqkir": 8538,
      "##óqkãt": 8539,
      "##óqkbla": 8540,
      "##óqköt": 8541,
      "##ölo": 8542,
      "##ölan": 8543,
      "##këka": 8544,
      "##àxs": 8545,
      "##àxl": 8546,
      "##àxtke": 8547,
      "##àxtãnẽ": 8548,
      "##àxlaba": 8549,
      "##úxt": 8550,
      "##úxl": 8551,
      "##úxmbla": 8552,
      "##îxlîx": 8553,
      "ichá": 8554,
      "ichóq": 8555,
      "ichar": 8556,
      "ichák": 8557,
      "ichala": 8558,
      "ichòqk": 8559,
      "ichere": 8560,
      "ichóqli": 8561,
      "ichâk": 8562,
      "ichòqwã": 8563,
      "ichiki": 8564,
      "ichòqmĩ": 8565,
      "ichóqlit": 8566,
      "icho̹": 8567,
      "ich̀ak": 8568,
      "##wãk": 8569,
      "##wãnẽ": 8570,
      "##wãwã": 8571,
      "##wãku": 8572,
      "##wãtke": 8573,
      "##wãmi": 8574,
      "kũnã": 8575,
      "kũèkẽ": 8576,
      "kũrkẽ": 8577,
      "kũwéx": 8578,
      "kũlĩ": 8579,
      "kũèxke": 8580,
      "kũlẽ": 8581,
      "kũiã": 8582,
      "kũeki": 8583,
      "kũãkîxë": 8584,
      "kũékĩ": 8585,
      "wòqök": 8586,
      "wòqbl": 8587,
      "wòqmã": 8588,
      "wòqwẽ": 8589,
      "wòqñẽ": 8590,
      "wòqkö": 8591,
      "wòqjkuö": 8592,
      "wòqan": 8593,
      "wòqat": 8594,
      "wòqulâ": 8595,
      "wòqtök": 8596,
      "wòqkè": 8597,
      "wòqâr": 8598,
      "wòqmõ": 8599,
      "wòqtö": 8600,
      "wòqblö": 8601,
      "wòqkue": 8602,
      "wòqus": 8603,
      "wòqyë": 8604,
      "wòqyóq": 8605,
      "wòqbak": 8606,
      "wòqbli": 8607,
      "wòqjkue": 8608,
      "wòqrkua": 8609,
      "wòqbá": 8610,
      "wòqjts": 8611,
      "wòqânã": 8612,
      "wòqwì": 8613,
      "wòqyör": 8614,
      "wòqĩóxk": 8615,
      "wòqìtulù": 8616,
      "wòqöwa": 8617,
      "wòqyòq": 8618,
      "wòqârke": 8619,
      "wòqóqwa": 8620,
      "wòqchto": 8621,
      "wòqripé": 8622,
      "katã": 8623,
      "karak": 8624,
      "kanéx": 8625,
      "karí": 8626,
      "kachà": 8627,
      "karòq": 8628,
      "kabisã": 8629,
      "kará": 8630,
      "kabagra": 8631,
      "karê": 8632,
      "kaise": 8633,
      "kamsãwẽ": 8634,
      "kanò": 8635,
      "##lar": 8636,
      "##laël": 8637,
      "##latura": 8638,
      "##landa": 8639,
      "##laèqtã": 8640,
      "##kĩèq": 8641,
      "##kĩìx": 8642,
      "paa": 8643,
      "pan": 8644,
      "pake": 8645,
      "papa": 8646,
      "patã": 8647,
      "pato": 8648,
      "paúl": 8649,
      "patsë": 8650,
      "patro": 8651,
      "payóq": 8652,
      "pack": 8653,
      "pablo": 8654,
      "patio": 8655,
      "wéxpa": 8656,
      "wéxwã": 8657,
      "wéxër": 8658,
      "wéxbalök": 8659,
      "wéxmãlẽ": 8660,
      "wéxléx": 8661,
      "wéxët": 8662,
      "wéxaie": 8663,
      "wéxbròq": 8664,
      "wéxũka": 8665,
      "wéxdök": 8666,
      "wéxalẽ": 8667,
      "tkla": 8668,
      "tkòqk": 8669,
      "tkîr": 8670,
      "tkòqkẽ": 8671,
      "tkèmĩ": 8672,
      "tkìnã": 8673,
      "tkéwa": 8674,
      "tkéqrule": 8675,
      "tkóqwã": 8676,
      "tkii": 8677,
      "tkêxk": 8678,
      "tkênĩk": 8679,
      "tksìnã": 8680,
      "tkörö": 8681,
      "tkèxikë": 8682,
      "##ũkã": 8683,
      "##ũknẽ": 8684,
      "##ũköl": 8685,
      "##ũkwã": 8686,
      "##ũkkã": 8687,
      "##kãla": 8688,
      "##kãiã": 8689,
      "##kãlã": 8690,
      "##kãnìxñãk": 8691,
      "##jkáx": 8692,
      "##jkêq": 8693,
      "##jkéqkë": 8694,
      "##nèxtã": 8695,
      "##nèxsi": 8696,
      "##nèxĩã": 8697,
      "##nèxkã": 8698,
      "mãũk": 8699,
      "mãlĩ": 8700,
      "mãúxk": 8701,
      "mãùxke": 8702,
      "mãnîxnîx": 8703,
      "mãwéxwã": 8704,
      "mãmĩtke": 8705,
      "mãòxrule": 8706,
      "mãnzana": 8707,
      "mãnẽwẽ": 8708,
      "kãt": 8709,
      "kãmã": 8710,
      "kãlĩ": 8711,
      "kãtu": 8712,
      "kãjkêx": 8713,
      "kãlẽ": 8714,
      "kãlîx": 8715,
      "kãtkenẽ": 8716,
      "kãlã": 8717,
      "kãlíx": 8718,
      "##art": 8719,
      "##arkĩ": 8720,
      "##ares": 8721,
      "##arón": 8722,
      "##arros": 8723,
      "##arót": 8724,
      "##aratuaa": 8725,
      "##wöba": 8726,
      "##wöaka": 8727,
      "##wöjts": 8728,
      "##wöalájts": 8729,
      "##sha": 8730,
      "##shô": 8731,
      "##shàx": 8732,
      "##shki": 8733,
      "##shwak": 8734,
      "##shkóq": 8735,
      "##shmũl": 8736,
      "##shkala": 8737,
      "##shkéq": 8738,
      "##shalë": 8739,
      "##shakẽ": 8740,
      "##shiri": 8741,
      "##shakö": 8742,
      "irinã": 8743,
      "##ákũ": 8744,
      "##ákök": 8745,
      "##ákla": 8746,
      "irirbé": 8747,
      "ujù": 8748,
      "ujúx": 8749,
      "ujòqki": 8750,
      "bióq": 8751,
      "bièke": 8752,
      "bièkẽ": 8753,
      "bili": 8754,
      "bira": 8755,
      "bièmĩ": 8756,
      "bigo": 8757,
      "birô": 8758,
      "biót": 8759,
      "bical": 8760,
      "biéstsã": 8761,
      "biátsã": 8762,
      "birè": 8763,
      "biéjtsã": 8764,
      "biàtsã": 8765,
      "biaratuaa": 8766,
      "##kita": 8767,
      "##kirkẽ": 8768,
      "##kichi": 8769,
      "##kirpa": 8770,
      "##king": 8771,
      "##kiànũk": 8772,
      "##kichawak": 8773,
      "##êqã": 8774,
      "##êqkĩ": 8775,
      "##êqũk": 8776,
      "##êqsh": 8777,
      "##êqköl": 8778,
      "##êqbal": 8779,
      "##êqikalë": 8780,
      "mìxa": 8781,
      "mìxpa": 8782,
      "mìxkẽ": 8783,
      "mìxãt": 8784,
      "mìxshka": 8785,
      "mìxrkã": 8786,
      "mìxnĩã": 8787,
      "mìxchke": 8788,
      "mìxppa": 8789,
      "mìxchake": 8790,
      "mìxkẽwã": 8791,
      "mìxtkènẽ": 8792,
      "mìxã": 8793,
      "mìxẽã": 8794,
      "dawó": 8795,
      "dawák": 8796,
      "dawéwa": 8797,
      "dawéwã": 8798,
      "dawóqwã": 8799,
      "dawòkẽwã": 8800,
      "dawóqkã": 8801,
      "kànã": 8802,
      "kàkã": 8803,
      "kàtk": 8804,
      "kàba": 8805,
      "kànũk": 8806,
      "kàbi": 8807,
      "kàñã": 8808,
      "kàtak": 8809,
      "kàble": 8810,
      "kàblë": 8811,
      "kàbale": 8812,
      "kàbalë": 8813,
      "kàbà": 8814,
      "kànãkã": 8815,
      "kànũnã": 8816,
      "kànùxnã": 8817,
      "kàiwö": 8818,
      "kàsie": 8819,
      "kàmsũ": 8820,
      "ule": 8821,
      "uléx": 8822,
      "uléi": 8823,
      "uléka": 8824,
      "ulawẽ": 8825,
      "uls̀": 8826,
      "ulétsi": 8827,
      "yawẽ": 8828,
      "yawók": 8829,
      "yawâk": 8830,
      "##wèxĩã": 8831,
      "##wèxkènẽ": 8832,
      "##blòqkẽ": 8833,
      "##bléqrkẽ": 8834,
      "##blèqrke": 8835,
      "##blóqmbla": 8836,
      "##blakèqta": 8837,
      "##blóqkbla": 8838,
      "míxa": 8839,
      "míxnã": 8840,
      "míxwã": 8841,
      "míxla": 8842,
      "míxrö": 8843,
      "míxtkenẽ": 8844,
      "míxtkẽ": 8845,
      "míxrka": 8846,
      "míxlapa": 8847,
      "míxshkã": 8848,
      "míxàxtke": 8849,
      "míxshkala": 8850,
      "kuë": 8851,
      "kuke": 8852,
      "kuáx": 8853,
      "kuök": 8854,
      "kuio": 8855,
      "kuáköl": 8856,
      "kuyèq": 8857,
      "kukũ": 8858,
      "kukuè": 8859,
      "kuwé": 8860,
      "kuàë": 8861,
      "kuòqwö": 8862,
      "kuàköl": 8863,
      "kuéxkĩ": 8864,
      "kuwéwã": 8865,
      "kuìwak": 8866,
      "kuöbie": 8867,
      "kuàbolo": 8868,
      "kük": 8869,
      "kuòqpa": 8870,
      "kuchéqwö": 8871,
      "tãîx̠": 8872,
      "siè": 8873,
      "sinã": 8874,
      "sirke": 8875,
      "simp": 8876,
      "sinàx": 8877,
      "side": 8878,
      "siàköl": 8879,
      "siwèkẽ": 8880,
      "sĩni": 8881,
      "éxũk": 8882,
      "éxrkẽ": 8883,
      "éxjkë": 8884,
      "éxtsẽ": 8885,
      "éxtkö": 8886,
      "éxrkũ": 8887,
      "éxyö": 8888,
      "éxnèxnẽ": 8889,
      "éxtkòq": 8890,
      "éxñìxnẽ": 8891,
      "éxdali": 8892,
      "##óxs": 8893,
      "##óxm": 8894,
      "##óxsh": 8895,
      "##óxrkẽ": 8896,
      "séxnẽ": 8897,
      "séxnã": 8898,
      "séxka": 8899,
      "séxkã": 8900,
      "séxes": 8901,
      "séxwèxke": 8902,
      "séxwõ": 8903,
      "séxrâ": 8904,
      "séxtö": 8905,
      "séxkala": 8906,
      "séxraã": 8907,
      "séxrdâ": 8908,
      "séxõnõ": 8909,
      "séxjkáx": 8910,
      "séxshàx": 8911,
      "séxwèxĩã": 8912,
      "yéqka": 8913,
      "yéqmĩ": 8914,
      "yéqla": 8915,
      "yéqkã": 8916,
      "yéqwö": 8917,
      "yéqwa": 8918,
      "yéqule": 8919,
      "yéqjkuö": 8920,
      "yéqrmĩ": 8921,
      "yéqulur": 8922,
      "yéqrkũ": 8923,
      "yéqttsã": 8924,
      "yéqbak": 8925,
      "yéqblë": 8926,
      "yéqchake": 8927,
      "yéqlapa": 8928,
      "yéqblô": 8929,
      "yéqchkepa": 8930,
      "yéqkkuö": 8931,
      "yéqrulur": 8932,
      "yéqrlur": 8933,
      "yéqrlu": 8934,
      "yéqblòqkẽ": 8935,
      "wèxri": 8936,
      "wèxmĩ": 8937,
      "wèxwã": 8938,
      "wèxkã": 8939,
      "wèxwa": 8940,
      "wèxñẽ": 8941,
      "wèxdi": 8942,
      "wèxde": 8943,
      "wèxkëka": 8944,
      "ujta": 8945,
      "ujte": 8946,
      "ujtòqk": 8947,
      "ujtòqkẽ": 8948,
      "ujtii": 8949,
      "ujtâkũ": 8950,
      "ujtòkẽ": 8951,
      "##òxwã": 8952,
      "##òxla": 8953,
      "##òxpòx": 8954,
      "sulí": 8955,
      "sulì": 8956,
      "sulèqr": 8957,
      "sulël": 8958,
      "suléqt": 8959,
      "sulèùà": 8960,
      "nãi": 8961,
      "nãĩã": 8962,
      "nãnũ": 8963,
      "nãmèx": 8964,
      "nãmúx": 8965,
      "nãìtali": 8966,
      "nãìxdaw": 8967,
      "sãk": 8968,
      "sãnêx": 8969,
      "sãùxkẽ": 8970,
      "sãwé": 8971,
      "sãnèxnèx": 8972,
      "sãwãr": 8973,
      "sãnêxnẽ": 8974,
      "sãw̱": 8975,
      "##rkeka": 8976,
      "##rkeĩã": 8977,
      "##kuá": 8978,
      "##kuk": 8979,
      "##kukẽ": 8980,
      "##kuök": 8981,
      "##kuèke": 8982,
      "##kuyök": 8983,
      "##kukö": 8984,
      "##kuöla": 8985,
      "##tanẽ": 8986,
      "##taũk": 8987,
      "##tanc": 8988,
      "##taci": 8989,
      "kãnèxwéx": 8990,
      "kãnèxwõ": 8991,
      "kãnèxwák": 8992,
      "kàly": 8993,
      "kàlulâ": 8994,
      "kàlko": 8995,
      "kàlsul": 8996,
      "kàlbuk": 8997,
      "kàlwòq": 8998,
      "kàlsũ": 8999,
      "kàlnĩmẽ": 9000,
      "kàlkichà": 9001,
      "kàlĩ": 9002,
      "kàlkukö": 9003,
      "kũéxki": 9004,
      "kũéxwa": 9005,
      "shkèkẽ": 9006,
      "shkók": 9007,
      "shklé": 9008,
      "shkòwã": 9009,
      "shkârë": 9010,
      "shkéxñũk": 9011,
      "shkàxtãnẽ": 9012,
      "batsẽ": 9013,
      "band": 9014,
      "bayo": 9015,
      "banco": 9016,
      "babò": 9017,
      "kali": 9018,
      "kalõ": 9019,
      "kalkã": 9020,
      "kalula": 9021,
      "kalìnã": 9022,
      "kalnúx": 9023,
      "kalóqktër": 9024,
      "kalàtska": 9025,
      "kalwöjts": 9026,
      "wèxsĩõ": 9027,
      "éxnéx": 9028,
      "éxnâx": 9029,
      "éxnbi": 9030,
      "éxnĩã": 9031,
      "##tãmùx": 9032,
      "##ieke": 9033,
      "##iela": 9034,
      "##iedule": 9035,
      "##urri": 9036,
      "mĩkë": 9037,
      "mĩwö": 9038,
      "mĩkie": 9039,
      "mĩlíx": 9040,
      "mĩátke": 9041,
      "mĩś": 9042,
      "pàba": 9043,
      "pàtök": 9044,
      "pàkè": 9045,
      "pàtkë": 9046,
      "pàmĩk": 9047,
      "pàkue": 9048,
      "pàble": 9049,
      "pàblë": 9050,
      "pàsĩ": 9051,
      "pàskuök": 9052,
      "pàchòq": 9053,
      "pàyör": 9054,
      "pànãnũk": 9055,
      "pàtaũk": 9056,
      "##rërpa": 9057,
      "##estro": 9058,
      "##estatal": 9059,
      "ẽnãë": 9060,
      "##mãk": 9061,
      "##mãũk": 9062,
      "##mãmã": 9063,
      "ajkòqt": 9064,
      "ajkày": 9065,
      "ajkâr": 9066,
      "ajkóqkicha": 9067,
      "ajkéqũk": 9068,
      "ajkéqbale": 9069,
      "alàuaa": 9070,
      "alàpà": 9071,
      "alàtsítsi": 9072,
      "alànũ": 9073,
      "alànõkè": 9074,
      "alàstsök": 9075,
      "alàdul": 9076,
      "alàkòqke": 9077,
      "data": 9078,
      "danĩ": 9079,
      "datsẽ": 9080,
      "dapà": 9081,
      "dama": 9082,
      "daót": 9083,
      "datâũk": 9084,
      "daôda": 9085,
      "datsù": 9086,
      "##seph": 9087,
      "##òqkekã": 9088,
      "##kölpa": 9089,
      "##tkóq": 9090,
      "##tkòqke": 9091,
      "##tkkòq": 9092,
      "##tkèwã": 9093,
      "##tktöm": 9094,
      "##tkòqwã": 9095,
      "##tkêqtẽn": 9096,
      "##tkéqrkẽ": 9097,
      "##tkée": 9098,
      "##tkõla": 9099,
      "##tkêqkĩ": 9100,
      "##tànã": 9101,
      "##tànũk": 9102,
      "##wamĩ": 9103,
      "##waie": 9104,
      "##watke": 9105,
      "##roe": 9106,
      "##ron": 9107,
      "akê": 9108,
      "akáköl": 9109,
      "akâũk": 9110,
      "akáxts": 9111,
      "akalóqknãmẽ": 9112,
      "akblè": 9113,
      "ak̀a": 9114,
      "akwaie": 9115,
      "##irad": 9116,
      "##irísh": 9117,
      "dalo": 9118,
      "dalia": 9119,
      "dalòl": 9120,
      "dalió": 9121,
      "dalënã": 9122,
      "dalêqwẽ": 9123,
      "dale̜": 9124,
      "dalèqna": 9125,
      "##èkẽstsã": 9126,
      "chase": 9127,
      "chamùx": 9128,
      "chabà": 9129,
      "chamù": 9130,
      "chacà": 9131,
      "détsẽ": 9132,
      "dérak": 9133,
      "déstsã": 9134,
      "débitu": 9135,
      "década": 9136,
      "ulàtsi": 9137,
      "ulàmẽ": 9138,
      "ulàwe": 9139,
      "ulàtt": 9140,
      "ulàmèx": 9141,
      "ulàjkue": 9142,
      "ulàtska": 9143,
      "ulàbà": 9144,
      "ulàmũk": 9145,
      "ulàdö": 9146,
      "ulàitö": 9147,
      "ulàbulù": 9148,
      "ulàièke": 9149,
      "ulàbua": 9150,
      "ulàwèxkènẽ": 9151,
      "ãmũ": 9152,
      "ãmóx": 9153,
      "ãmáxwã": 9154,
      "ãmôxwak": 9155,
      "ãmílã": 9156,
      "ãmáxsã": 9157,
      "##âxr": 9158,
      "##âxli": 9159,
      "##wẽke": 9160,
      "##wẽnẽ": 9161,
      "##wẽmãlẽ": 9162,
      "éqt": 9163,
      "éqse": 9164,
      "éqan": 9165,
      "éqkal": 9166,
      "éqme": 9167,
      "éqrkewã": 9168,
      "##tsik": 9169,
      "##tsio": 9170,
      "##tsimĩ": 9171,
      "##tsitkèwã": 9172,
      "sibö": 9173,
      "sibéql": 9174,
      "sibirkẽ": 9175,
      "sibìkũk": 9176,
      "sibáyöm": 9177,
      "sibítsêx": 9178,
      "sibûbû": 9179,
      "sibèqlöaa": 9180,
      "sibéqlà": 9181,
      "##rkẽkã": 9182,
      "##rkẽtsã": 9183,
      "apû": 9184,
      "apát": 9185,
      "apple": 9186,
      "apeñ": 9187,
      "apùlwö": 9188,
      "apúxt": 9189,
      "apákök": 9190,
      "àxta": 9191,
      "àxnũk": 9192,
      "àxte": 9193,
      "àxrmĩ": 9194,
      "àxne": 9195,
      "àxtpa": 9196,
      "kiàrpa": 9197,
      "wéqn": 9198,
      "wéqta": 9199,
      "wéqtã": 9200,
      "wéqbla": 9201,
      "wéqemĩ": 9202,
      "##liwö": 9203,
      "##liwẽ": 9204,
      "##lito": 9205,
      "##lino": 9206,
      "##litak": 9207,
      "##liũköl": 9208,
      "sibòqr": 9209,
      "sibòqnũ": 9210,
      "ská": 9211,
      "skö": 9212,
      "skèke": 9213,
      "skòqke": 9214,
      "skéwa": 9215,
      "skówã": 9216,
      "skâl": 9217,
      "skóie": 9218,
      "skûkicha": 9219,
      "skũèx": 9220,
      "skìlkak": 9221,
      "skalì": 9222,
      "##tket": 9223,
      "##tketke": 9224,
      "bakë": 9225,
      "bakka": 9226,
      "bakóqk": 9227,
      "bakwã": 9228,
      "bakshka": 9229,
      "bakdak": 9230,
      "bakènẽ": 9231,
      "baktkër": 9232,
      "bakêke": 9233,
      "bakéulur": 9234,
      "bakalíx": 9235,
      "íxñìx": 9236,
      "íxyök": 9237,
      "##bacha": 9238,
      "##batsé": 9239,
      "##òqtĩũk": 9240,
      "##mẽrule": 9241,
      "##mẽrkã": 9242,
      "yànũk": 9243,
      "yàbë": 9244,
      "yàrkũ": 9245,
      "yàblu": 9246,
      "yàmíx": 9247,
      "yànâxnã": 9248,
      "yàblo": 9249,
      "yànóxk": 9250,
      "ĩãnã": 9251,
      "ĩãrke": 9252,
      "ĩãchí": 9253,
      "##uleùxkẽ": 9254,
      "##chili": 9255,
      "##chikí": 9256,
      "##chikala": 9257,
      "dòqwã": 9258,
      "dòqköl": 9259,
      "dòqwa": 9260,
      "dòqrâ": 9261,
      "dòqĩã": 9262,
      "dòqyal": 9263,
      "dòqmãlẽ": 9264,
      "dòqwãmĩ": 9265,
      "dòqñĩ": 9266,
      "dòqtsãmĩ": 9267,
      "dòqlë": 9268,
      "dòqtsãrâ": 9269,
      "dòqrànẽ": 9270,
      "bale": 9271,
      "baló": 9272,
      "balóqk": 9273,
      "balèkẽ": 9274,
      "balèqnẽ": 9275,
      "balèmĩ": 9276,
      "baléwã": 9277,
      "balènẽ": 9278,
      "balóqkwã": 9279,
      "balèqnẽwã": 9280,
      "balenõ": 9281,
      "balòratuaa": 9282,
      "balátk": 9283,
      "balêwã": 9284,
      "balêqbal": 9285,
      "wàk": 9286,
      "wàkẽ": 9287,
      "wàwa": 9288,
      "wàkö": 9289,
      "wàpi": 9290,
      "wàtkök": 9291,
      "wàblèqrke": 9292,
      "wàiedule": 9293,
      "##weë": 9294,
      "##weìnũk": 9295,
      "##wewamĩ": 9296,
      "##tsãna": 9297,
      "##tsãñã": 9298,
      "##ers": 9299,
      "##eran": 9300,
      "##ería": 9301,
      "##erèwãmĩ": 9302,
      "##erza": 9303,
      "bulâx": 9304,
      "bulñã": 9305,
      "bulát": 9306,
      "buluk": 9307,
      "bulànã": 9308,
      "bulúr": 9309,
      "bulànũk": 9310,
      "bulátse": 9311,
      "buléqwö": 9312,
      "bulèes": 9313,
      "ĩàxtẽ": 9314,
      "ĩàxĩâx": 9315,
      "ĩàxrtsẽ": 9316,
      "ĩàxṉ": 9317,
      "sĩán": 9318,
      "sĩnáx": 9319,
      "sĩwâxã": 9320,
      "sĩawã": 9321,
      "ésela": 9322,
      "##iosa": 9323,
      "yòqa": 9324,
      "yòqtsã": 9325,
      "yòqnũ": 9326,
      "yòqnâxnã": 9327,
      "yòqulewã": 9328,
      "##ory": 9329,
      "##orting": 9330,
      "ujtémĩnẽ": 9331,
      "ujtéchóqk": 9332,
      "ujtéköpa": 9333,
      "ujtépóqkka": 9334,
      "ujtémĩne": 9335,
      "ujtékölpa": 9336,
      "wóqri": 9337,
      "wóqik": 9338,
      "wóqula": 9339,
      "wóqnĩ": 9340,
      "wóqpp": 9341,
      "wóqike": 9342,
      "wóqale": 9343,
      "wóqkela": 9344,
      "wóqulat": 9345,
      "wóqalök": 9346,
      "wóqitre": 9347,
      "wóqblakèqta": 9348,
      "kíxtã": 9349,
      "kíxtse": 9350,
      "kíxmùx": 9351,
      "kíxsã": 9352,
      "kíxtsë": 9353,
      "kíxtso": 9354,
      "kíxstsök": 9355,
      "kíxtsër": 9356,
      "kíxmãk": 9357,
      "ichapa": 9358,
      "##òqkũ": 9359,
      "##òqkíx": 9360,
      "##òqköt": 9361,
      "##òqkalòq": 9362,
      "tkëtẽ": 9363,
      "tkënĩk": 9364,
      "tkëlë": 9365,
      "tkëshkö": 9366,
      "##chacho": 9367,
      "##wéxtke": 9368,
      "##wéxwe": 9369,
      "##wéxtsã": 9370,
      "kapéq": 9371,
      "kapèqnẽ": 9372,
      "kapéqrule": 9373,
      "kapöt": 9374,
      "kapòqte": 9375,
      "kapèqnẽwã": 9376,
      "kapòkẽ": 9377,
      "ñãa": 9378,
      "ñãk": 9379,
      "ñãr": 9380,
      "ñãã": 9381,
      "ñãwã": 9382,
      "ñãwẽ": 9383,
      "ñãik": 9384,
      "ñãnàx": 9385,
      "ñãwĩ": 9386,
      "ñãóköl": 9387,
      "ñãwékã": 9388,
      "ñãlitak": 9389,
      "ñãwéxwe": 9390,
      "iké": 9391,
      "ikè": 9392,
      "ikök": 9393,
      "ikèke": 9394,
      "ikèkẽ": 9395,
      "ikànã": 9396,
      "ikale": 9397,
      "iklé": 9398,
      "ikítule": 9399,
      "iklèmĩ": 9400,
      "ikìnèxkã": 9401,
      "ikóqkãt": 9402,
      "ikêqköl": 9403,
      "##kòqrkè": 9404,
      "##kòqmêx": 9405,
      "##jkëtã": 9406,
      "##balo": 9407,
      "##balé": 9408,
      "##balèqrke": 9409,
      "##balenõ": 9410,
      "##balèqne": 9411,
      "##nũkmĩ": 9412,
      "##nũkwã": 9413,
      "##nũkwa": 9414,
      "dawáskã": 9415,
      "dawáskalö": 9416,
      "sulûa": 9417,
      "sulûõ": 9418,
      "sulûwéx": 9419,
      "sulûrpa": 9420,
      "sulûèqmẽ": 9421,
      "sulûòxnẽ": 9422,
      "sulûũkka": 9423,
      "apàka": 9424,
      "apàie": 9425,
      "apàtse": 9426,
      "apàdi": 9427,
      "apàtkë": 9428,
      "apàtu": 9429,
      "apàpp": 9430,
      "apàikal": 9431,
      "apàtkö": 9432,
      "apàbu": 9433,
      "apàchök": 9434,
      "apàyaw": 9435,
      "apàppök": 9436,
      "apàdalër": 9437,
      "apàyo": 9438,
      "apàsãũk": 9439,
      "apàbalèkẽ": 9440,
      "apàmũẽ": 9441,
      "apàtkóq": 9442,
      "apàchikí": 9443,
      "##toria": 9444,
      "##topi": 9445,
[...]
